<pad>	0
<unk>	0
<bos>	0
<eos>	0
▁t	-0
▁th	-1
▁a	-2
in	-3
▁,	-4
▁w	-5
▁the	-6
re	-7
▁.	-8
▁o	-9
▁s	-10
▁i	-11
at	-12
er	-13
nd	-14
ou	-15
▁c	-16
▁b	-17
▁m	-18
ing	-19
▁h	-20
en	-21
on	-22
▁to	-23
▁p	-24
▁f	-25
▁d	-26
an	-27
es	-28
▁'	-29
▁of	-30
or	-31
al	-32
▁in	-33
th	-34
▁l	-35
▁and	-36
ed	-37
is	-38
▁y	-39
ar	-40
▁g	-41
▁that	-42
om	-43
as	-44
it	-45
le	-46
▁you	-47
ic	-48
▁n	-49
▁we	-50
ve	-51
▁wh	-52
ll	-53
▁e	-54
▁is	-55
ow	-56
▁it	-57
ly	-58
us	-59
▁be	-60
ut	-61
and	-62
ion	-63
▁re	-64
ct	-65
▁on	-66
ent	-67
ot	-68
▁ha	-69
ver	-70
ld	-71
ay	-72
se	-73
▁this	-74
et	-75
ro	-76
st	-77
id	-78
▁st	-79
ig	-80
ch	-81
ere	-82
ur	-83
▁wi	-84
ke	-85
ce	-86
▁for	-87
▁"	-88
▁was	-89
im	-90
▁an	-91
▁do	-92
ra	-93
ir	-94
▁are	-95
so	-96
▁go	-97
▁u	-98
▁li	-99
ally	-100
op	-101
▁k	-102
ome	-103
▁they	-104
am	-105
▁have	-106
▁with	-107
▁ab	-108
▁se	-109
ol	-110
▁can	-111
▁mo	-112
▁-	-113
▁--	-114
▁as	-115
▁what	-116
ation	-117
out	-118
ht	-119
▁he	-120
▁?	-121
▁wor	-122
ge	-123
▁ne	-124
▁j	-125
▁me	-126
very	-127
ad	-128
▁sh	-129
▁so	-130
▁at	-131
ould	-132
now	-133
▁about	-134
▁ch	-135
▁r	-136
ant	-137
ter	-138
il	-139
▁all	-140
ul	-141
oo	-142
▁not	-143
▁fr	-144
ust	-145
▁ex	-146
ther	-147
▁com	-148
▁pro	-149
use	-150
▁de	-151
ight	-152
▁there	-153
▁or	-154
if	-155
▁my	-156
we	-157
the	-158
▁pe	-159
ers	-160
▁some	-161
▁con	-162
art	-163
ear	-164
um	-165
ople	-166
pp	-167
▁one	-168
ck	-169
▁like	-170
ess	-171
ure	-172
ate	-173
▁people	-174
ies	-175
▁ma	-176
ive	-177
est	-178
ity	-179
▁from	-180
ca	-181
▁v	-182
ble	-183
all	-184
nt	-185
ist	-186
ind	-187
▁al	-188
pe	-189
qu	-190
▁but	-191
▁te	-192
ink	-193
▁us	-194
▁our	-195
▁int	-196
▁out	-197
▁know	-198
▁just	-199
ook	-200
od	-201
rou	-202
un	-203
▁:	-204
▁thing	-205
but	-206
cause	-207
▁if	-208
▁these	-209
▁them	-210
▁see	-211
▁very	-212
ill	-213
▁tr	-214
one	-215
ie	-216
▁up	-217
▁think	-218
▁who	-219
ort	-220
▁get	-221
▁pl	-222
os	-223
ich	-224
▁going	-225
▁by	-226
▁act	-227
ci	-228
▁1	-229
thing	-230
iv	-231
ain	-232
▁when	-233
ect	-234
og	-235
▁because	-236
▁your	-237
▁sa	-238
▁year	-239
▁had	-240
our	-241
▁more	-242
▁tim	-243
▁how	-244
▁im	-245
el	-246
▁en	-247
00	-248
▁were	-249
ine	-250
▁look	-251
▁would	-252
em	-253
▁which	-254
▁su	-255
▁really	-256
▁want	-257
ast	-258
ame	-259
▁ta	-260
▁their	-261
wh	-262
ually	-263
▁comp	-264
ment	-265
▁work	-266
act	-267
▁le	-268
ard	-269
gh	-270
▁no	-271
iz	-272
ous	-273
reat	-274
ack	-275
▁here	-276
▁way	-277
▁world	-278
are	-279
ose	-280
ore	-281
▁time	-282
▁has	-283
▁then	-284
ap	-285
ans	-286
ab	-287
▁un	-288
▁per	-289
▁don	-290
▁qu	-291
▁other	-292
ag	-293
▁man	-294
▁every	-295
ide	-296
▁actually	-297
▁into	-298
▁now	-299
▁will	-300
▁say	-301
▁fe	-302
▁ev	-303
▁could	-304
ong	-305
ace	-306
res	-307
▁things	-308
▁ag	-309
ence	-310
this	-311
▁where	-312
ud	-313
ions	-314
itt	-315
age	-316
▁years	-317
▁sp	-318
▁did	-319
▁co	-320
▁am	-321
▁than	-322
per	-323
alk	-324
ild	-325
pl	-326
iff	-327
you	-328
▁cl	-329
ff	-330
ach	-331
▁any	-332
nder	-333
▁new	-334
ical	-335
▁tw	-336
▁been	-337
▁happ	-338
▁diff	-339
▁make	-340
▁right	-341
▁ar	-342
de	-343
▁pr	-344
▁said	-345
red	-346
▁po	-347
▁start	-348
pt	-349
▁need	-350
fe	-351
be	-352
▁bu	-353
irst	-354
▁ro	-355
▁part	-356
▁2	-357
▁over	-358
▁something	-359
ree	-360
▁dis	-361
ri	-362
ath	-363
they	-364
ry	-365
ory	-366
▁mu	-367
ice	-368
▁back	-369
ite	-370
ia	-371
for	-372
own	-373
▁two	-374
▁lo	-375
▁kind	-376
olog	-377
▁got	-378
▁much	-379
round	-380
▁first	-381
▁call	-382
he	-383
ount	-384
ple	-385
ang	-386
ens	-387
▁af	-388
▁spe	-389
▁differe	-390
ittle	-391
ign	-392
▁those	-393
▁little	-394
ater	-395
ass	-396
ound	-397
▁ph	-398
▁imp	-399
▁also	-400
▁lot	-401
cent	-402
sel	-403
ber	-404
▁cont	-405
ght	-406
ue	-407
▁she	-408
ph	-409
ces	-410
ult	-411
▁ac	-412
▁talk	-413
way	-414
ish	-415
ves	-416
▁most	-417
▁des	-418
king	-419
rain	-420
▁bet	-421
▁only	-422
co	-423
▁life	-424
▁sy	-425
ms	-426
▁ad	-427
ving	-428
vel	-429
ated	-430
▁under	-431
ip	-432
ody	-433
▁his	-434
able	-435
▁day	-436
ations	-437
▁bl	-438
▁even	-439
ru	-440
▁well	-441
▁good	-442
▁res	-443
▁take	-444
▁hum	-445
▁different	-446
ict	-447
▁many	-448
int	-449
that	-450
ick	-451
rough	-452
ood	-453
▁ide	-454
▁does	-455
▁real	-456
▁br	-457
▁down	-458
du	-459
▁around	-460
▁gr	-461
▁her	-462
▁comm	-463
▁put	-464
▁through	-465
▁inter	-466
ance	-467
ase	-468
▁pre	-469
ial	-470
▁bo	-471
ents	-472
▁show	-473
ark	-474
urn	-475
▁use	-476
ange	-477
ep	-478
cess	-479
▁tell	-480
▁being	-481
▁em	-482
▁fl	-483
ire	-484
▁off	-485
▁too	-486
ade	-487
▁sc	-488
ak	-489
there	-490
▁ind	-491
▁thou	-492
▁great	-493
▁happen	-494
form	-495
▁come	-496
▁same	-497
ors	-498
▁proble	-499
chn	-500
▁sm	-501
ress	-502
▁may	-503
▁try	-504
▁;	-505
wn	-506
ary	-507
▁inc	-508
ject	-509
▁gen	-510
▁big	-511
day	-512
▁fact	-513
▁car	-514
lect	-515
▁doing	-516
▁count	-517
xt	-518
▁techn	-519
ys	-520
ob	-521
ful	-522
stem	-523
ual	-524
igh	-525
▁three	-526
ell	-527
ric	-528
▁wr	-529
what	-530
ically	-531
ning	-532
▁gu	-533
let	-534
▁find	-535
▁why	-536
▁let	-537
ible	-538
ting	-539
▁ra	-540
▁pers	-541
▁human	-542
▁sur	-543
iver	-544
ons	-545
▁tra	-546
▁bec	-547
ved	-548
ology	-549
ac	-550
▁app	-551
▁percent	-552
other	-553
▁system	-554
ank	-555
illion	-556
▁build	-557
fore	-558
▁dec	-559
ib	-560
▁called	-561
▁stud	-562
ower	-563
ren	-564
ile	-565
▁sim	-566
▁again	-567
▁child	-568
self	-569
▁ear	-570
▁long	-571
▁quest	-572
▁made	-573
body	-574
▁fo	-575
▁col	-576
ition	-577
ating	-578
▁exper	-579
▁inv	-580
▁lear	-581
ics	-582
▁rem	-583
ious	-584
▁bel	-585
ord	-586
▁own	-587
▁end	-588
▁should	-589
▁after	-590
ft	-591
▁wom	-592
les	-593
▁ob	-594
▁import	-595
cial	-596
erest	-597
ize	-598
ars	-599
▁sch	-600
oss	-601
▁cour	-602
con	-603
▁inst	-604
ities	-605
▁mean	-606
▁underst	-607
000	-608
▁design	-609
▁turn	-610
▁thought	-611
av	-612
▁hel	-613
▁today	-614
ates	-615
▁idea	-616
▁didn	-617
▁change	-618
▁brain	-619
▁bas	-620
▁play	-621
ty	-622
▁ask	-623
ub	-624
ands	-625
▁gl	-626
ian	-627
▁creat	-628
▁sci	-629
well	-630
▁interest	-631
▁him	-632
ne	-633
▁important	-634
▁person	-635
▁last	-636
▁feel	-637
▁high	-638
▁started	-639
ied	-640
▁ke	-641
▁its	-642
mo	-643
,000	-644
▁rel	-645
▁exam	-646
▁trans	-647
als	-648
ail	-649
▁went	-650
ool	-651
▁cr	-652
ough	-653
▁3	-654
▁before	-655
▁ins	-656
▁course	-657
gan	-658
▁bit	-659
ise	-660
▁give	-661
ull	-662
▁point	-663
▁never	-664
▁problem	-665
▁sl	-666
▁cons	-667
▁story	-668
▁another	-669
▁help	-670
▁produ	-671
▁mon	-672
▁might	-673
▁better	-674
ven	-675
▁understand	-676
ular	-677
ists	-678
ility	-679
▁school	-680
▁found	-681
ily	-682
▁belie	-683
cond	-684
ction	-685
atter	-686
ert	-687
kes	-688
ese	-689
▁sort	-690
▁kid	-691
▁la	-692
ros	-693
▁eng	-694
▁able	-695
▁few	-696
▁sol	-697
▁pol	-698
gether	-699
▁power	-700
eric	-701
▁ago	-702
▁next	-703
▁art	-704
▁still	-705
ution	-706
ave	-707
▁fam	-708
▁plan	-709
▁ext	-710
▁num	-711
▁water	-712
▁together	-713
ix	-714
uc	-715
▁came	-716
▁dr	-717
ense	-718
erg	-719
und	-720
▁ent	-721
▁19	-722
▁place	-723
ward	-724
▁imag	-725
ience	-726
pect	-727
▁commun	-728
▁mod	-729
▁cent	-730
▁learn	-731
ited	-732
▁technology	-733
no	-734
alth	-735
▁ser	-736
▁ter	-737
velop	-738
▁min	-739
atch	-740
▁att	-741
ween	-742
▁10	-743
▁used	-744
▁dat	-745
▁med	-746
▁each	-747
read	-748
ram	-749
ather	-750
▁rec	-751
▁question	-752
ness	-753
old	-754
▁nat	-755
▁between	-756
ized	-757
▁develop	-758
▁mom	-759
lic	-760
▁ed	-761
arch	-762
▁love	-763
▁small	-764
▁20	-765
▁done	-766
iss	-767
ures	-768
▁four	-769
▁light	-770
ely	-771
▁looking	-772
▁op	-773
ways	-774
▁example	-775
▁fin	-776
▁cre	-777
▁second	-778
ger	-779
▁americ	-780
ks	-781
▁word	-782
▁str	-783
▁data	-784
▁old	-785
▁women	-786
ific	-787
▁doesn	-788
▁comput	-789
▁partic	-790
▁mus	-791
az	-792
iness	-793
▁el	-794
ced	-795
▁eff	-796
cy	-797
▁stu	-798
▁grow	-799
when	-800
▁move	-801
because	-802
ably	-803
▁whole	-804
cept	-805
▁lar	-806
▁wanted	-807
formation	-808
ered	-809
▁cell	-810
▁far	-811
thank	-812
how	-813
▁bus	-814
▁care	-815
▁read	-816
▁expl	-817
▁beh	-818
▁ever	-819
ale	-820
▁5	-821
▁bi	-822
▁sk	-823
▁rep	-824
▁live	-825
▁million	-826
▁nor	-827
▁war	-828
▁working	-829
▁hard	-830
▁gra	-831
▁always	-832
ps	-833
▁poss	-834
▁univer	-835
▁gener	-836
conom	-837
▁book	-838
▁trying	-839
ings	-840
▁reas	-841
▁afric	-842
▁children	-843
ative	-844
iend	-845
▁cap	-846
selves	-847
ational	-848
oney	-849
▁chang	-850
ets	-851
▁exp	-852
ross	-853
▁giv	-854
▁econom	-855
▁cor	-856
▁project	-857
▁believe	-858
ird	-859
▁away	-860
ote	-861
▁less	-862
cer	-863
ope	-864
any	-865
▁country	-866
▁pict	-867
▁anim	-868
ural	-869
vers	-870
▁supp	-871
▁health	-872
ments	-873
▁home	-874
ah	-875
ism	-876
▁five	-877
▁space	-878
▁maybe	-879
▁information	-880
▁sub	-881
▁form	-882
gin	-883
ork	-884
▁using	-885
▁cou	-886
▁pres	-887
▁kids	-888
▁means	-889
here	-890
ract	-891
▁open	-892
▁friend	-893
▁4	-894
▁met	-895
▁times	-896
▁vis	-897
▁hand	-898
▁took	-899
▁everything	-900
nect	-901
ruct	-902
▁run	-903
▁inf	-904
to	-905
▁organ	-906
▁thinking	-907
▁lead	-908
▁money	-909
▁elect	-910
led	-911
▁food	-912
▁doll	-913
ries	-914
▁sing	-915
▁teach	-916
hip	-917
▁prob	-918
most	-919
▁ca	-920
alf	-921
▁create	-922
its	-923
▁spec	-924
li	-925
▁number	-926
gg	-927
sw	-928
where	-929
▁left	-930
ten	-931
aces	-932
▁intern	-933
air	-934
▁walk	-935
vern	-936
▁process	-937
▁wo	-938
▁become	-939
omet	-940
▁mind	-941
▁!	-942
▁mark	-943
▁quite	-944
▁pub	-945
▁acc	-946
iew	-947
▁interesting	-948
▁prog	-949
▁ok	-950
ention	-951
▁fun	-952
▁best	-953
▁enough	-954
▁fut	-955
▁reg	-956
my	-957
▁val	-958
▁head	-959
ines	-960
▁conf	-961
aut	-962
ues	-963
ories	-964
▁energ	-965
▁sense	-966
▁set	-967
▁getting	-968
ouse	-969
▁pret	-970
▁comes	-971
▁govern	-972
▁cam	-973
▁cur	-974
▁future	-975
ital	-976
▁happened	-977
iting	-978
ont	-979
lear	-980
▁answ	-981
vir	-982
▁gre	-983
▁probably	-984
▁grou	-985
▁energy	-986
▁stuff	-987
▁building	-988
raph	-989
ertain	-990
▁earth	-991
▁month	-992
▁contro	-993
▁talking	-994
▁making	-995
▁connect	-996
▁room	-997
▁char	-998
▁begin	-999
▁social	-1000
▁jo	-1001
▁dist	-1002
▁air	-1003
▁pop	-1004
▁pie	-1005
▁add	-1006
ock	-1007
▁pat	-1008
ever	-1009
these	-1010
▁half	-1011
▁told	-1012
ety	-1013
▁whe	-1014
▁business	-1015
▁job	-1016
lf	-1017
▁beaut	-1018
▁without	-1019
▁top	-1020
▁else	-1021
▁hist	-1022
▁moment	-1023
▁sign	-1024
▁eas	-1025
nce	-1026
viron	-1027
▁wee	-1028
▁phys	-1029
▁science	-1030
▁z	-1031
ograph	-1032
▁anything	-1033
cus	-1034
▁model	-1035
ately	-1036
▁dollars	-1037
▁soci	-1038
▁coming	-1039
▁pretty	-1040
▁body	-1041
ash	-1042
ices	-1043
▁side	-1044
ying	-1045
▁bad	-1046
▁environ	-1047
▁reason	-1048
▁opp	-1049
▁keep	-1050
ient	-1051
pr	-1052
▁youn	-1053
ts	-1054
▁city	-1055
ner	-1056
▁sound	-1057
▁africa	-1058
▁ty	-1059
▁stop	-1060
▁allow	-1061
▁complet	-1062
▁prot	-1063
▁such	-1064
▁glob	-1065
▁resp	-1066
▁pass	-1067
▁countries	-1068
▁phot	-1069
▁lives	-1070
▁makes	-1071
less	-1072
▁sw	-1073
▁amaz	-1074
not	-1075
▁rese	-1076
ember	-1077
▁stand	-1078
ortun	-1079
▁goes	-1080
▁educ	-1081
▁bring	-1082
der	-1083
▁men	-1084
▁across	-1085
▁200	-1086
▁saw	-1087
▁mid	-1088
uring	-1089
▁cult	-1090
▁simple	-1091
▁bro	-1092
▁par	-1093
▁says	-1094
ior	-1095
ince	-1096
▁bre	-1097
▁hope	-1098
▁sit	-1099
▁matter	-1100
▁mem	-1101
▁six	-1102
▁wonder	-1103
▁happens	-1104
▁asked	-1105
▁ey	-1106
ided	-1107
▁scient	-1108
io	-1109
▁prof	-1110
▁fig	-1111
▁seen	-1112
▁living	-1113
▁experience	-1114
▁particular	-1115
lex	-1116
▁later	-1117
▁picture	-1118
angu	-1119
▁det	-1120
man	-1121
ught	-1122
▁hour	-1123
▁minut	-1124
▁young	-1125
gs	-1126
she	-1127
ization	-1128
▁wa	-1129
▁stre	-1130
▁hu	-1131
llow	-1132
▁mach	-1133
▁global	-1134
ken	-1135
▁fore	-1136
▁family	-1137
▁share	-1138
▁face	-1139
▁ways	-1140
ality	-1141
▁having	-1142
▁research	-1143
▁environment	-1144
▁rob	-1145
▁chin	-1146
▁mil	-1147
▁effect	-1148
lish	-1149
▁list	-1150
▁thank	-1151
▁computer	-1152
▁langu	-1153
▁music	-1154
te	-1155
▁mor	-1156
▁ref	-1157
▁thous	-1158
ins	-1159
▁case	-1160
▁single	-1161
▁rest	-1162
▁vide	-1163
olution	-1164
▁def	-1165
▁days	-1166
▁mar	-1167
imes	-1168
▁problems	-1169
ilt	-1170
▁planet	-1171
ime	-1172
▁states	-1173
▁equ	-1174
arent	-1175
▁che	-1176
ith	-1177
cl	-1178
▁level	-1179
▁inside	-1180
▁loc	-1181
▁age	-1182
▁self	-1183
▁sure	-1184
▁disco	-1185
▁basically	-1186
irl	-1187
ott	-1188
aps	-1189
iter	-1190
rem	-1191
▁di	-1192
▁test	-1193
▁lab	-1194
▁watch	-1195
▁certain	-1196
oc	-1197
ots	-1198
▁almost	-1199
▁once	-1200
▁answer	-1201
▁sou	-1202
▁ideas	-1203
▁guy	-1204
▁yet	-1205
ready	-1206
▁contin	-1207
▁pain	-1208
rop	-1209
ants	-1210
▁hear	-1211
▁saying	-1212
▁suc	-1213
na	-1214
med	-1215
▁possible	-1216
ulation	-1217
ron	-1218
▁exact	-1219
end	-1220
itive	-1221
▁polit	-1222
▁treat	-1223
▁billion	-1224
▁while	-1225
▁wrong	-1226
▁incred	-1227
orn	-1228
▁public	-1229
unch	-1230
dle	-1231
▁history	-1232
ivid	-1233
▁vir	-1234
allen	-1235
osed	-1236
▁dev	-1237
ok	-1238
uth	-1239
▁looks	-1240
▁both	-1241
ead	-1242
▁nothing	-1243
▁mother	-1244
sol	-1245
ury	-1246
▁remember	-1247
row	-1248
▁dise	-1249
▁control	-1250
▁product	-1251
▁cost	-1252
▁already	-1253
▁amazing	-1254
▁unt	-1255
▁within	-1256
▁news	-1257
▁looked	-1258
▁dire	-1259
▁whether	-1260
▁mag	-1261
▁beautif	-1262
▁true	-1263
ond	-1264
▁kill	-1265
new	-1266
▁state	-1267
▁large	-1268
▁ted	-1269
▁’	-1270
oice	-1271
▁god	-1272
▁heart	-1273
▁30	-1274
side	-1275
▁heard	-1276
▁50	-1277
▁ge	-1278
▁imagine	-1279
▁9	-1280
land	-1281
ware	-1282
ivity	-1283
▁sec	-1284
▁often	-1285
br	-1286
▁myself	-1287
▁someone	-1288
oy	-1289
ield	-1290
▁net	-1291
aterial	-1292
▁cancer	-1293
get	-1294
▁challen	-1295
▁6	-1296
▁dra	-1297
ases	-1298
▁adv	-1299
undred	-1300
▁words	-1301
ometimes	-1302
▁community	-1303
vious	-1304
▁cond	-1305
▁works	-1306
▁15	-1307
▁fil	-1308
ages	-1309
▁full	-1310
▁united	-1311
den	-1312
▁iss	-1313
▁class	-1314
▁figure	-1315
pend	-1316
ters	-1317
▁yes	-1318
▁beautiful	-1319
▁piece	-1320
▁cells	-1321
▁language	-1322
imate	-1323
▁video	-1324
▁100	-1325
▁law	-1326
▁pay	-1327
▁months	-1328
▁individ	-1329
▁everybody	-1330
▁aff	-1331
▁built	-1332
▁girl	-1333
▁couple	-1334
▁hundred	-1335
▁cal	-1336
▁species	-1337
ering	-1338
by	-1339
▁market	-1340
▁government	-1341
ush	-1342
▁house	-1343
aper	-1344
ians	-1345
uro	-1346
▁group	-1347
▁night	-1348
▁order	-1349
ake	-1350
of	-1351
▁nature	-1352
line	-1353
▁entire	-1354
▁follow	-1355
▁front	-1356
▁cra	-1357
▁line	-1358
bers	-1359
▁middle	-1360
▁material	-1361
ier	-1362
▁result	-1363
▁friends	-1364
▁universe	-1365
ene	-1366
▁incre	-1367
▁isn	-1368
▁education	-1369
up	-1370
▁individual	-1371
▁ret	-1372
▁view	-1373
▁const	-1374
▁wasn	-1375
▁exactly	-1376
▁must	-1377
atic	-1378
uck	-1379
▁until	-1380
tern	-1381
bs	-1382
▁completely	-1383
▁oce	-1384
▁exc	-1385
▁internet	-1386
▁7	-1387
ator	-1388
▁fund	-1389
▁past	-1390
▁8	-1391
▁object	-1392
▁places	-1393
▁decided	-1394
▁train	-1395
▁quick	-1396
ives	-1397
▁land	-1398
▁av	-1399
▁ass	-1400
▁stories	-1401
▁ste	-1402
▁engine	-1403
▁free	-1404
▁experim	-1405
▁pos	-1406
▁tool	-1407
do	-1408
▁taking	-1409
cing	-1410
ream	-1411
▁huge	-1412
▁behav	-1413
▁society	-1414
ane	-1415
▁arch	-1416
▁became	-1417
▁close	-1418
▁animals	-1419
▁woman	-1420
▁though	-1421
omes	-1422
▁inno	-1423
▁students	-1424
ined	-1425
▁happening	-1426
▁deal	-1427
ling	-1428
cle	-1429
▁mass	-1430
▁name	-1431
eah	-1432
▁rev	-1433
▁kinds	-1434
acter	-1435
▁fish	-1436
▁success	-1437
▁har	-1438
▁spend	-1439
▁itself	-1440
▁company	-1441
▁game	-1442
▁aud	-1443
▁wind	-1444
▁collect	-1445
▁complex	-1446
▁ve	-1447
▁learned	-1448
ien	-1449
▁bab	-1450
▁since	-1451
▁green	-1452
▁india	-1453
sy	-1454
▁red	-1455
▁america	-1456
ats	-1457
▁ris	-1458
ructure	-1459
▁ourselves	-1460
▁study	-1461
▁cut	-1462
cri	-1463
ident	-1464
▁indust	-1465
gest	-1466
some	-1467
▁mic	-1468
work	-1469
ional	-1470
▁gets	-1471
..	-1472
▁mess	-1473
▁ones	-1474
▁somebody	-1475
▁knew	-1476
▁meet	-1477
▁minutes	-1478
▁hy	-1479
ogn	-1480
▁univers	-1481
aster	-1482
▁against	-1483
▁questions	-1484
▁ele	-1485
▁themselves	-1486
▁fly	-1487
▁sun	-1488
ision	-1489
▁miss	-1490
▁third	-1491
▁opportun	-1492
icult	-1493
▁along	-1494
ability	-1495
▁oh	-1496
▁prov	-1497
etic	-1498
▁guys	-1499
▁leg	-1500
then	-1501
▁]	-1502
vation	-1503
▁math	-1504
▁rather	-1505
▁program	-1506
▁turns	-1507
ames	-1508
haps	-1509
ones	-1510
▁dep	-1511
▁hours	-1512
▁bott	-1513
itting	-1514
▁seven	-1515
▁parent	-1516
▁created	-1517
▁...	-1518
▁worked	-1519
ibly	-1520
▁sometimes	-1521
urs	-1522
▁mot	-1523
wards	-1524
▁expect	-1525
▁focus	-1526
▁black	-1527
▁couldn	-1528
ired	-1529
▁clear	-1530
▁invest	-1531
why	-1532
▁won	-1533
ental	-1534
▁relations	-1535
ctor	-1536
face	-1537
▁rad	-1538
▁id	-1539
cc	-1540
▁meas	-1541
▁dem	-1542
▁ant	-1543
▁var	-1544
▁speak	-1545
▁pred	-1546
▁coll	-1547
▁oper	-1548
▁everyone	-1549
ral	-1550
▁difficult	-1551
▁vi	-1552
▁least	-1553
▁hold	-1554
▁disease	-1555
▁cir	-1556
istic	-1557
▁happy	-1558
▁deep	-1559
▁squ	-1560
▁lots	-1561
▁natural	-1562
▁systems	-1563
▁ho	-1564
▁protect	-1565
▁learning	-1566
▁liter	-1567
▁listen	-1568
▁thousands	-1569
▁field	-1570
▁gave	-1571
▁others	-1572
cul	-1573
ming	-1574
ples	-1575
ption	-1576
▁american	-1577
ented	-1578
▁okay	-1579
▁death	-1580
▁team	-1581
▁machine	-1582
▁sens	-1583
▁early	-1584
att	-1585
com	-1586
▁es	-1587
▁oil	-1588
▁pot	-1589
▁mill	-1590
▁amount	-1591
▁interact	-1592
af	-1593
▁super	-1594
▁record	-1595
ribut	-1596
vered	-1597
ination	-1598
▁aut	-1599
▁outside	-1600
orm	-1601
ider	-1602
▁instead	-1603
▁appro	-1604
gen	-1605
urope	-1606
like	-1607
▁tre	-1608
▁fre	-1609
ature	-1610
▁step	-1611
▁colle	-1612
▁technolog	-1613
▁behavior	-1614
fect	-1615
▁dig	-1616
aking	-1617
▁extra	-1618
ither	-1619
▁area	-1620
ret	-1621
ients	-1622
ared	-1623
ential	-1624
sh	-1625
▁dru	-1626
ially	-1627
▁inde	-1628
▁short	-1629
attern	-1630
▁grand	-1631
▁taken	-1632
ster	-1633
▁sym	-1634
▁york	-1635
▁century	-1636
▁difference	-1637
▁changed	-1638
erm	-1639
▁ocean	-1640
▁relationship	-1641
▁fail	-1642
▁hands	-1643
iqu	-1644
▁typ	-1645
▁exist	-1646
▁europe	-1647
ern	-1648
▁da	-1649
▁wonderful	-1650
▁common	-1651
every	-1652
▁beginning	-1653
▁arg	-1654
▁norm	-1655
ium	-1656
sych	-1657
solut	-1658
▁pattern	-1659
astic	-1660
▁recent	-1661
ror	-1662
ides	-1663
▁sex	-1664
▁moving	-1665
▁obvious	-1666
ully	-1667
▁psych	-1668
▁blue	-1669
▁explain	-1670
▁eyes	-1671
▁photograph	-1672
▁[	-1673
▁bar	-1674
▁wall	-1675
▁ple	-1676
▁local	-1677
▁jour	-1678
▁communic	-1679
▁easy	-1680
▁turned	-1681
▁perhaps	-1682
▁tem	-1683
▁culture	-1684
▁china	-1685
ased	-1686
verage	-1687
▁leave	-1688
▁support	-1689
▁demo	-1690
▁paper	-1691
▁takes	-1692
▁terms	-1693
olved	-1694
▁given	-1695
▁seeing	-1696
bo	-1697
▁er	-1698
▁occ	-1699
▁finally	-1700
▁needs	-1701
▁lim	-1702
▁yeah	-1703
▁behind	-1704
▁low	-1705
▁image	-1706
▁absolut	-1707
▁yourself	-1708
▁tot	-1709
▁break	-1710
▁eight	-1711
▁population	-1712
▁12	-1713
▁maj	-1714
▁sent	-1715
▁instit	-1716
year	-1717
▁non	-1718
▁pract	-1719
app	-1720
▁trad	-1721
▁began	-1722
inary	-1723
▁incl	-1724
▁whatever	-1725
▁serv	-1726
▁chem	-1727
▁perfect	-1728
itch	-1729
aring	-1730
▁reach	-1731
ped	-1732
▁during	-1733
▁del	-1734
▁fall	-1735
itions	-1736
▁needed	-1737
ude	-1738
anies	-1739
cious	-1740
utions	-1741
▁cannot	-1742
▁ident	-1743
▁impro	-1744
▁parts	-1745
▁south	-1746
▁repres	-1747
▁realized	-1748
▁interested	-1749
▁media	-1750
po	-1751
ply	-1752
▁present	-1753
cra	-1754
▁18	-1755
▁pick	-1756
▁buy	-1757
itect	-1758
▁rich	-1759
▁40	-1760
▁dark	-1761
▁perform	-1762
▁national	-1763
▁extrem	-1764
▁longer	-1765
▁sud	-1766
elt	-1767
ex	-1768
▁week	-1769
▁event	-1770
▁ess	-1771
iving	-1772
idence	-1773
▁major	-1774
▁powerful	-1775
▁famil	-1776
ges	-1777
▁stay	-1778
▁surpr	-1779
▁consum	-1780
▁architect	-1781
▁size	-1782
▁dream	-1783
▁center	-1784
▁simply	-1785
fully	-1786
▁situ	-1787
▁ground	-1788
▁eat	-1789
▁access	-1790
▁companies	-1791
port	-1792
▁tried	-1793
▁parents	-1794
▁emot	-1795
▁personal	-1796
ison	-1797
▁robot	-1798
▁cy	-1799
rought	-1800
▁father	-1801
▁conv	-1802
▁poor	-1803
pped	-1804
ledge	-1805
▁ill	-1806
▁emb	-1807
▁sum	-1808
ising	-1809
▁gone	-1810
▁surv	-1811
▁viol	-1812
▁resour	-1813
▁press	-1814
▁key	-1815
go	-1816
ax	-1817
just	-1818
pid	-1819
▁cool	-1820
▁direct	-1821
▁economic	-1822
rodu	-1823
▁civ	-1824
▁scale	-1825
▁value	-1826
▁felt	-1827
▁vers	-1828
▁phone	-1829
mer	-1830
▁white	-1831
▁profess	-1832
avor	-1833
▁cle	-1834
▁special	-1835
ged	-1836
▁quickly	-1837
▁slow	-1838
▁chr	-1839
▁pen	-1840
▁weeks	-1841
▁feet	-1842
▁cities	-1843
▁draw	-1844
▁feed	-1845
ilar	-1846
▁mult	-1847
▁street	-1848
▁opportunity	-1849
ony	-1850
ised	-1851
▁humans	-1852
▁reality	-1853
▁send	-1854
▁spent	-1855
ids	-1856
ived	-1857
ators	-1858
▁recogn	-1859
▁approach	-1860
▁pa	-1861
▁ur	-1862
▁sil	-1863
▁fight	-1864
▁travel	-1865
▁leaders	-1866
▁ice	-1867
▁known	-1868
▁requ	-1869
▁descri	-1870
▁strong	-1871
▁enc	-1872
▁orig	-1873
▁camer	-1874
▁force	-1875
ibility	-1876
▁ability	-1877
▁cop	-1878
▁obs	-1879
▁win	-1880
▁dest	-1881
▁priv	-1882
hood	-1883
▁shows	-1884
▁sea	-1885
ument	-1886
ological	-1887
els	-1888
ards	-1889
ouch	-1890
▁nice	-1891
▁animal	-1892
▁predict	-1893
▁—	-1894
ted	-1895
▁box	-1896
▁micro	-1897
▁either	-1898
▁growth	-1899
▁incredible	-1900
ills	-1901
izing	-1902
▁sudden	-1903
▁evolution	-1904
ney	-1905
▁die	-1906
▁lost	-1907
▁sitting	-1908
▁audience	-1909
▁pur	-1910
▁fast	-1911
▁write	-1912
▁measure	-1913
▁dna	-1914
rent	-1915
▁sat	-1916
▁north	-1917
▁structure	-1918
▁25	-1919
▁ap	-1920
▁ce	-1921
▁rock	-1922
▁fear	-1923
▁near	-1924
▁economy	-1925
osp	-1926
▁areas	-1927
▁bottom	-1928
▁wouldn	-1929
▁changes	-1930
ows	-1931
room	-1932
▁based	-1933
▁books	-1934
iny	-1935
ode	-1936
ule	-1937
▁caus	-1938
▁hor	-1939
▁foot	-1940
▁mole	-1941
▁soft	-1942
▁impact	-1943
▁surface	-1944
▁political	-1945
ee	-1946
more	-1947
▁prin	-1948
people	-1949
▁brought	-1950
▁attention	-1951
▁film	-1952
▁stage	-1953
zy	-1954
ero	-1955
ler	-1956
▁ir	-1957
ains	-1958
inal	-1959
▁vol	-1960
▁vill	-1961
▁respons	-1962
▁tele	-1963
▁english	-1964
▁realize	-1965
▁challenge	-1966
▁technologies	-1967
cr	-1968
ales	-1969
▁redu	-1970
▁knowledge	-1971
ton	-1972
▁crit	-1973
▁pull	-1974
▁blood	-1975
▁sho	-1976
ression	-1977
▁experiment	-1978
ape	-1979
anger	-1980
ustain	-1981
▁electric	-1982
ively	-1983
▁born	-1984
▁insp	-1985
▁numbers	-1986
ateg	-1987
▁average	-1988
▁mov	-1989
▁morning	-1990
arr	-1991
▁hot	-1992
cially	-1993
▁map	-1994
ivers	-1995
▁bene	-1996
▁physical	-1997
bon	-1998
wor	-1999
▁medic	-2000
entially	-2001
▁meaning	-2002
▁developed	-2003
ump	-2004
▁ach	-2005
▁main	-2006
▁civil	-2007
▁theory	-2008
▁deg	-2009
▁fac	-2010
bor	-2011
▁gal	-2012
▁hosp	-2013
▁forward	-2014
ann	-2015
▁growing	-2016
ute	-2017
▁comb	-2018
▁sour	-2019
par	-2020
▁opt	-2021
ances	-2022
▁giving	-2023
▁feeling	-2024
▁anal	-2025
▁revolution	-2026
ried	-2027
▁camp	-2028
▁color	-2029
▁mount	-2030
▁serious	-2031
▁dead	-2032
▁miles	-2033
▁wrote	-2034
▁patients	-2035
▁repl	-2036
▁risk	-2037
lt	-2038
▁peri	-2039
▁road	-2040
▁images	-2041
▁post	-2042
▁absolutely	-2043
por	-2044
▁anyone	-2045
ellig	-2046
▁seems	-2047
▁scientists	-2048
ging	-2049
▁literally	-2050
lu	-2051
▁path	-2052
▁favor	-2053
▁depend	-2054
▁spread	-2055
▁running	-2056
▁bra	-2057
▁visual	-2058
▁climate	-2059
▁movement	-2060
▁starting	-2061
ove	-2062
right	-2063
▁circ	-2064
▁understanding	-2065
acy	-2066
ified	-2067
▁scre	-2068
▁tools	-2069
▁worth	-2070
▁rul	-2071
▁ball	-2072
▁stat	-2073
assion	-2074
▁gives	-2075
▁neigh	-2076
▁compet	-2077
▁general	-2078
▁avail	-2079
▁web	-2080
ggest	-2081
▁guess	-2082
▁modern	-2083
▁hundreds	-2084
▁discovered	-2085
▁rele	-2086
▁proper	-2087
▁text	-2088
▁tradition	-2089
▁development	-2090
▁mathem	-2091
▁suggest	-2092
▁telling	-2093
▁60	-2094
ensive	-2095
▁voice	-2096
▁hon	-2097
▁sell	-2098
▁type	-2099
▁playing	-2100
▁similar	-2101
▁sustain	-2102
▁intellig	-2103
▁touch	-2104
▁creating	-2105
aged	-2106
ploy	-2107
▁bill	-2108
▁relig	-2109
ilities	-2110
okay	-2111
▁poll	-2112
▁dou	-2113
▁current	-2114
ades	-2115
▁est	-2116
▁fur	-2117
▁prom	-2118
can	-2119
ung	-2120
head	-2121
ored	-2122
▁flo	-2123
imens	-2124
▁cars	-2125
▁polic	-2126
▁arr	-2127
▁tend	-2128
▁shape	-2129
ban	-2130
ift	-2131
▁millions	-2132
bed	-2133
ency	-2134
ites	-2135
▁auth	-2136
oud	-2137
▁issue	-2138
▁truth	-2139
▁concept	-2140
gr	-2141
▁ec	-2142
▁eye	-2143
▁soon	-2144
▁period	-2145
amed	-2146
▁achie	-2147
▁normal	-2148
▁fire	-2149
▁affect	-2150
▁university	-2151
▁baby	-2152
▁alone	-2153
aw	-2154
vent	-2155
▁seem	-2156
▁showed	-2157
▁network	-2158
▁ox	-2159
▁flu	-2160
▁phil	-2161
▁talked	-2162
bit	-2163
▁emp	-2164
cin	-2165
osph	-2166
asing	-2167
▁wish	-2168
▁among	-2169
▁track	-2170
pecially	-2171
▁neg	-2172
▁suff	-2173
▁experien	-2174
▁solution	-2175
▁available	-2176
▁incredibly	-2177
▁innovation	-2178
▁neur	-2179
▁fundam	-2180
ival	-2181
▁includ	-2182
▁situation	-2183
iant	-2184
▁aren	-2185
▁peace	-2186
▁benef	-2187
▁industry	-2188
▁compassion	-2189
▁aw	-2190
▁asking	-2191
▁subject	-2192
▁lay	-2193
▁recently	-2194
▁flow	-2195
▁rate	-2196
▁sold	-2197
▁stra	-2198
▁knows	-2199
▁produce	-2200
▁developing	-2201
▁bank	-2202
erence	-2203
▁online	-2204
▁designed	-2205
▁pictures	-2206
▁fa	-2207
chan	-2208
urity	-2209
▁prop	-2210
▁drive	-2211
▁forest	-2212
erv	-2213
▁dom	-2214
▁haven	-2215
▁trust	-2216
▁patient	-2217
▁11	-2218
▁fair	-2219
▁resources	-2220
▁save	-2221
come	-2222
thes	-2223
veral	-2224
▁ult	-2225
▁park	-2226
▁push	-2227
▁smart	-2228
▁becomes	-2229
▁generation	-2230
unt	-2231
▁bird	-2232
▁solve	-2233
▁bigger	-2234
▁convers	-2235
ma	-2236
▁bal	-2237
▁nuc	-2238
▁tiny	-2239
iction	-2240
▁solar	-2241
▁medical	-2242
▁led	-2243
ences	-2244
▁rain	-2245
▁react	-2246
▁computers	-2247
▁80	-2248
yond	-2249
▁chance	-2250
gn	-2251
▁office	-2252
ug	-2253
yn	-2254
ister	-2255
▁issues	-2256
▁especially	-2257
lict	-2258
omen	-2259
▁din	-2260
▁carbon	-2261
▁putting	-2262
fort	-2263
▁evidence	-2264
▁attack	-2265
▁chinese	-2266
▁changing	-2267
▁transform	-2268
▁imm	-2269
light	-2270
▁port	-2271
▁emerg	-2272
▁writing	-2273
fr	-2274
istan	-2275
▁speed	-2276
▁beyond	-2277
▁search	-2278
▁reasons	-2279
ned	-2280
▁plant	-2281
▁groups	-2282
ify	-2283
▁rules	-2284
▁sounds	-2285
▁199	-2286
▁tas	-2287
▁message	-2288
▁conscious	-2289
▁involved	-2290
▁unf	-2291
▁function	-2292
ext	-2293
inst	-2294
▁mal	-2295
oring	-2296
▁nine	-2297
▁action	-2298
▁mechan	-2299
▁died	-2300
▁girls	-2301
▁except	-2302
▁several	-2303
▁software	-2304
ipp	-2305
▁choo	-2306
▁choice	-2307
▁bacter	-2308
▁digital	-2309
▁towards	-2310
une	-2311
▁je	-2312
▁safe	-2313
▁table	-2314
apt	-2315
▁adm	-2316
▁sle	-2317
ished	-2318
▁lif	-2319
▁games	-2320
▁virus	-2321
with	-2322
▁danger	-2323
▁device	-2324
uel	-2325
▁bed	-2326
arily	-2327
▁defin	-2328
▁lived	-2329
str	-2330
vert	-2331
▁goog	-2332
▁international	-2333
▁capt	-2334
▁necess	-2335
▁obviously	-2336
ley	-2337
ique	-2338
▁link	-2339
▁west	-2340
▁anybody	-2341
▁security	-2342
ief	-2343
umb	-2344
▁div	-2345
usion	-2346
▁nobody	-2347
▁publish	-2348
▁likely	-2349
put	-2350
abor	-2351
▁song	-2352
▁hit	-2353
▁rid	-2354
ai	-2355
▁pu	-2356
▁log	-2357
▁cris	-2358
▁block	-2359
▁schools	-2360
▁particularly	-2361
▁bur	-2362
oices	-2363
▁princi	-2364
▁character	-2365
▁sam	-2366
ously	-2367
▁square	-2368
▁materials	-2369
lo	-2370
ery	-2371
▁bir	-2372
▁boy	-2373
▁son	-2374
▁east	-2375
▁virt	-2376
▁basic	-2377
▁moved	-2378
▁vision	-2379
oms	-2380
▁walking	-2381
▁potential	-2382
▁eth	-2383
▁clos	-2384
▁certainly	-2385
▁jobs	-2386
▁further	-2387
▁scientific	-2388
book	-2389
▁cross	-2390
▁report	-2391
▁teachers	-2392
▁pan	-2393
▁syn	-2394
▁vari	-2395
▁totally	-2396
rest	-2397
ressed	-2398
▁screen	-2399
▁democra	-2400
▁extraord	-2401
▁represent	-2402
ny	-2403
rast	-2404
view	-2405
▁tar	-2406
▁farm	-2407
▁rece	-2408
may	-2409
ring	-2410
▁fem	-2411
▁fant	-2412
ground	-2413
▁carry	-2414
▁sky	-2415
▁prim	-2416
▁encou	-2417
▁quality	-2418
medi	-2419
▁wash	-2420
▁wants	-2421
eter	-2422
▁gas	-2423
▁door	-2424
▁onto	-2425
▁examples	-2426
▁projects	-2427
xic	-2428
▁skin	-2429
▁star	-2430
▁activ	-2431
▁notice	-2432
▁starts	-2433
▁context	-2434
▁showing	-2435
▁biggest	-2436
▁hospital	-2437
iar	-2438
▁arm	-2439
▁stru	-2440
▁camera	-2441
▁student	-2442
▁village	-2443
icle	-2444
▁mob	-2445
▁aware	-2446
▁google	-2447
▁everywhere	-2448
▁breat	-2449
▁store	-2450
▁capital	-2451
▁journey	-2452
itary	-2453
▁trees	-2454
▁chemical	-2455
ina	-2456
▁fix	-2457
ctors	-2458
▁sand	-2459
50	-2460
eng	-2461
uly	-2462
▁birth	-2463
▁largest	-2464
phone	-2465
rible	-2466
which	-2467
▁memory	-2468
▁exciting	-2469
▁particip	-2470
▁positive	-2471
▁violence	-2472
▁effic	-2473
▁stick	-2474
▁creative	-2475
oph	-2476
▁vac	-2477
hn	-2478
▁graph	-2479
▁trial	-2480
▁transl	-2481
▁account	-2482
▁conflict	-2483
▁extremely	-2484
apan	-2485
▁cit	-2486
▁dam	-2487
▁spir	-2488
antly	-2489
▁cause	-2490
▁detail	-2491
▁please	-2492
▁activity	-2493
▁suddenly	-2494
cuss	-2495
▁ast	-2496
▁sequ	-2497
isions	-2498
ughter	-2499
▁labor	-2500
▁imposs	-2501
▁threat	-2502
▁thousand	-2503
iger	-2504
▁plants	-2505
▁complic	-2506
▁neighbor	-2507
ze	-2508
rial	-2509
▁bom	-2510
▁lad	-2511
▁galax	-2512
▁results	-2513
▁discover	-2514
▁favorite	-2515
▁brit	-2516
▁grew	-2517
▁clean	-2518
▁meant	-2519
pective	-2520
▁nuclear	-2521
▁hiv	-2522
after	-2523
▁cart	-2524
▁fill	-2525
▁introdu	-2526
▁strateg	-2527
tw	-2528
ners	-2529
▁dro	-2530
▁los	-2531
▁movie	-2532
itten	-2533
▁meth	-2534
▁ready	-2535
▁models	-2536
▁mathemat	-2537
uit	-2538
onse	-2539
▁blind	-2540
▁supposed	-2541
look	-2542
▁role	-2543
osphere	-2544
▁passion	-2545
▁apart	-2546
▁check	-2547
▁lands	-2548
▁return	-2549
▁finding	-2550
▁connected	-2551
▁happiness	-2552
ips	-2553
back	-2554
▁san	-2555
▁japan	-2556
▁indeed	-2557
▁african	-2558
▁college	-2559
▁individuals	-2560
oid	-2561
▁bud	-2562
▁pack	-2563
▁crazy	-2564
▁higher	-2565
▁terror	-2566
▁eventually	-2567
▁lea	-2568
maybe	-2569
verty	-2570
▁waste	-2571
▁teacher	-2572
▁continue	-2573
▁impossible	-2574
▁90	-2575
▁ang	-2576
first	-2577
ulate	-2578
▁named	-2579
▁doctor	-2580
▁democracy	-2581
▁organization	-2582
cape	-2583
▁tom	-2584
▁brains	-2585
▁faster	-2586
▁brother	-2587
▁medicine	-2588
▁watching	-2589
ims	-2590
ops	-2591
▁drug	-2592
▁lose	-2593
▁magn	-2594
ruction	-2595
▁remark	-2596
akes	-2597
erve	-2598
▁separ	-2599
▁disapp	-2600
▁somewhere	-2601
▁sal	-2602
▁fine	-2603
▁mine	-2604
▁appear	-2605
▁consider	-2606
▁response	-2607
▁x	-2608
set	-2609
▁16	-2610
▁enj	-2611
▁mis	-2612
▁wait	-2613
▁immedi	-2614
▁improve	-2615
▁progress	-2616
▁buildings	-2617
▁essentially	-2618
nces	-2619
plic	-2620
▁isl	-2621
▁adult	-2622
▁citiz	-2623
▁launch	-2624
▁allowed	-2625
imp	-2626
▁cat	-2627
oming	-2628
▁burn	-2629
▁wife	-2630
▁sorts	-2631
▁worse	-2632
▁accept	-2633
▁central	-2634
ortunately	-2635
▁14	-2636
▁cold	-2637
▁minute	-2638
▁poverty	-2639
▁collabor	-2640
▁dan	-2641
cient	-2642
▁fing	-2643
even	-2644
idge	-2645
ires	-2646
▁cook	-2647
estern	-2648
▁drugs	-2649
▁communities	-2650
cise	-2651
▁swe	-2652
odies	-2653
▁webs	-2654
▁multi	-2655
▁shown	-2656
▁larger	-2657
▁taught	-2658
▁objects	-2659
▁diag	-2660
▁goal	-2661
▁gold	-2662
▁phen	-2663
▁freed	-2664
▁series	-2665
▁extraordinary	-2666
▁tree	-2667
▁bunch	-2668
▁ended	-2669
▁killed	-2670
▁source	-2671
▁colleag	-2672
▁continu	-2673
▁position	-2674
fer	-2675
▁coun	-2676
▁luck	-2677
▁town	-2678
▁forms	-2679
▁products	-2680
met	-2681
▁heav	-2682
▁late	-2683
▁influ	-2684
▁tells	-2685
▁points	-2686
▁prison	-2687
▁president	-2688
▁♫	-2689
rage	-2690
▁rand	-2691
ration	-2692
▁above	-2693
▁cases	-2694
▁detect	-2695
▁temper	-2696
▁fundamental	-2697
▁traditional	-2698
ls	-2699
▁17	-2700
sect	-2701
▁oxy	-2702
▁choose	-2703
▁site	-2704
▁electricity	-2705
▁jud	-2706
ought	-2707
▁moral	-2708
▁sleep	-2709
▁rights	-2710
▁families	-2711
inct	-2712
▁doc	-2713
▁concer	-2714
▁crisis	-2715
▁complicated	-2716
▁architecture	-2717
ana	-2718
aur	-2719
rab	-2720
uss	-2721
▁clin	-2722
▁king	-2723
▁muse	-2724
▁manage	-2725
izations	-2726
▁content	-2727
pro	-2728
▁fas	-2729
▁wild	-2730
▁assum	-2731
▁finan	-2732
▁prote	-2733
▁afford	-2734
▁discuss	-2735
▁phenomen	-2736
▁signific	-2737
▁distribut	-2738
▁conditions	-2739
rams	-2740
▁pal	-2741
atory	-2742
▁mist	-2743
▁page	-2744
▁zero	-2745
▁allows	-2746
▁secret	-2747
▁straight	-2748
▁training	-2749
nal	-2750
▁fram	-2751
▁author	-2752
▁neurons	-2753
▁perspective	-2754
imag	-2755
lier	-2756
▁hop	-2757
▁kept	-2758
▁pieces	-2759
▁successful	-2760
▁198	-2761
▁calcul	-2762
▁usually	-2763
▁bacteria	-2764
▁70	-2765
fact	-2766
▁dad	-2767
▁kil	-2768
ining	-2769
▁john	-2770
▁term	-2771
▁occur	-2772
▁urban	-2773
▁excited	-2774
▁decision	-2775
▁treatment	-2776
urt	-2777
iced	-2778
ured	-2779
▁purp	-2780
▁glass	-2781
▁magic	-2782
▁achieve	-2783
▁reading	-2784
▁reflect	-2785
▁strange	-2786
▁version	-2787
ugh	-2788
▁card	-2789
▁code	-2790
▁studies	-2791
▁increase	-2792
oso	-2793
▁deb	-2794
▁sus	-2795
▁upon	-2796
vision	-2797
▁corre	-2798
▁infect	-2799
▁museum	-2800
▁ann	-2801
▁lower	-2802
▁policy	-2803
▁respect	-2804
▁service	-2805
▁smaller	-2806
▁military	-2807
▁fantastic	-2808
ech	-2809
oke	-2810
rep	-2811
isms	-2812
▁actual	-2813
▁police	-2814
▁region	-2815
▁physics	-2816
▁provide	-2817
▁seconds	-2818
time	-2819
▁unc	-2820
▁veh	-2821
ounds	-2822
▁clim	-2823
▁alive	-2824
▁truly	-2825
▁himself	-2826
▁western	-2827
▁standing	-2828
rap	-2829
ube	-2830
▁fra	-2831
▁board	-2832
▁older	-2833
▁greater	-2834
▁critical	-2835
▁painting	-2836
amp	-2837
▁tv	-2838
emic	-2839
▁cloud	-2840
▁mention	-2841
soci	-2842
▁roll	-2843
▁trou	-2844
▁throw	-2845
▁beings	-2846
▁engage	-2847
▁increasing	-2848
▁hero	-2849
▁lines	-2850
▁slight	-2851
▁patterns	-2852
iti	-2853
iven	-2854
▁mars	-2855
▁molec	-2856
iversity	-2857
▁anymore	-2858
▁machines	-2859
▁including	-2860
▁conversation	-2861
iest	-2862
▁broad	-2863
▁stars	-2864
▁somehow	-2865
tod	-2866
▁201	-2867
▁laugh	-2868
▁written	-2869
oon	-2870
▁afgh	-2871
▁surger	-2872
▁biology	-2873
▁explore	-2874
oh	-2875
zz	-2876
bel	-2877
▁ign	-2878
▁ine	-2879
▁autom	-2880
▁genes	-2881
▁trick	-2882
▁effort	-2883
▁robots	-2884
▁skills	-2885
▁weight	-2886
▁expensive	-2887
think	-2888
▁vict	-2889
▁price	-2890
▁christ	-2891
▁respond	-2892
▁13	-2893
▁tit	-2894
▁freedom	-2895
sc	-2896
dom	-2897
rad	-2898
ffic	-2899
lebr	-2900
ission	-2901
▁print	-2902
▁remind	-2903
▁specific	-2904
men	-2905
ulf	-2906
uments	-2907
▁enorm	-2908
▁spect	-2909
▁earlier	-2910
▁contribut	-2911
▁decisions	-2912
▁production	-2913
▁21	-2914
ently	-2915
iling	-2916
▁legs	-2917
▁beauty	-2918
▁recognize	-2919
▁loved	-2920
▁employ	-2921
▁intelligence	-2922
▁environmental	-2923
▁/	-2924
aging	-2925
▁throughout	-2926
▁sn	-2927
ping	-2928
▁alg	-2929
erson	-2930
today	-2931
▁shark	-2932
▁afghan	-2933
▁celebr	-2934
▁clearly	-2935
▁solutions	-2936
ha	-2937
mb	-2938
resh	-2939
sequ	-2940
itude	-2941
▁cover	-2942
▁trade	-2943
▁famous	-2944
▁anywhere	-2945
▁americans	-2946
lly	-2947
▁cry	-2948
acity	-2949
▁innov	-2950
▁private	-2951
cies	-2952
▁lat	-2953
▁stri	-2954
▁costs	-2955
itation	-2956
▁becoming	-2957
▁dangerous	-2958
▁listening	-2959
ays	-2960
iet	-2961
oles	-2962
rene	-2963
thern	-2964
▁yell	-2965
▁weren	-2966
▁networ	-2967
ologists	-2968
▁healthy	-2969
▁waiting	-2970
▁familiar	-2971
▁practice	-2972
▁dog	-2973
ables	-2974
ained	-2975
aries	-2976
▁fort	-2977
▁associ	-2978
▁comfort	-2979
▁driving	-2980
▁transport	-2981
bol	-2982
rees	-2983
▁rise	-2984
▁drink	-2985
▁liber	-2986
▁greatest	-2987
▁services	-2988
▁spirit	-2989
▁plastic	-2990
▁invented	-2991
ises	-2992
▁mam	-2993
▁thr	-2994
▁weap	-2995
▁range	-2996
▁bodies	-2997
egr	-2998
amic	-2999
▁den	-3000
eties	-3001
▁catch	-3002
▁fascin	-3003
▁walked	-3004
▁address	-3005
▁teaching	-3006
▁therefore	-3007
▁performance	-3008
bb	-3009
▁atm	-3010
▁desp	-3011
▁river	-3012
atically	-3013
▁doctors	-3014
▁willing	-3015
▁direction	-3016
▁ord	-3017
▁sad	-3018
those	-3019
▁hall	-3020
▁wood	-3021
though	-3022
▁enjoy	-3023
▁babies	-3024
▁forget	-3025
▁random	-3026
aly	-3027
ira	-3028
▁tri	-3029
▁ver	-3030
iding	-3031
▁shot	-3032
▁determ	-3033
▁nation	-3034
▁wealth	-3035
▁industrial	-3036
ife	-3037
unk	-3038
ceed	-3039
▁hell	-3040
▁floor	-3041
▁forth	-3042
▁method	-3043
▁strugg	-3044
▁website	-3045
▁effective	-3046
aph	-3047
orry	-3048
▁final	-3049
imately	-3050
▁select	-3051
▁institutions	-3052
iles	-3053
▁dri	-3054
▁tun	-3055
▁laws	-3056
▁uses	-3057
atives	-3058
▁optim	-3059
▁types	-3060
▁electr	-3061
▁humanity	-3062
pes	-3063
ndon	-3064
▁dyn	-3065
▁hey	-3066
▁ran	-3067
orrow	-3068
istics	-3069
▁demon	-3070
imagine	-3071
▁income	-3072
▁genetic	-3073
▁massive	-3074
▁meeting	-3075
▁instance	-3076
▁mountain	-3077
▁fit	-3078
▁hair	-3079
▁prep	-3080
▁gradu	-3081
another	-3082
▁various	-3083
hib	-3084
oper	-3085
▁shap	-3086
▁worry	-3087
▁insect	-3088
▁popular	-3089
▁financial	-3090
over	-3091
water	-3092
▁breath	-3093
▁levels	-3094
▁useful	-3095
▁interview	-3096
▁governments	-3097
▁immediately	-3098
▁et	-3099
▁none	-3100
▁email	-3101
▁raise	-3102
▁flying	-3103
▁citizens	-3104
▁standard	-3105
gu	-3106
imin	-3107
ores	-3108
▁minds	-3109
▁oppos	-3110
▁electron	-3111
▁remarkable	-3112
oty	-3113
▁harv	-3114
▁instr	-3115
▁career	-3116
▁decide	-3117
▁mental	-3118
▁values	-3119
▁cultural	-3120
▁following	-3121
▁od	-3122
▁ken	-3123
▁mut	-3124
▁arab	-3125
▁fuel	-3126
▁rule	-3127
▁tiss	-3128
▁ahead	-3129
▁apply	-3130
▁surve	-3131
▁saving	-3132
eth	-3133
key	-3134
attle	-3135
▁trem	-3136
▁match	-3137
▁decade	-3138
▁speech	-3139
▁supply	-3140
▁express	-3141
▁infrast	-3142
two	-3143
airs	-3144
wise	-3145
▁pig	-3146
▁dram	-3147
▁drop	-3148
▁radio	-3149
▁honest	-3150
▁london	-3151
▁24	-3152
▁slide	-3153
▁demonstr	-3154
▁engineering	-3155
▁mobile	-3156
▁although	-3157
me	-3158
ches	-3159
▁bul	-3160
▁nut	-3161
▁bang	-3162
ologist	-3163
ik	-3164
yle	-3165
▁ben	-3166
antic	-3167
▁blog	-3168
▁quant	-3169
reprene	-3170
▁neighborhood	-3171
bi	-3172
uct	-3173
▁ut	-3174
▁197	-3175
▁aid	-3176
board	-3177
▁aust	-3178
▁cust	-3179
▁concl	-3180
▁commer	-3181
▁politics	-3182
▁relative	-3183
▁condition	-3184
who	-3185
aign	-3186
▁196	-3187
▁dar	-3188
▁hus	-3189
▁hyd	-3190
▁tal	-3191
▁motiv	-3192
▁forces	-3193
▁independ	-3194
▁slightly	-3195
▁connection	-3196
ball	-3197
cell	-3198
osoph	-3199
▁hole	-3200
▁anyway	-3201
ervation	-3202
▁journal	-3203
▁surround	-3204
▁television	-3205
ris	-3206
▁base	-3207
ricult	-3208
▁destro	-3209
▁surgery	-3210
▁survive	-3211
▁campaign	-3212
▁possibly	-3213
win	-3214
▁500	-3215
▁ten	-3216
ufact	-3217
▁task	-3218
iation	-3219
▁artist	-3220
▁helped	-3221
▁mostly	-3222
▁decades	-3223
▁purpose	-3224
▁washing	-3225
▁philosoph	-3226
cks	-3227
▁gene	-3228
▁paid	-3229
▁offic	-3230
▁prevent	-3231
▁capacity	-3232
▁directly	-3233
▁understood	-3234
mar	-3235
pping	-3236
▁appl	-3237
▁cooper	-3238
▁summer	-3239
▁switch	-3240
▁diseases	-3241
▁terrible	-3242
▁entreprene	-3243
anda	-3244
itted	-3245
▁hous	-3246
▁coast	-3247
▁displ	-3248
▁total	-3249
▁integr	-3250
▁physic	-3251
▁creativity	-3252
▁temperature	-3253
wood	-3254
▁oxygen	-3255
▁stress	-3256
▁struct	-3257
▁consequ	-3258
▁effects	-3259
▁agricult	-3260
▁complete	-3261
▁challenges	-3262
▁conference	-3263
don	-3264
▁symbol	-3265
▁enormous	-3266
▁manufact	-3267
▁societies	-3268
▁atmosphere	-3269
itor	-3270
izes	-3271
▁300	-3272
▁clo	-3273
iforn	-3274
▁tens	-3275
▁dimens	-3276
▁invent	-3277
▁unique	-3278
▁tremend	-3279
▁speaking	-3280
▁colleagues	-3281
▁infrastructure	-3282
ancy	-3283
bing	-3284
▁boys	-3285
▁fold	-3286
▁worst	-3287
▁shared	-3288
▁networks	-3289
▁tum	-3290
▁conc	-3291
▁heat	-3292
▁smell	-3293
▁active	-3294
▁published	-3295
▁afghanistan	-3296
ama	-3297
▁fat	-3298
▁beat	-3299
▁below	-3300
▁birds	-3301
▁whose	-3302
▁desert	-3303
▁indian	-3304
▁island	-3305
▁organizations	-3306
val	-3307
▁fro	-3308
▁ira	-3309
icles	-3310
▁twice	-3311
▁closer	-3312
▁flight	-3313
▁noticed	-3314
▁controll	-3315
▁programs	-3316
aling	-3317
▁copy	-3318
▁crow	-3319
▁male	-3320
▁funny	-3321
ifornia	-3322
▁applic	-3323
▁belief	-3324
▁genome	-3325
▁highly	-3326
▁lights	-3327
bes	-3328
raid	-3329
order	-3330
rench	-3331
▁sorry	-3332
▁causes	-3333
▁yellow	-3334
▁produced	-3335
ils	-3336
load	-3337
rael	-3338
▁abs	-3339
cules	-3340
▁photo	-3341
▁shoot	-3342
▁eating	-3343
▁expand	-3344
▁markets	-3345
▁trouble	-3346
▁pressure	-3347
nds	-3348
ray	-3349
▁vul	-3350
anced	-3351
▁coff	-3352
ashion	-3353
▁dance	-3354
▁afraid	-3355
▁played	-3356
▁workers	-3357
▁profound	-3358
bu	-3359
used	-3360
▁pet	-3361
arian	-3362
gress	-3363
▁spaces	-3364
▁degrees	-3365
▁differences	-3366
▁relationships	-3367
ec	-3368
ef	-3369
band	-3370
▁mix	-3371
▁ske	-3372
▁iran	-3373
▁bought	-3374
▁democr	-3375
▁histor	-3376
▁answers	-3377
▁evolved	-3378
▁california	-3379
▁experiments	-3380
▁sustainable	-3381
avid	-3382
rupt	-3383
▁doub	-3384
▁frame	-3385
▁frank	-3386
▁legal	-3387
▁shock	-3388
▁corner	-3389
▁stopped	-3390
▁original	-3391
▁communicate	-3392
▁communication	-3393
ss	-3394
atell	-3395
▁bees	-3396
▁plat	-3397
▁airpl	-3398
▁dying	-3399
▁differently	-3400
many	-3401
mark	-3402
outh	-3403
▁sca	-3404
▁seas	-3405
▁rough	-3406
▁custom	-3407
▁studying	-3408
▁complexity	-3409
▁consciousness	-3410
▁ecos	-3411
▁loss	-3412
▁russ	-3413
▁wide	-3414
ception	-3415
instead	-3416
▁choices	-3417
▁deliver	-3418
▁daughter	-3419
ds	-3420
rew	-3421
cope	-3422
ened	-3423
▁etc	-3424
orith	-3425
▁hang	-3426
▁lack	-3427
▁race	-3428
▁breast	-3429
▁reduce	-3430
▁thanks	-3431
▁mission	-3432
▁nations	-3433
▁streets	-3434
▁classroom	-3435
▁molecules	-3436
anc	-3437
off	-3438
zil	-3439
your	-3440
▁brill	-3441
▁10,000	-3442
▁satell	-3443
▁devices	-3444
▁algorith	-3445
▁diversity	-3446
▁landscape	-3447
▁surprising	-3448
hy	-3449
ios	-3450
iers	-3451
know	-3452
ustr	-3453
▁ban	-3454
ement	-3455
▁gent	-3456
▁iraq	-3457
▁magaz	-3458
▁altern	-3459
▁compon	-3460
▁female	-3461
▁metaph	-3462
▁ancient	-3463
▁creates	-3464
▁emotional	-3465
▁experiences	-3466
leg	-3467
▁mad	-3468
itter	-3469
ystem	-3470
▁gard	-3471
▁poet	-3472
▁wire	-3473
▁brand	-3474
▁easily	-3475
▁photos	-3476
▁vulner	-3477
▁window	-3478
▁attract	-3479
▁missing	-3480
▁foundation	-3481
fl	-3482
aced	-3483
▁cru	-3484
based	-3485
iring	-3486
▁moon	-3487
▁teen	-3488
▁broken	-3489
▁target	-3490
▁helping	-3491
▁scientist	-3492
arm	-3493
cked	-3494
empt	-3495
▁tax	-3496
▁tur	-3497
▁rare	-3498
▁sick	-3499
▁swim	-3500
▁terr	-3501
▁bread	-3502
▁hydro	-3503
▁seemed	-3504
▁designers	-3505
gy	-3506
cles	-3507
term	-3508
▁domin	-3509
▁bringing	-3510
▁ecosystem	-3511
▁background	-3512
from	-3513
aining	-3514
▁crash	-3515
▁intel	-3516
▁party	-3517
▁passed	-3518
▁biological	-3519
▁significant	-3520
yes	-3521
bert	-3522
▁band	-3523
▁habit	-3524
▁brazil	-3525
▁corpor	-3526
▁israel	-3527
▁hearing	-3528
▁commercial	-3529
▁wis	-3530
▁pros	-3531
▁1,000	-3532
▁agree	-3533
▁basis	-3534
▁mexic	-3535
▁stren	-3536
▁tough	-3537
ography	-3538
▁foreign	-3539
▁spending	-3540
▁opportunities	-3541
▁ju	-3542
ended	-3543
ening	-3544
▁germ	-3545
▁reco	-3546
▁enter	-3547
▁visit	-3548
▁artists	-3549
▁focused	-3550
▁members	-3551
▁tremendous	-3552
ued	-3553
▁joy	-3554
▁vast	-3555
ishing	-3556
▁analy	-3557
▁invol	-3558
▁coffee	-3559
▁gotten	-3560
▁contact	-3561
▁virtual	-3562
▁efficient	-3563
▁responsibility	-3564
ya	-3565
▁$	-3566
ding	-3567
▁jump	-3568
▁mort	-3569
▁fully	-3570
▁lucky	-3571
▁parad	-3572
▁bridge	-3573
▁streng	-3574
▁farmers	-3575
▁inspired	-3576
fin	-3577
see	-3578
▁gar	-3579
▁cogn	-3580
▁narr	-3581
▁rapid	-3582
▁sexual	-3583
vit	-3584
▁amb	-3585
▁ble	-3586
▁cla	-3587
▁iron	-3588
▁repe	-3589
second	-3590
▁pleas	-3591
▁therap	-3592
▁identity	-3593
▁gh	-3594
▁harm	-3595
▁scul	-3596
▁seed	-3597
▁accom	-3598
▁cheap	-3599
▁dinos	-3600
▁depart	-3601
▁moments	-3602
▁imagination	-3603
▁mr	-3604
ties	-3605
▁aids	-3606
▁shop	-3607
mother	-3608
▁gentle	-3609
▁correct	-3610
bl	-3611
▁hom	-3612
istry	-3613
▁feels	-3614
▁resist	-3615
▁knowing	-3616
▁addition	-3617
▁religion	-3618
▁brilliant	-3619
reg	-3620
orge	-3621
▁shift	-3622
▁weird	-3623
▁batter	-3624
▁fairly	-3625
▁argument	-3626
▁opposite	-3627
▁particles	-3628
car	-3629
▁gun	-3630
▁mas	-3631
▁rom	-3632
itely	-3633
▁host	-3634
▁kore	-3635
▁mamm	-3636
▁chick	-3637
▁leads	-3638
▁bright	-3639
▁demand	-3640
▁forever	-3641
▁professor	-3642
▁competition	-3643
▁possibility	-3644
▁que	-3645
arter	-3646
▁core	-3647
▁forg	-3648
▁join	-3649
▁mich	-3650
▁rout	-3651
orders	-3652
ording	-3653
▁giant	-3654
▁failure	-3655
▁facebook	-3656
▁negative	-3657
▁partners	-3658
▁leadership	-3659
▁phenomenon	-3660
ike	-3661
eral	-3662
▁400	-3663
▁tor	-3664
▁asia	-3665
▁shel	-3666
icking	-3667
▁invis	-3668
▁aspect	-3669
▁consid	-3670
▁fashion	-3671
▁accident	-3672
▁creatures	-3673
gl	-3674
zen	-3675
take	-3676
▁egg	-3677
▁fed	-3678
while	-3679
▁mouth	-3680
▁advant	-3681
▁charge	-3682
▁nearly	-3683
▁notion	-3684
▁sculpt	-3685
▁volunt	-3686
▁sharing	-3687
▁describe	-3688
fo	-3689
aud	-3690
roud	-3691
▁mit	-3692
▁acad	-3693
▁stem	-3694
atures	-3695
dimens	-3696
▁mouse	-3697
▁french	-3698
▁tissue	-3699
ification	-3700
▁discovery	-3701
ked	-3702
hold	-3703
life	-3704
▁niger	-3705
connect	-3706
▁planets	-3707
▁religious	-3708
ami	-3709
▁1.	-3710
reci	-3711
▁alt	-3712
ander	-3713
▁cred	-3714
▁exer	-3715
▁ship	-3716
▁tast	-3717
ifying	-3718
▁calls	-3719
▁david	-3720
▁lunch	-3721
▁maint	-3722
▁motor	-3723
▁turning	-3724
▁distance	-3725
▁elements	-3726
cop	-3727
ein	-3728
gar	-3729
her	-3730
ius	-3731
lim	-3732
mon	-3733
tle	-3734
▁fab	-3735
child	-3736
house	-3737
▁scan	-3738
▁indic	-3739
▁dollar	-3740
▁events	-3741
▁austral	-3742
▁concent	-3743
▁emotion	-3744
▁restaur	-3745
ears	-3746
ford	-3747
vity	-3748
▁mos	-3749
▁note	-3750
▁puzz	-3751
▁chris	-3752
▁noise	-3753
▁double	-3754
▁meters	-3755
▁stream	-3756
▁traffic	-3757
▁benefits	-3758
▁depression	-3759
ada	-3760
cest	-3761
▁fol	-3762
▁ing	-3763
again	-3764
print	-3765
▁cand	-3766
thetic	-3767
▁accur	-3768
▁avoid	-3769
▁proud	-3770
ifically	-3771
▁balance	-3772
▁husband	-3773
▁necessarily	-3774
lin	-3775
pper	-3776
vere	-3777
▁rot	-3778
▁chann	-3779
▁related	-3780
▁typical	-3781
▁entirely	-3782
▁european	-3783
▁suffering	-3784
▁importantly	-3785
▁lin	-3786
celer	-3787
▁adapt	-3788
▁bound	-3789
▁ancest	-3790
▁easier	-3791
▁origin	-3792
▁transp	-3793
▁despite	-3794
▁destroy	-3795
▁intellect	-3796
dimensional	-3797
his	-3798
ths	-3799
▁ug	-3800
urch	-3801
▁mir	-3802
▁held	-3803
▁eleph	-3804
▁fresh	-3805
▁helps	-3806
▁prize	-3807
▁stuck	-3808
▁talks	-3809
▁attempt	-3810
▁figured	-3811
▁unfortunately	-3812
ky	-3813
des	-3814
▁ep	-3815
▁cro	-3816
eared	-3817
▁edge	-3818
▁spot	-3819
▁newsp	-3820
▁dreams	-3821
▁opened	-3822
ographic	-3823
▁weapons	-3824
▁previous	-3825
▁structures	-3826
▁responsible	-3827
mit	-3828
ager	-3829
verse	-3830
▁bomb	-3831
▁master	-3832
▁raised	-3833
▁sector	-3834
▁billions	-3835
▁metaphor	-3836
▁sequence	-3837
rel	-3838
hand	-3839
▁mig	-3840
iable	-3841
▁epid	-3842
▁reve	-3843
icians	-3844
ulated	-3845
▁frequ	-3846
▁caught	-3847
▁myster	-3848
▁appreci	-3849
▁leading	-3850
▁regular	-3851
▁mathematics	-3852
col	-3853
oun	-3854
▁ax	-3855
isco	-3856
vant	-3857
▁boat	-3858
▁roof	-3859
▁weak	-3860
▁faith	-3861
▁unlike	-3862
actually	-3863
ulations	-3864
▁insects	-3865
▁matters	-3866
▁document	-3867
▁necessary	-3868
▁pow	-3869
▁click	-3870
▁exhib	-3871
▁grass	-3872
▁offer	-3873
▁paint	-3874
▁quote	-3875
however	-3876
▁convin	-3877
▁signal	-3878
▁element	-3879
▁holding	-3880
▁kilomet	-3881
▁engineers	-3882
▁operating	-3883
▁ultimately	-3884
▁institution	-3885
cket	-3886
pret	-3887
▁fle	-3888
▁hid	-3889
▁und	-3890
plant	-3891
▁ants	-3892
▁exch	-3893
▁snow	-3894
▁soil	-3895
▁truck	-3896
▁brings	-3897
▁closed	-3898
▁inform	-3899
▁install	-3900
▁justice	-3901
▁leaving	-3902
▁shouldn	-3903
▁succeed	-3904
ibilities	-3905
▁magazine	-3906
▁childhood	-3907
▁construct	-3908
▁definition	-3909
eper	-3910
ysis	-3911
ropri	-3912
▁libr	-3913
▁tour	-3914
▁chair	-3915
▁degree	-3916
▁counter	-3917
▁require	-3918
▁station	-3919
▁trained	-3920
▁believed	-3921
▁creation	-3922
▁strategy	-3923
▁influence	-3924
▁invisible	-3925
▁organisms	-3926
uros	-3927
▁scri	-3928
▁names	-3929
▁prior	-3930
▁walls	-3931
▁circle	-3932
▁lesson	-3933
▁oceans	-3934
▁pounds	-3935
▁investment	-3936
la	-3937
▁bag	-3938
▁asse	-3939
idents	-3940
▁diver	-3941
▁acceler	-3942
▁british	-3943
▁equival	-3944
▁factory	-3945
▁studied	-3946
▁fighting	-3947
▁surprise	-3948
▁cognitive	-3949
▁civilization	-3950
hi	-3951
ica	-3952
min	-3953
oted	-3954
▁pun	-3955
▁row	-3956
▁lapt	-3957
▁embra	-3958
▁moves	-3959
▁subst	-3960
▁church	-3961
▁failed	-3962
▁leader	-3963
yeah	-3964
agers	-3965
▁empt	-3966
▁gall	-3967
▁purs	-3968
▁seat	-3969
▁whom	-3970
▁deeply	-3971
▁finger	-3972
▁galaxy	-3973
▁phones	-3974
▁finished	-3975
▁galaxies	-3976
▁constantly	-3977
▁grandmother	-3978
cons	-3979
▁150	-3980
▁ton	-3981
▁bone	-3982
▁diet	-3983
urally	-3984
▁novel	-3985
▁round	-3986
▁simpl	-3987
▁adults	-3988
▁colors	-3989
▁sister	-3990
▁slowly	-3991
▁managed	-3992
▁prototy	-3993
aff	-3994
irt	-3995
enty	-3996
▁dol	-3997
▁mer	-3998
▁nan	-3999
inist	-4000
▁argue	-4001
ruption	-4002
▁begins	-4003
▁artific	-4004
▁invited	-4005
▁advantage	-4006
▁collective	-4007
▁fascinating	-4008
anes	-4009
edia	-4010
essed	-4011
▁defe	-4012
▁hate	-4013
▁apple	-4014
▁wheel	-4015
▁letter	-4016
▁symmet	-4017
▁benefit	-4018
▁capable	-4019
▁vehicle	-4020
▁compared	-4021
▁concerned	-4022
▁otherwise	-4023
▁surprised	-4024
▁washington	-4025
▁professional	-4026
gypt	-4027
uing	-4028
wide	-4029
▁cos	-4030
▁gang	-4031
▁meat	-4032
▁opin	-4033
▁wave	-4034
▁fields	-4035
▁paying	-4036
care	-4037
iber	-4038
▁mur	-4039
ulous	-4040
▁anti	-4041
▁dial	-4042
ctions	-4043
▁infin	-4044
▁reward	-4045
▁replace	-4046
▁followed	-4047
▁described	-4048
▁equivalent	-4049
cil	-4050
oom	-4051
uls	-4052
otic	-4053
▁era	-4054
▁ger	-4055
▁saf	-4056
illed	-4057
▁ange	-4058
▁load	-4059
▁peak	-4060
terday	-4061
▁marri	-4062
▁attach	-4063
▁valley	-4064
▁extreme	-4065
▁mothers	-4066
▁precise	-4067
▁protein	-4068
sometimes	-4069
▁emotions	-4070
▁perfectly	-4071
▁consumption	-4072
▁interaction	-4073
spe	-4074
uge	-4075
▁1,	-4076
athy	-4077
▁dry	-4078
▁inj	-4079
▁adop	-4080
▁disp	-4081
▁vacc	-4082
▁beach	-4083
▁brief	-4084
▁wisdom	-4085
▁contract	-4086
▁majority	-4087
▁molecule	-4088
▁languages	-4089
▁seriously	-4090
▁principles	-4091
20	-4092
dp	-4093
mas	-4094
▁35	-4095
▁lu	-4096
▁sen	-4097
throp	-4098
uries	-4099
▁coral	-4100
▁equal	-4101
▁equip	-4102
▁resol	-4103
▁surge	-4104
▁launched	-4105
▁multiple	-4106
▁planning	-4107
▁economics	-4108
dr	-4109
yl	-4110
ees	-4111
aria	-4112
iors	-4113
onom	-4114
▁gap	-4115
▁org	-4116
▁shr	-4117
▁spl	-4118
▁flat	-4119
▁foss	-4120
▁intu	-4121
▁nerv	-4122
▁sport	-4123
▁stock	-4124
▁astron	-4125
▁exists	-4126
▁implic	-4127
▁spring	-4128
▁insight	-4129
▁designer	-4130
▁everyday	-4131
▁principle	-4132
▁businesses	-4133
ae	-4134
bble	-4135
each	-4136
▁hun	-4137
apers	-4138
known	-4139
▁hack	-4140
▁lady	-4141
▁reef	-4142
▁crowd	-4143
▁egypt	-4144
▁grown	-4145
▁rural	-4146
oration	-4147
▁battle	-4148
▁versus	-4149
▁highest	-4150
▁married	-4151
▁wearing	-4152
▁hopefully	-4153
▁institute	-4154
▁mentioned	-4155
ka	-4156
mp	-4157
anz	-4158
hab	-4159
cont	-4160
once	-4161
rict	-4162
▁due	-4163
▁fal	-4164
gment	-4165
point	-4166
▁hasn	-4167
▁tick	-4168
▁trip	-4169
▁cycle	-4170
▁franc	-4171
▁fellow	-4172
▁incent	-4173
▁drawing	-4174
▁limited	-4175
▁twitter	-4176
▁weather	-4177
▁received	-4178
▁survival	-4179
▁department	-4180
asa	-4181
iat	-4182
apse	-4183
roll	-4184
▁pil	-4185
craft	-4186
▁wond	-4187
ensity	-4188
forest	-4189
▁dolph	-4190
▁pages	-4191
▁debate	-4192
▁motion	-4193
▁shapes	-4194
▁unless	-4195
▁compare	-4196
▁curious	-4197
▁airplane	-4198
▁normally	-4199
▁sentence	-4200
▁universal	-4201
ta	-4202
amb	-4203
mak	-4204
ume	-4205
▁bon	-4206
place	-4207
▁steps	-4208
iration	-4209
▁mexico	-4210
▁england	-4211
▁organic	-4212
▁tomorrow	-4213
▁statistics	-4214
▁increasingly	-4215
▁transformation	-4216
ij	-4217
emy	-4218
rate	-4219
▁cow	-4220
estic	-4221
▁agre	-4222
▁shut	-4223
▁vent	-4224
▁2,000	-4225
▁faces	-4226
▁fourth	-4227
▁hidden	-4228
▁article	-4229
▁treated	-4230
▁investig	-4231
▁equipment	-4232
▁distribution	-4233
cal	-4234
asion	-4235
three	-4236
▁chap	-4237
▁rein	-4238
▁wear	-4239
▁daily	-4240
▁diagn	-4241
▁plane	-4242
through	-4243
vention	-4244
▁commit	-4245
▁damage	-4246
▁dinner	-4247
▁driver	-4248
▁garden	-4249
▁leaves	-4250
▁remote	-4251
▁nervous	-4252
▁theater	-4253
▁warming	-4254
▁ordinary	-4255
▁property	-4256
▁separate	-4257
▁technical	-4258
▁agriculture	-4259
irm	-4260
pet	-4261
▁kn	-4262
ilet	-4263
▁gay	-4264
▁rat	-4265
ipped	-4266
▁soph	-4267
encies	-4268
▁homes	-4269
▁kenya	-4270
instein	-4271
▁belong	-4272
▁harder	-4273
▁toward	-4274
▁letters	-4275
▁continent	-4276
▁experienced	-4277
▁mel	-4278
▁rub	-4279
▁wow	-4280
▁arms	-4281
▁cosm	-4282
▁heads	-4283
▁pengu	-4284
▁users	-4285
▁gather	-4286
▁stupid	-4287
▁thinks	-4288
▁toilet	-4289
audience	-4290
▁volunte	-4291
▁feedback	-4292
▁japanese	-4293
▁management	-4294
▁generations	-4295
▁intelligent	-4296
rs	-4297
ara	-4298
rum	-4299
▁il	-4300
ogen	-4301
▁date	-4302
▁fell	-4303
▁tail	-4304
▁brown	-4305
▁chain	-4306
▁crime	-4307
▁grade	-4308
▁neuro	-4309
entally	-4310
▁expert	-4311
▁voices	-4312
▁soldiers	-4313
▁according	-4314
▁dimensions	-4315
▁electrical	-4316
amin	-4317
tell	-4318
▁hur	-4319
▁unp	-4320
▁bear	-4321
▁evol	-4322
▁valu	-4323
▁teles	-4324
▁veget	-4325
▁circum	-4326
▁conduct	-4327
▁germany	-4328
▁killing	-4329
▁signals	-4330
▁independent	-4331
dy	-4332
ns	-4333
que	-4334
son	-4335
ocol	-4336
▁bow	-4337
ortex	-4338
▁abst	-4339
▁disc	-4340
ession	-4341
▁awful	-4342
▁categ	-4343
▁chimp	-4344
▁inner	-4345
▁shoes	-4346
▁caused	-4347
▁neuros	-4348
▁script	-4349
▁arrived	-4350
▁battery	-4351
▁covered	-4352
▁currently	-4353
▁essential	-4354
▁interface	-4355
▁yesterday	-4356
▁associated	-4357
▁ah	-4358
▁lie	-4359
▁mat	-4360
▁ves	-4361
▁vote	-4362
▁lifet	-4363
▁limit	-4364
▁negot	-4365
▁prime	-4366
▁quiet	-4367
▁stood	-4368
issions	-4369
▁advert	-4370
▁explan	-4371
▁player	-4372
▁review	-4373
▁100,000	-4374
▁setting	-4375
▁testing	-4376
▁resource	-4377
▁artificial	-4378
▁intellectual	-4379
30	-4380
hum	-4381
▁bush	-4382
▁maps	-4383
▁pray	-4384
▁stim	-4385
▁tall	-4386
ipping	-4387
▁heavy	-4388
▁liked	-4389
▁manip	-4390
▁spoke	-4391
▁filled	-4392
▁losing	-4393
▁congress	-4394
▁consequences	-4395
▁entrepreneurs	-4396
▁amp	-4397
being	-4398
▁paul	-4399
▁puts	-4400
▁colon	-4401
▁empty	-4402
▁folks	-4403
▁players	-4404
▁watched	-4405
▁researchers	-4406
aked	-4407
fish	-4408
ston	-4409
force	-4410
▁bits	-4411
▁coal	-4412
▁hurt	-4413
▁recy	-4414
▁warm	-4415
▁holes	-4416
▁hyper	-4417
▁layer	-4418
▁recon	-4419
▁deeper	-4420
▁movies	-4421
▁calling	-4422
▁appropri	-4423
▁engineer	-4424
▁mountains	-4425
▁kilometers	-4426
cast	-4427
cers	-4428
down	-4429
▁tow	-4430
itness	-4431
▁grain	-4432
▁scene	-4433
▁signs	-4434
▁tumor	-4435
▁darwin	-4436
▁finish	-4437
▁member	-4438
▁picked	-4439
▁vessel	-4440
▁opening	-4441
▁advanced	-4442
▁australia	-4443
▁designing	-4444
▁transition	-4445
▁comfortable	-4446
ham	-4447
ino	-4448
▁mc	-4449
edic	-4450
gged	-4451
▁bee	-4452
▁bri	-4453
▁poo	-4454
▁van	-4455
▁army	-4456
▁arts	-4457
▁drag	-4458
▁kick	-4459
▁scen	-4460
▁surf	-4461
▁wars	-4462
ablish	-4463
cience	-4464
▁ideal	-4465
mission	-4466
▁videos	-4467
▁keeping	-4468
▁identify	-4469
▁minister	-4470
▁platform	-4471
▁struggle	-4472
▁convinced	-4473
▁processes	-4474
▁satellite	-4475
▁wondering	-4476
▁considered	-4477
▁importance	-4478
build	-4479
▁desk	-4480
▁dots	-4481
▁evil	-4482
▁hide	-4483
▁hung	-4484
▁init	-4485
▁intr	-4486
▁lift	-4487
▁facts	-4488
▁illeg	-4489
▁solid	-4490
▁teeth	-4491
▁micros	-4492
▁safety	-4493
▁sharks	-4494
▁dealing	-4495
ato	-4496
resp	-4497
▁lic	-4498
iency	-4499
▁gift	-4500
▁sites	-4501
▁sugar	-4502
▁fortun	-4503
▁muscle	-4504
▁status	-4505
▁trials	-4506
▁cutting	-4507
▁display	-4508
▁experts	-4509
▁sources	-4510
▁worried	-4511
▁northern	-4512
▁entertain	-4513
▁alternative	-4514
▁connections	-4515
enn	-4516
▁ru	-4517
▁nar	-4518
▁nav	-4519
state	-4520
ublic	-4521
▁blow	-4522
▁gain	-4523
▁hadn	-4524
ension	-4525
▁waves	-4526
akistan	-4527
▁gender	-4528
▁replic	-4529
▁rocket	-4530
▁skelet	-4531
▁britain	-4532
▁absolute	-4533
fortunately	-4534
su	-4535
▁45	-4536
▁99	-4537
cend	-4538
last	-4539
odes	-4540
zing	-4541
▁pac	-4542
neath	-4543
organ	-4544
▁ends	-4545
▁wake	-4546
▁broke	-4547
▁flies	-4548
▁horse	-4549
▁perce	-4550
▁saved	-4551
▁poetry	-4552
▁dynamic	-4553
▁variety	-4554
▁consumer	-4555
▁cultures	-4556
▁exchange	-4557
▁expected	-4558
▁feelings	-4559
▁marriage	-4560
▁requires	-4561
▁strength	-4562
▁valuable	-4563
▁organized	-4564
▁convention	-4565
▁properties	-4566
▁protection	-4567
bas	-4568
gets	-4569
mers	-4570
pell	-4571
▁cha	-4572
▁toy	-4573
▁wik	-4574
erves	-4575
their	-4576
▁grid	-4577
▁qual	-4578
▁honor	-4579
▁initi	-4580
▁budget	-4581
▁profit	-4582
▁cartoon	-4583
▁malaria	-4584
▁viruses	-4585
▁graduate	-4586
▁reaction	-4587
▁establish	-4588
▁construction	-4589
dh	-4590
ago	-4591
ipe	-4592
zed	-4593
mber	-4594
▁vib	-4595
▁bran	-4596
▁club	-4597
▁exec	-4598
▁flex	-4599
▁shif	-4600
pected	-4601
▁chart	-4602
▁prove	-4603
▁shall	-4604
osition	-4605
▁define	-4606
▁capture	-4607
▁illness	-4608
▁location	-4609
▁collection	-4610
▁specifically	-4611
iot	-4612
aurs	-4613
hyth	-4614
▁2000	-4615
▁hypo	-4616
▁pure	-4617
▁suit	-4618
▁swed	-4619
▁user	-4620
▁cards	-4621
▁fewer	-4622
▁kitch	-4623
▁facing	-4624
▁forced	-4625
▁studio	-4626
▁richard	-4627
▁roughly	-4628
▁carrying	-4629
▁exercise	-4630
▁pakistan	-4631
▁existence	-4632
▁corruption	-4633
▁democratic	-4634
▁underneath	-4635
▁vulnerable	-4636
▁possibilities	-4637
aled	-4638
rete	-4639
▁cub	-4640
ength	-4641
lying	-4642
▁lies	-4643
▁liqu	-4644
▁shad	-4645
▁spin	-4646
▁unex	-4647
▁stone	-4648
▁canada	-4649
▁chicken	-4650
▁analysis	-4651
▁convince	-4652
▁chemicals	-4653
▁chemistry	-4654
▁encourage	-4655
▁mortality	-4656
▁producing	-4657
▁worldwide	-4658
▁expression	-4659
omed	-4660
▁atl	-4661
▁sla	-4662
▁ven	-4663
▁nest	-4664
▁ring	-4665
▁tons	-4666
acters	-4667
▁sight	-4668
▁bubble	-4669
▁houses	-4670
▁survey	-4671
▁contain	-4672
▁emerging	-4673
▁whenever	-4674
▁behaviors	-4675
▁sophistic	-4676
▁characters	-4677
▁represents	-4678
▁situations	-4679
▁effectively	-4680
bur	-4681
did	-4682
cipl	-4683
▁las	-4684
▁mak	-4685
iques	-4686
▁acqu	-4687
▁bare	-4688
▁decl	-4689
▁unit	-4690
▁goals	-4691
▁march	-4692
▁steel	-4693
▁fossil	-4694
▁winter	-4695
▁however	-4696
▁nigeria	-4697
▁reprodu	-4698
▁instrument	-4699
abet	-4700
▁scr	-4701
forms	-4702
▁cast	-4703
▁grab	-4704
▁gree	-4705
▁isol	-4706
▁compl	-4707
▁paral	-4708
▁smile	-4709
ulating	-4710
▁credit	-4711
▁forgot	-4712
▁cameras	-4713
▁command	-4714
▁privile	-4715
▁selling	-4716
▁clinical	-4717
▁pleasure	-4718
▁thoughts	-4719
▁trillion	-4720
▁interpret	-4721
▁definitely	-4722
▁mathematical	-4723
irty	-4724
▁ber	-4725
▁kne	-4726
▁les	-4727
▁ped	-4728
▁rit	-4729
▁lawy	-4730
▁poem	-4731
▁ride	-4732
porary	-4733
▁reven	-4734
▁factor	-4735
▁height	-4736
▁autonom	-4737
▁radical	-4738
everybody	-4739
▁einstein	-4740
▁generate	-4741
▁hydrogen	-4742
▁messages	-4743
▁carefully	-4744
▁healthcare	-4745
▁profession	-4746
▁psychology	-4747
▁relatively	-4748
▁restaurant	-4749
▁politicians	-4750
ey	-4751
ded	-4752
▁py	-4753
osis	-4754
▁pin	-4755
▁spo	-4756
▁wat	-4757
under	-4758
▁lect	-4759
▁myth	-4760
▁tank	-4761
▁trib	-4762
thesis	-4763
▁islam	-4764
▁minim	-4765
▁occup	-4766
▁rates	-4767
▁remain	-4768
▁extract	-4769
▁harvard	-4770
▁partner	-4771
▁victims	-4772
▁circumst	-4773
▁lifetime	-4774
▁prepared	-4775
▁southern	-4776
▁dinosaurs	-4777
▁disappear	-4778
▁newspaper	-4779
icip	-4780
olds	-4781
tube	-4782
chris	-4783
▁cure	-4784
▁hunt	-4785
▁pian	-4786
▁thin	-4787
▁hotel	-4788
▁skill	-4789
▁sympt	-4790
▁union	-4791
▁analog	-4792
▁desire	-4793
▁mirror	-4794
▁sphere	-4795
▁consist	-4796
▁kitchen	-4797
▁library	-4798
▁promise	-4799
▁rapidly	-4800
▁sending	-4801
▁witness	-4802
▁brothers	-4803
▁epidemic	-4804
▁official	-4805
▁employees	-4806
sa	-4807
ael	-4808
gra	-4809
ooth	-4810
thal	-4811
▁eld	-4812
oting	-4813
▁plus	-4814
anyway	-4815
lation	-4816
▁aging	-4817
▁metal	-4818
▁risks	-4819
▁depends	-4820
▁encoura	-4821
▁release	-4822
abilities	-4823
▁abstract	-4824
▁affected	-4825
▁anderson	-4826
▁generally	-4827
▁introduce	-4828
▁invention	-4829
▁practical	-4830
▁introduced	-4831
icy	-4832
bors	-4833
etics	-4834
▁jack	-4835
▁mira	-4836
▁added	-4837
▁atoms	-4838
▁goods	-4839
▁sides	-4840
▁buying	-4841
▁compar	-4842
▁inevit	-4843
▁laptop	-4844
▁organs	-4845
▁electro	-4846
▁gravity	-4847
▁primary	-4848
▁francisco	-4849
▁molecular	-4850
▁movements	-4851
▁typically	-4852
▁conservation	-4853
▁evolutionary	-4854
mm	-4855
obe	-4856
pan	-4857
vas	-4858
aren	-4859
▁asp	-4860
▁fif	-4861
▁jew	-4862
▁glam	-4863
▁orch	-4864
▁pole	-4865
▁runs	-4866
▁grant	-4867
itarian	-4868
▁bottle	-4869
▁former	-4870
▁prefer	-4871
▁regard	-4872
▁sample	-4873
▁applied	-4874
▁illegal	-4875
▁youtube	-4876
▁astronom	-4877
▁recorded	-4878
▁radiation	-4879
ym	-4880
▁fu	-4881
four	-4882
prof	-4883
▁deli	-4884
▁reci	-4885
▁input	-4886
▁notes	-4887
▁serve	-4888
▁staff	-4889
▁george	-4890
▁liquid	-4891
▁refuge	-4892
▁diction	-4893
▁harvest	-4894
▁lessons	-4895
▁records	-4896
▁spectrum	-4897
▁vehicles	-4898
▁emissions	-4899
▁techniques	-4900
▁environments	-4901
bre	-4902
igm	-4903
inc	-4904
stic	-4905
icing	-4906
orous	-4907
since	-4908
usual	-4909
would	-4910
▁cave	-4911
▁clip	-4912
▁diam	-4913
▁dish	-4914
▁mand	-4915
ptions	-4916
▁claim	-4917
▁clock	-4918
▁horiz	-4919
▁medium	-4920
▁senses	-4921
▁worlds	-4922
▁quantum	-4923
▁windows	-4924
▁interests	-4925
▁discussion	-4926
▁combination	-4927
▁technological	-4928
ox	-4929
vi	-4930
cut	-4931
ses	-4932
talk	-4933
▁ens	-4934
▁rig	-4935
erved	-4936
itals	-4937
▁remo	-4938
▁wine	-4939
▁3,000	-4940
▁keeps	-4941
▁ought	-4942
▁topic	-4943
quality	-4944
▁acting	-4945
▁assign	-4946
▁critic	-4947
▁scared	-4948
▁season	-4949
▁channel	-4950
▁details	-4951
▁dropped	-4952
▁eastern	-4953
▁mistake	-4954
▁opinion	-4955
▁birthday	-4956
▁memories	-4957
▁neighbors	-4958
▁terrorism	-4959
▁algorithms	-4960
▁laboratory	-4961
▁manufacturing	-4962
da	-4963
▁cas	-4964
▁wal	-4965
▁wel	-4966
scale	-4967
using	-4968
▁tape	-4969
urance	-4970
▁court	-4971
▁dedic	-4972
▁sweet	-4973
▁theme	-4974
▁advent	-4975
▁contem	-4976
▁conver	-4977
▁hoping	-4978
▁monkey	-4979
children	-4980
▁include	-4981
▁administ	-4982
▁disaster	-4983
▁naturally	-4984
▁perception	-4985
▁collaboration	-4986
▁&	-4987
nam	-4988
▁ii	-4989
ingu	-4990
umps	-4991
▁gdp	-4992
▁hol	-4993
▁tro	-4994
enced	-4995
third	-4996
usive	-4997
▁resc	-4998
ternal	-4999
▁estim	-5000
▁pitch	-5001
▁trend	-5002
▁accompl	-5003
▁afterno	-5004
▁centers	-5005
▁engaged	-5006
▁reached	-5007
everything	-5008
▁marketing	-5009
▁efficiency	-5010
yet	-5011
▁oct	-5012
vable	-5013
▁2008	-5014
▁cere	-5015
▁eggs	-5016
▁fert	-5017
americ	-5018
▁honey	-5019
▁refer	-5020
▁satis	-5021
▁amazon	-5022
▁assist	-5023
▁pulled	-5024
▁spider	-5025
▁burning	-5026
▁cooking	-5027
▁feature	-5028
▁unusual	-5029
▁mistakes	-5030
▁occurred	-5031
▁relevant	-5032
▁ultimate	-5033
▁activities	-5034
▁photographs	-5035
esh	-5036
ett	-5037
rom	-5038
xim	-5039
▁ip	-5040
have	-5041
uary	-5042
uits	-5043
▁ham	-5044
belie	-5045
▁bath	-5046
▁hill	-5047
▁sees	-5048
▁false	-5049
▁james	-5050
▁score	-5051
▁blocks	-5052
▁negoti	-5053
▁virgin	-5054
▁musical	-5055
▁suppose	-5056
▁features	-5057
▁traveling	-5058
▁components	-5059
▁mathematic	-5060
▁sophisticated	-5061
▁sustainability	-5062
abol	-5063
does	-5064
plom	-5065
ront	-5066
alled	-5067
umped	-5068
▁hits	-5069
▁pair	-5070
▁silk	-5071
▁trig	-5072
arrass	-5073
making	-5074
▁upper	-5075
▁driven	-5076
▁iphone	-5077
▁courage	-5078
▁figures	-5079
▁silence	-5080
▁rational	-5081
▁republic	-5082
▁pollution	-5083
▁personally	-5084
log	-5085
whe	-5086
lands	-5087
▁1990	-5088
▁bell	-5089
▁chic	-5090
▁dogs	-5091
▁hook	-5092
▁joke	-5093
▁rush	-5094
▁vert	-5095
thanks	-5096
▁curve	-5097
▁tests	-5098
▁cortex	-5099
▁string	-5100
▁empower	-5101
▁factors	-5102
▁operate	-5103
▁pacific	-5104
▁apparent	-5105
▁ancestors	-5106
▁destruction	-5107
▁presentation	-5108
ja	-5109
foot	-5110
▁jan	-5111
▁sem	-5112
▁1960	-5113
▁jail	-5114
▁lake	-5115
▁nasa	-5116
▁poly	-5117
▁pool	-5118
anging	-5119
▁dynam	-5120
▁korea	-5121
▁mosqu	-5122
▁pregn	-5123
▁taste	-5124
▁clever	-5125
▁clouds	-5126
▁drives	-5127
▁linked	-5128
▁reject	-5129
▁russia	-5130
▁severe	-5131
▁whales	-5132
▁actions	-5133
▁forests	-5134
▁singing	-5135
▁creature	-5136
▁dramatic	-5137
▁required	-5138
▁awareness	-5139
▁embarrass	-5140
▁increased	-5141
▁operation	-5142
▁literature	-5143
▁meaningful	-5144
▁physically	-5145
▁processing	-5146
▁participate	-5147
▁transportation	-5148
jo	-5149
mal	-5150
ums	-5151
wel	-5152
▁75	-5153
also	-5154
rich	-5155
▁gut	-5156
▁mac	-5157
abled	-5158
rated	-5159
▁fake	-5160
▁milk	-5161
▁mush	-5162
▁soul	-5163
ateful	-5164
▁5,000	-5165
▁films	-5166
▁resil	-5167
▁uncom	-5168
▁ingred	-5169
▁solved	-5170
▁clothes	-5171
▁extinct	-5172
▁falling	-5173
▁nowhere	-5174
▁quarter	-5175
▁visible	-5176
▁confront	-5177
▁existing	-5178
▁internal	-5179
▁proteins	-5180
▁sunlight	-5181
▁afternoon	-5182
▁collected	-5183
▁applications	-5184
ams	-5185
rog	-5186
five	-5187
tech	-5188
▁194	-5189
▁dut	-5190
▁phr	-5191
lines	-5192
▁2010	-5193
▁dece	-5194
▁lens	-5195
▁mart	-5196
illing	-5197
▁falls	-5198
▁flash	-5199
▁roads	-5200
llywood	-5201
respond	-5202
▁diplom	-5203
▁extend	-5204
▁marine	-5205
▁option	-5206
▁perman	-5207
▁amounts	-5208
▁chicago	-5209
▁largely	-5210
▁accurate	-5211
▁released	-5212
▁authority	-5213
van	-5214
keys	-5215
only	-5216
part	-5217
▁tap	-5218
▁vag	-5219
could	-5220
umber	-5221
▁bike	-5222
▁gulf	-5223
▁zoom	-5224
iosity	-5225
▁absor	-5226
▁coord	-5227
▁memor	-5228
▁recom	-5229
▁border	-5230
▁flower	-5231
▁formed	-5232
▁german	-5233
▁length	-5234
▁lifest	-5235
▁ritual	-5236
interest	-5237
▁defined	-5238
▁empathy	-5239
▁outcome	-5240
▁reverse	-5241
▁therapy	-5242
▁tonight	-5243
▁unknown	-5244
▁concrete	-5245
▁contrast	-5246
▁elephant	-5247
▁horrible	-5248
▁infected	-5249
▁tracking	-5250
▁hospitals	-5251
▁mechanism	-5252
▁electronic	-5253
▁percentage	-5254
▁challenging	-5255
▁psychological	-5256
au	-5257
500	-5258
ole	-5259
▁bes	-5260
esome	-5261
▁flew	-5262
▁gras	-5263
▁loud	-5264
▁mont	-5265
▁span	-5266
▁ridic	-5267
▁thick	-5268
inction	-5269
▁advice	-5270
▁boring	-5271
▁boston	-5272
▁divide	-5273
▁circuit	-5274
▁closely	-5275
▁fishing	-5276
▁constant	-5277
▁presence	-5278
▁computing	-5279
▁narrative	-5280
▁providing	-5281
▁appropriate	-5282
▁explanation	-5283
▁exploration	-5284
▁inspiration	-5285
▁potentially	-5286
▁circumstances	-5287
sp	-5288
nic	-5289
vis	-5290
▁na	-5291
adic	-5292
oint	-5293
▁aug	-5294
▁cup	-5295
▁haw	-5296
hythm	-5297
▁ment	-5298
▁mile	-5299
▁obst	-5300
isters	-5301
▁chose	-5302
▁lying	-5303
perhaps	-5304
▁button	-5305
▁desper	-5306
▁frustr	-5307
▁combined	-5308
▁wireless	-5309
▁gentlemen	-5310
▁protected	-5311
▁correspond	-5312
▁fundamentally	-5313
ih	-5314
wr	-5315
ads	-5316
sim	-5317
oman	-5318
▁raw	-5319
eding	-5320
itors	-5321
nding	-5322
▁alex	-5323
▁error	-5324
▁humor	-5325
▁plate	-5326
▁queen	-5327
▁renew	-5328
▁shame	-5329
▁title	-5330
▁weigh	-5331
▁pollen	-5332
aneously	-5333
▁decline	-5334
▁fingers	-5335
▁intense	-5336
▁villages	-5337
▁wondered	-5338
▁explained	-5339
▁functions	-5340
▁economists	-5341
▁innovative	-5342
▁surrounded	-5343
tr	-5344
bul	-5345
▁ze	-5346
iggs	-5347
keep	-5348
tail	-5349
whel	-5350
▁bay	-5351
▁jer	-5352
▁sir	-5353
▁frag	-5354
▁mere	-5355
▁scar	-5356
▁subs	-5357
stream	-5358
▁antib	-5359
▁bones	-5360
▁doubt	-5361
▁logic	-5362
▁piano	-5363
▁polar	-5364
▁songs	-5365
▁france	-5366
▁stayed	-5367
▁volume	-5368
▁comment	-5369
▁vaccine	-5370
basically	-5371
▁allowing	-5372
▁director	-5373
▁infinite	-5374
▁instruct	-5375
▁somewhat	-5376
▁stronger	-5377
▁subjects	-5378
▁sensitive	-5379
▁conclusion	-5380
▁mechanical	-5381
▁productive	-5382
va	-5383
anta	-5384
berg	-5385
▁dot	-5386
▁gps	-5387
iters	-5388
power	-5389
stand	-5390
▁1980	-5391
▁bicy	-5392
▁biom	-5393
▁busy	-5394
▁corn	-5395
▁gest	-5396
ipedia	-5397
▁split	-5398
▁stack	-5399
▁stret	-5400
▁explos	-5401
▁muslim	-5402
▁strang	-5403
▁advance	-5404
▁defense	-5405
▁evening	-5406
▁illustr	-5407
▁election	-5408
▁overwhel	-5409
▁continued	-5410
▁spiritual	-5411
▁telephone	-5412
bal	-5413
▁23	-5414
ests	-5415
▁kno	-5416
ament	-5417
gging	-5418
iture	-5419
▁cash	-5420
▁clus	-5421
▁ears	-5422
▁item	-5423
▁sets	-5424
▁stan	-5425
▁suic	-5426
▁zone	-5427
athers	-5428
▁admit	-5429
▁aster	-5430
▁navig	-5431
▁whist	-5432
▁autism	-5433
▁encoun	-5434
▁excell	-5435
▁reform	-5436
▁discipl	-5437
▁flowers	-5438
▁islands	-5439
▁regions	-5440
▁remains	-5441
▁samples	-5442
▁collapse	-5443
▁grateful	-5444
▁mushroom	-5445
▁framework	-5446
▁technique	-5447
▁controlled	-5448
▁unexpected	-5449
▁transformed	-5450
unfortunately	-5451
za	-5452
nel	-5453
▁22	-5454
greg	-5455
ille	-5456
▁600	-5457
▁bat	-5458
eless	-5459
▁grad	-5460
▁horm	-5461
▁icon	-5462
▁nurs	-5463
▁outc	-5464
▁tube	-5465
▁barri	-5466
▁dress	-5467
▁expon	-5468
▁higgs	-5469
▁imple	-5470
▁shell	-5471
▁enable	-5472
▁handle	-5473
▁inject	-5474
▁awesome	-5475
▁paralle	-5476
▁scratch	-5477
▁paradigm	-5478
▁swimming	-5479
▁treating	-5480
▁recording	-5481
▁telescope	-5482
▁passionate	-5483
▁underwater	-5484
▁instruments	-5485
▁implications	-5486
▁conversations	-5487
ita	-5488
nes	-5489
ota	-5490
lymp	-5491
uses	-5492
▁250	-5493
▁odd	-5494
about	-5495
▁atom	-5496
▁furn	-5497
▁nose	-5498
▁pink	-5499
herent	-5500
owered	-5501
▁anger	-5502
▁boxes	-5503
▁embed	-5504
▁phase	-5505
▁rooms	-5506
plicity	-5507
ptember	-5508
▁chocol	-5509
▁clinic	-5510
▁colony	-5511
▁deaths	-5512
▁interf	-5513
▁joined	-5514
▁relate	-5515
▁remove	-5516
inations	-5517
▁careful	-5518
▁charles	-5519
▁classes	-5520
▁robotic	-5521
connected	-5522
something	-5523
▁domestic	-5524
▁measured	-5525
▁organism	-5526
▁penguins	-5527
▁christmas	-5528
▁reference	-5529
▁confidence	-5530
▁0	-5531
alu	-5532
onym	-5533
oons	-5534
oses	-5535
▁fib	-5536
▁tab	-5537
eness	-5538
▁2007	-5539
▁acts	-5540
▁cath	-5541
▁cock	-5542
▁flag	-5543
▁pill	-5544
▁root	-5545
▁climb	-5546
▁label	-5547
▁olymp	-5548
eration	-5549
▁deploy	-5550
▁suffer	-5551
▁combine	-5552
▁concert	-5553
▁constit	-5554
▁embrace	-5555
▁offered	-5556
▁overall	-5557
▁equation	-5558
▁provided	-5559
▁centuries	-5560
▁corporate	-5561
▁storytell	-5562
▁educational	-5563
▁q	-5564
uce	-5565
comp	-5566
hour	-5567
kind	-5568
sour	-5569
▁anx	-5570
▁ath	-5571
▁gla	-5572
▁tea	-5573
eries	-5574
▁stor	-5575
ounced	-5576
▁cyber	-5577
▁fixed	-5578
▁paris	-5579
▁steve	-5580
▁style	-5581
▁golden	-5582
▁heroes	-5583
▁legacy	-5584
▁stands	-5585
▁anticip	-5586
▁monkeys	-5587
▁options	-5588
▁unclear	-5589
▁drinking	-5590
▁laughing	-5591
▁romantic	-5592
▁symptoms	-5593
▁identical	-5594
▁statement	-5595
▁wikipedia	-5596
▁greenhouse	-5597
▁rainforest	-5598
▁application	-5599
▁automatically	-5600
aks	-5601
box	-5602
eed	-5603
hol	-5604
war	-5605
▁2.	-5606
rors	-5607
▁twe	-5608
human	-5609
icted	-5610
ounce	-5611
▁axis	-5612
▁golf	-5613
▁lock	-5614
▁colum	-5615
▁obama	-5616
▁polio	-5617
▁assume	-5618
▁fabric	-5619
▁genius	-5620
▁papers	-5621
▁attacks	-5622
▁borders	-5623
▁frankly	-5624
▁michael	-5625
▁mosquit	-5626
▁orchest	-5627
▁sensors	-5628
▁surgeon	-5629
▁distinct	-5630
▁microbes	-5631
▁obsessed	-5632
▁occasion	-5633
▁transfer	-5634
▁arguments	-5635
▁footprint	-5636
▁selection	-5637
▁standards	-5638
▁appreciate	-5639
▁cooperation	-5640
▁entertainment	-5641
nob	-5642
▁27	-5643
▁hi	-5644
etch	-5645
gers	-5646
good	-5647
icit	-5648
iled	-5649
lock	-5650
▁ack	-5651
▁irr	-5652
▁pra	-5653
entic	-5654
going	-5655
▁dign	-5656
▁flor	-5657
▁shar	-5658
phones	-5659
▁agend	-5660
▁angry	-5661
▁cents	-5662
▁datab	-5663
▁judge	-5664
▁shake	-5665
▁toxic	-5666
▁arrest	-5667
▁fright	-5668
▁latest	-5669
▁puzzle	-5670
▁airport	-5671
▁carried	-5672
▁conserv	-5673
▁earthqu	-5674
▁equally	-5675
▁funding	-5676
▁maintain	-5677
▁wherever	-5678
▁component	-5679
▁implement	-5680
▁september	-5681
▁spreading	-5682
▁behavioral	-5683
▁represented	-5684
▁conventional	-5685
bly	-5686
bage	-5687
half	-5688
ogue	-5689
soft	-5690
umin	-5691
▁sed	-5692
itory	-5693
osing	-5694
▁ages	-5695
▁coca	-5696
▁pump	-5697
▁chief	-5698
▁globe	-5699
▁latin	-5700
▁agency	-5701
▁agreed	-5702
▁orange	-5703
▁patent	-5704
▁placed	-5705
chnology	-5706
▁angeles	-5707
▁dancing	-5708
▁feeding	-5709
▁proport	-5710
▁violent	-5711
▁celebrate	-5712
▁curiosity	-5713
▁determine	-5714
▁lifestyle	-5715
▁presented	-5716
▁exhibition	-5717
▁resistance	-5718
▁interactive	-5719
▁)	-5720
ald	-5721
rus	-5722
ctic	-5723
omas	-5724
opia	-5725
rant	-5726
rets	-5727
rous	-5728
walk	-5729
▁gam	-5730
▁jul	-5731
acing	-5732
sters	-5733
▁2009	-5734
▁excl	-5735
▁till	-5736
imeter	-5737
▁enemy	-5738
▁liver	-5739
▁plans	-5740
▁pyram	-5741
▁scary	-5742
▁tight	-5743
▁prices	-5744
▁struck	-5745
▁causing	-5746
▁finance	-5747
▁metabol	-5748
▁painful	-5749
▁parking	-5750
▁privacy	-5751
▁younger	-5752
▁outcomes	-5753
▁overcome	-5754
▁constrain	-5755
▁consumers	-5756
▁disorders	-5757
▁prototype	-5758
▁architects	-5759
▁directions	-5760
▁philosophy	-5761
▁recognition	-5762
asm	-5763
ula	-5764
nday	-5765
otes	-5766
roph	-5767
▁hat	-5768
arant	-5769
▁gray	-5770
▁tack	-5771
arency	-5772
iminal	-5773
rition	-5774
▁congo	-5775
▁dense	-5776
▁dozen	-5777
▁faced	-5778
▁flood	-5779
▁ghana	-5780
▁ignor	-5781
▁silic	-5782
▁smoke	-5783
▁tasks	-5784
▁whale	-5785
▁ladies	-5786
▁owners	-5787
▁pocket	-5788
▁recomm	-5789
▁tested	-5790
▁worker	-5791
etically	-5792
▁divided	-5793
▁fiction	-5794
▁housing	-5795
▁impress	-5796
▁license	-5797
▁poorest	-5798
▁illusion	-5799
▁meetings	-5800
▁policies	-5801
▁suggests	-5802
▁algorithm	-5803
▁breathing	-5804
▁exploring	-5805
▁household	-5806
▁measuring	-5807
▁controlling	-5808
▁distributed	-5809
▁dramatically	-5810
▁interactions	-5811
bar	-5812
iox	-5813
mod	-5814
osh	-5815
ria	-5816
▁du	-5817
mble	-5818
▁bio	-5819
▁gro	-5820
▁meg	-5821
▁mim	-5822
▁1950	-5823
▁alph	-5824
▁mold	-5825
▁aston	-5826
▁bombs	-5827
▁decre	-5828
▁delic	-5829
▁grows	-5830
iveness	-5831
▁filter	-5832
▁geomet	-5833
▁slides	-5834
▁surely	-5835
▁traged	-5836
▁vessels	-5837
▁breaking	-5838
▁concepts	-5839
▁disorder	-5840
▁download	-5841
▁floating	-5842
▁instinct	-5843
▁particle	-5844
▁destroyed	-5845
▁increases	-5846
▁paintings	-5847
▁translate	-5848
sum	-5849
ups	-5850
aint	-5851
aret	-5852
char	-5853
cred	-5854
esis	-5855
gust	-5856
▁1970	-5857
▁2005	-5858
▁cord	-5859
▁elev	-5860
▁firm	-5861
▁prem	-5862
▁tries	-5863
▁yield	-5864
finally	-5865
▁mainly	-5866
▁obstac	-5867
▁phrase	-5868
▁portra	-5869
▁classic	-5870
▁existed	-5871
▁neither	-5872
▁pushing	-5873
▁savings	-5874
▁achieved	-5875
▁chocolate	-5876
▁sculpture	-5877
▁performing	-5878
▁interacting	-5879
agn	-5880
aid	-5881
pal	-5882
tes	-5883
heim	-5884
rary	-5885
esity	-5886
night	-5887
▁neut	-5888
▁ours	-5889
▁pipe	-5890
person	-5891
▁crack	-5892
▁explo	-5893
▁fifth	-5894
▁imper	-5895
▁pharm	-5896
▁remem	-5897
▁sales	-5898
▁walks	-5899
▁extent	-5900
▁hearts	-5901
▁immune	-5902
▁lovely	-5903
▁proced	-5904
▁scream	-5905
▁secure	-5906
▁signed	-5907
▁spoken	-5908
▁sports	-5909
▁sweden	-5910
▁thrown	-5911
▁collaps	-5912
▁density	-5913
▁islamic	-5914
▁stretch	-5915
▁involves	-5916
▁printing	-5917
▁recovery	-5918
ologically	-5919
▁insurance	-5920
▁practices	-5921
▁precisely	-5922
▁uncertain	-5923
▁connecting	-5924
▁fascinated	-5925
▁simplicity	-5926
bg	-5927
ost	-5928
▁36	-5929
hips	-5930
llar	-5931
sing	-5932
▁der	-5933
▁fan	-5934
▁gig	-5935
▁hal	-5936
▁tip	-5937
andon	-5938
iders	-5939
woman	-5940
▁boom	-5941
▁boss	-5942
▁bron	-5943
▁dere	-5944
▁limb	-5945
▁lung	-5946
▁pour	-5947
▁ugly	-5948
called	-5949
▁pilot	-5950
▁teams	-5951
▁titan	-5952
▁50,000	-5953
▁acknow	-5954
▁candid	-5955
▁limits	-5956
▁robert	-5957
▁balloon	-5958
▁council	-5959
▁habitat	-5960
▁prescri	-5961
▁receive	-5962
▁suspect	-5963
▁appeared	-5964
▁engaging	-5965
▁properly	-5966
▁traveled	-5967
▁economies	-5968
▁communications	-5969
itz	-5970
oca	-5971
xas	-5972
yal	-5973
▁26	-5974
lete	-5975
▁cab	-5976
▁lou	-5977
class	-5978
eline	-5979
oking	-5980
▁dict	-5981
▁diox	-5982
▁loop	-5983
▁pace	-5984
▁pand	-5985
▁plot	-5986
before	-5987
profit	-5988
▁accum	-5989
▁nobel	-5990
▁schol	-5991
▁seeds	-5992
▁sheep	-5993
▁toler	-5994
▁tower	-5995
theless	-5996
▁adjust	-5997
▁agenda	-5998
▁behave	-5999
▁elimin	-6000
▁hunger	-6001
▁plenty	-6002
▁breathe	-6003
▁federal	-6004
▁monitor	-6005
▁opposed	-6006
▁pretend	-6007
▁silicon	-6008
▁solving	-6009
▁dolphins	-6010
▁parallel	-6011
▁depending	-6012
▁emergency	-6013
▁furniture	-6014
▁reduction	-6015
▁controvers	-6016
▁strategies	-6017
▁transplant	-6018
▁populations	-6019
▁entrepreneur	-6020
ev	-6021
pox	-6022
sec	-6023
▁rw	-6024
lims	-6025
play	-6026
tery	-6027
udes	-6028
uous	-6029
zees	-6030
▁spr	-6031
cence	-6032
▁appe	-6033
▁bubb	-6034
▁clar	-6035
▁knee	-6036
▁stro	-6037
▁ther	-6038
▁chest	-6039
▁legis	-6040
▁likes	-6041
▁maxim	-6042
▁orbit	-6043
▁paras	-6044
▁persu	-6045
▁reput	-6046
▁usual	-6047
▁wired	-6048
forward	-6049
ishment	-6050
▁assemb	-6051
▁bullet	-6052
▁crying	-6053
▁eradic	-6054
▁ignore	-6055
▁narrow	-6056
▁repair	-6057
▁repeat	-6058
▁dignity	-6059
▁disgust	-6060
▁entered	-6061
▁kingdom	-6062
▁lecture	-6063
▁obesity	-6064
▁whereas	-6065
▁magnetic	-6066
▁psychiat	-6067
▁shoulder	-6068
▁dedicated	-6069
▁permanent	-6070
▁commitment	-6071
▁advertising	-6072
▁personality	-6073
▁productivity	-6074
ek	-6075
iel	-6076
top	-6077
fall	-6078
illy	-6079
osen	-6080
quar	-6081
rect	-6082
vest	-6083
wich	-6084
▁tag	-6085
ingly	-6086
inter	-6087
▁cute	-6088
▁flip	-6089
▁lets	-6090
▁rail	-6091
anzees	-6092
nobody	-6093
▁elder	-6094
▁purch	-6095
▁texas	-6096
raction	-6097
▁chosen	-6098
▁conven	-6099
▁frozen	-6100
▁native	-6101
▁scales	-6102
▁writer	-6103
▁appears	-6104
▁ceiling	-6105
▁dioxide	-6106
▁distant	-6107
▁instant	-6108
▁rebuild	-6109
▁academic	-6110
▁captured	-6111
▁criminal	-6112
▁imagined	-6113
▁shooting	-6114
▁stations	-6115
▁vertical	-6116
▁backwards	-6117
▁encounter	-6118
▁recognized	-6119
▁disappeared	-6120
▁manufacture	-6121
▁transparency	-6122
azz	-6123
happ	-6124
lson	-6125
▁aim	-6126
▁sar	-6127
angle	-6128
▁bull	-6129
▁emph	-6130
▁june	-6131
▁mall	-6132
▁quad	-6133
▁rose	-6134
▁aside	-6135
▁gates	-6136
▁glaci	-6137
▁haiti	-6138
▁stere	-6139
▁units	-6140
▁wings	-6141
anthrop	-6142
erences	-6143
looking	-6144
▁20,000	-6145
▁escape	-6146
▁neuron	-6147
▁rating	-6148
▁rising	-6149
▁scenar	-6150
▁talent	-6151
▁trends	-6152
▁weapon	-6153
remember	-6154
▁abandon	-6155
▁guarant	-6156
▁initial	-6157
▁millenn	-6158
▁section	-6159
▁spectac	-6160
▁suicide	-6161
▁unbelie	-6162
▁wanting	-6163
▁africans	-6164
▁attached	-6165
▁district	-6166
▁estimate	-6167
▁organize	-6168
▁reaching	-6169
▁animation	-6170
▁conflicts	-6171
▁continues	-6172
▁expectations	-6173
era	-6174
hop	-6175
vey	-6176
anny	-6177
ault	-6178
ulse	-6179
▁wed	-6180
▁wet	-6181
▁ethi	-6182
▁glad	-6183
▁nets	-6184
▁trop	-6185
abetes	-6186
▁adopt	-6187
▁alien	-6188
▁blank	-6189
▁dirty	-6190
▁evalu	-6191
▁route	-6192
▁skull	-6193
uration	-6194
▁execut	-6195
▁farmer	-6196
▁hardly	-6197
▁heaven	-6198
▁shadow	-6199
▁chapter	-6200
▁charity	-6201
▁fortune	-6202
▁muscles	-6203
▁mystery	-6204
▁touched	-6205
▁welcome	-6206
▁embedded	-6207
▁symmetry	-6208
▁authentic	-6209
▁committed	-6210
▁microsoft	-6211
▁incentives	-6212
▁inequality	-6213
▁microscope	-6214
▁motivation	-6215
sm	-6216
gun	-6217
lyn	-6218
org	-6219
ardo	-6220
case	-6221
▁ate	-6222
▁cod	-6223
▁enh	-6224
▁lux	-6225
▁nit	-6226
agger	-6227
allow	-6228
ckets	-6229
▁beer	-6230
▁cham	-6231
▁toys	-6232
father	-6233
market	-6234
▁actor	-6235
▁angle	-6236
▁bible	-6237
▁champ	-6238
▁guard	-6239
▁laser	-6240
▁males	-6241
▁vital	-6242
▁wound	-6243
▁expans	-6244
▁facial	-6245
▁intent	-6246
▁palest	-6247
▁paraly	-6248
▁delight	-6249
▁mammals	-6250
▁raising	-6251
▁aircraft	-6252
▁dynamics	-6253
▁football	-6254
▁laughter	-6255
▁produces	-6256
▁colleague	-6257
▁customers	-6258
▁generated	-6259
▁intention	-6260
▁uncomfort	-6261
▁apparently	-6262
▁collecting	-6263
▁dictionary	-6264
▁functional	-6265
▁transparent	-6266
oe	-6267
wa	-6268
ata	-6269
bra	-6270
edy	-6271
uff	-6272
▁32	-6273
▁65	-6274
▁rh	-6275
▁hem	-6276
▁obl	-6277
▁sin	-6278
iform	-6279
women	-6280
▁fulf	-6281
▁gram	-6282
▁leap	-6283
▁pupp	-6284
▁rice	-6285
▁sacr	-6286
▁seek	-6287
▁soap	-6288
lessly	-6289
▁abuse	-6290
▁finds	-6291
▁links	-6292
▁lions	-6293
▁meter	-6294
▁roots	-6295
▁ultra	-6296
▁utter	-6297
▁youth	-6298
century	-6299
▁attend	-6300
▁commod	-6301
▁devast	-6302
▁missed	-6303
▁poison	-6304
▁powers	-6305
▁retire	-6306
▁aspects	-6307
▁bicycle	-6308
▁designs	-6309
▁muslims	-6310
▁tedtalk	-6311
▁darkness	-6312
▁lighting	-6313
▁sandwich	-6314
▁searching	-6315
▁virtually	-6316
▁boundaries	-6317
▁capitalism	-6318
▁earthquake	-6319
▁engagement	-6320
▁innovations	-6321
▁underground	-6322
▁neuroscience	-6323
-1	-6324
ba	-6325
aws	-6326
che	-6327
ida	-6328
oes	-6329
▁aes	-6330
▁uns	-6331
▁bars	-6332
▁dust	-6333
▁hire	-6334
▁mate	-6335
▁rely	-6336
parent	-6337
▁crops	-6338
▁drill	-6339
▁fruit	-6340
▁genoc	-6341
▁manif	-6342
▁upset	-6343
▁actors	-6344
▁borrow	-6345
▁hungry	-6346
▁margin	-6347
▁oldest	-6348
▁uganda	-6349
▁diverse	-6350
▁efforts	-6351
▁methods	-6352
▁origami	-6353
▁reconst	-6354
▁speaker	-6355
▁diabetes	-6356
▁stanford	-6357
▁copyright	-6358
▁elsewhere	-6359
▁privilege	-6360
▁separated	-6361
▁accessible	-6362
▁contribute	-6363
▁governance	-6364
▁historical	-6365
▁photography	-6366
▁universities	-6367
opy	-6368
erge	-6369
icop	-6370
iday	-6371
ione	-6372
lies	-6373
olit	-6374
viet	-6375
zero	-6376
▁120	-6377
▁boo	-6378
▁ink	-6379
cling	-6380
inate	-6381
inder	-6382
▁adam	-6383
▁cens	-6384
▁chip	-6385
▁mary	-6386
▁mice	-6387
dollar	-6388
makers	-6389
▁abund	-6390
▁chaos	-6391
▁drove	-6392
▁guide	-6393
▁tears	-6394
▁traum	-6395
▁veter	-6396
ughters	-6397
▁arabic	-6398
▁barely	-6399
▁catast	-6400
▁fertil	-6401
▁observ	-6402
▁cheaper	-6403
▁concern	-6404
▁consult	-6405
▁exposed	-6406
▁granted	-6407
▁january	-6408
▁pointed	-6409
▁pyramid	-6410
▁traject	-6411
▁accepted	-6412
▁provides	-6413
▁surfaces	-6414
▁recommend	-6415
▁afterwards	-6416
▁commission	-6417
▁operations	-6418
▁optimistic	-6419
▁electronics	-6420
▁uncomfortable	-6421
pa	-6422
ua	-6423
add	-6424
vin	-6425
fast	-6426
ocal	-6427
▁eve	-6428
▁wol	-6429
amine	-6430
archy	-6431
▁dear	-6432
▁peer	-6433
▁rede	-6434
▁minor	-6435
▁plays	-6436
▁revol	-6437
▁rocks	-6438
▁tribe	-6439
▁satisf	-6440
▁smooth	-6441
▁stable	-6442
▁amongst	-6443
▁circles	-6444
▁diagram	-6445
▁herself	-6446
▁inspire	-6447
▁removed	-6448
▁tragedy	-6449
▁external	-6450
▁hardware	-6451
▁apartment	-6452
▁dependent	-6453
▁depressed	-6454
▁elections	-6455
▁intuitive	-6456
▁variation	-6457
▁affordable	-6458
▁journalist	-6459
▁resolution	-6460
▁volunteers	-6461
▁chimpanzees	-6462
bru	-6463
gic	-6464
ixt	-6465
▁28	-6466
▁nu	-6467
elly	-6468
iety	-6469
list	-6470
rian	-6471
thus	-6472
▁ash	-6473
▁bos	-6474
▁hub	-6475
▁jes	-6476
▁wid	-6477
▁2004	-6478
▁2006	-6479
▁beet	-6480
▁hier	-6481
▁pile	-6482
▁viet	-6483
▁wing	-6484
usions	-6485
▁audio	-6486
▁banks	-6487
▁blame	-6488
▁cliff	-6489
▁cryst	-6490
▁fiber	-6491
▁opens	-6492
▁recru	-6493
▁spell	-6494
▁stops	-6495
▁subur	-6496
▁thumb	-6497
▁tired	-6498
▁yours	-6499
iminals	-6500
whether	-6501
▁adding	-6502
▁emphas	-6503
▁evolve	-6504
▁invite	-6505
▁rescue	-6506
▁silent	-6507
▁tribes	-6508
▁implant	-6509
▁letting	-6510
▁equality	-6511
▁pregnant	-6512
▁returned	-6513
▁speakers	-6514
▁textbook	-6515
▁calculate	-6516
▁agricultural	-6517
har	-6518
ener	-6519
ubes	-6520
▁aer	-6521
▁nic	-6522
▁biod	-6523
▁caps	-6524
▁manh	-6525
ivered	-6526
number	-6527
please	-6528
rating	-6529
source	-6530
▁balls	-6531
▁conce	-6532
▁depth	-6533
▁fluid	-6534
▁naked	-6535
▁pione	-6536
▁realm	-6537
▁reefs	-6538
▁spots	-6539
illance	-6540
▁locked	-6541
▁settle	-6542
▁soviet	-6543
▁thomas	-6544
▁beliefs	-6545
▁clients	-6546
▁disrupt	-6547
▁essence	-6548
▁vietnam	-6549
▁atlantic	-6550
▁attribut	-6551
▁dominant	-6552
▁includes	-6553
▁smallpox	-6554
▁theories	-6555
▁musicians	-6556
▁ecosystems	-6557
▁integrated	-6558
▁protecting	-6559
▁consequence	-6560
▁demonstrate	-6561
▁intervention	-6562
▁participants	-6563
bby	-6564
cor	-6565
ket	-6566
llo	-6567
nat	-6568
pled	-6569
alian	-6570
ested	-6571
tocin	-6572
▁bias	-6573
▁earn	-6574
▁laid	-6575
▁lone	-6576
▁burst	-6577
▁coach	-6578
▁drawn	-6579
▁jelly	-6580
▁nutri	-6581
▁seats	-6582
▁sheet	-6583
▁skept	-6584
▁views	-6585
▁arctic	-6586
▁branch	-6587
▁distur	-6588
▁emerge	-6589
▁layers	-6590
▁output	-6591
▁oxford	-6592
▁stages	-6593
▁automob	-6594
▁bubbles	-6595
▁compell	-6596
▁hanging	-6597
▁helicop	-6598
▁agencies	-6599
▁globally	-6600
▁accidents	-6601
▁announced	-6602
▁objective	-6603
▁geographic	-6604
▁reputation	-6605
▁ridiculous	-6606
▁probability	-6607
▁experimental	-6608
▁globalization	-6609
ela	-6610
ola	-6611
rid	-6612
rix	-6613
onic	-6614
turn	-6615
west	-6616
wing	-6617
▁700	-6618
▁doz	-6619
▁gon	-6620
attan	-6621
enger	-6622
eters	-6623
ontal	-6624
opard	-6625
orter	-6626
▁gand	-6627
▁neat	-6628
▁stom	-6629
apping	-6630
friend	-6631
▁craft	-6632
▁digit	-6633
▁legit	-6634
▁relax	-6635
onymous	-6636
parents	-6637
▁jewish	-6638
▁poster	-6639
▁robust	-6640
▁sticks	-6641
▁stores	-6642
▁tricks	-6643
▁volcan	-6644
▁waters	-6645
▁anthrop	-6646
▁briefly	-6647
▁comprom	-6648
▁consume	-6649
▁ethical	-6650
▁florida	-6651
▁happier	-6652
▁picking	-6653
▁prosper	-6654
▁reduced	-6655
▁symbols	-6656
▁visited	-6657
▁crossing	-6658
▁facility	-6659
▁unlikely	-6660
▁abilities	-6661
▁daughters	-6662
▁terrorists	-6663
▁neighborhoods	-6664
bf	-6665
cap	-6666
▁95	-6667
▁ub	-6668
fold	-6669
grad	-6670
made	-6671
narr	-6672
oids	-6673
▁alb	-6674
▁som	-6675
▁spa	-6676
capes	-6677
ribly	-6678
▁jeff	-6679
▁rent	-6680
▁tech	-6681
▁wise	-6682
bridge	-6683
▁chrom	-6684
▁disag	-6685
▁foods	-6686
▁italy	-6687
▁proof	-6688
▁capita	-6689
▁cheese	-6690
▁landed	-6691
▁panels	-6692
▁senior	-6693
▁spinal	-6694
▁theore	-6695
▁trucks	-6696
▁liberal	-6697
▁pulling	-6698
▁recover	-6699
▁selfish	-6700
▁sensory	-6701
▁artistic	-6702
▁conclude	-6703
▁controls	-6704
▁incident	-6705
▁isolated	-6706
▁reminded	-6707
▁delivered	-6708
▁frequency	-6709
▁inspiring	-6710
▁physicist	-6711
▁predicted	-6712
▁autonomous	-6713
▁capability	-6714
▁determined	-6715
▁industries	-6716
▁mechanisms	-6717
▁discoveries	-6718
▁improvement	-6719
▁observation	-6720
▁spectacular	-6721
▁photographer	-6722
▁surveillance	-6723
hr	-6724
asy	-6725
boy	-6726
gos	-6727
ura	-6728
▁ba	-6729
▁ol	-6730
▁ts	-6731
bits	-6732
izar	-6733
osal	-6734
▁10-	-6735
▁195	-6736
▁hip	-6737
cohol	-6738
osure	-6739
rogen	-6740
ville	-6741
▁adap	-6742
▁clay	-6743
▁cott	-6744
▁debt	-6745
▁quit	-6746
▁sulf	-6747
▁tied	-6748
▁vacu	-6749
engine	-6750
erable	-6751
erving	-6752
▁arrow	-6753
▁crick	-6754
▁devil	-6755
▁flour	-6756
▁fuels	-6757
▁storm	-6758
unction	-6759
▁adoles	-6760
▁corals	-6761
▁rarely	-6762
▁sacred	-6763
▁transm	-6764
▁crucial	-6765
▁impacts	-6766
▁painted	-6767
▁passing	-6768
▁session	-6769
▁contains	-6770
▁repeated	-6771
▁reported	-6772
▁dimension	-6773
▁forgotten	-6774
▁hollywood	-6775
▁manhattan	-6776
▁strangers	-6777
▁identified	-6778
▁resilience	-6779
▁satellites	-6780
▁suggesting	-6781
▁breakthrough	-6782
▁characteristics	-6783
oir	-6784
ste	-6785
apor	-6786
girl	-6787
iban	-6788
ulum	-6789
will	-6790
▁ceo	-6791
▁dow	-6792
▁ray	-6793
level	-6794
riger	-6795
tical	-6796
▁2001	-6797
▁acid	-6798
▁chim	-6799
▁tong	-6800
▁carol	-6801
▁chron	-6802
▁exped	-6803
▁joint	-6804
▁nucle	-6805
▁punch	-6806
▁reson	-6807
▁stunt	-6808
nothing	-6809
▁curren	-6810
▁dozens	-6811
▁linear	-6812
▁partly	-6813
▁rwanda	-6814
▁shaped	-6815
▁simult	-6816
▁vacuum	-6817
▁alcohol	-6818
▁enterpr	-6819
▁reports	-6820
▁revenue	-6821
▁writers	-6822
▁attitude	-6823
▁figuring	-6824
▁focusing	-6825
▁manifest	-6826
▁neurolog	-6827
▁oxytocin	-6828
▁proposed	-6829
▁refriger	-6830
▁cambridge	-6831
▁elephants	-6832
▁excellent	-6833
▁expanding	-6834
▁ignorance	-6835
▁sentences	-6836
▁synthetic	-6837
▁teenagers	-6838
▁disappoint	-6839
▁translated	-6840
▁astonishing	-6841
▁grandfather	-6842
▁ingredients	-6843
▁philanthrop	-6844
▁biodiversity	-6845
▁grandchildren	-6846
lad	-6847
▁0.	-6848
born	-6849
ober	-6850
pers	-6851
step	-6852
bered	-6853
inson	-6854
liest	-6855
▁cats	-6856
▁frog	-6857
▁hipp	-6858
▁mail	-6859
▁prev	-6860
heimer	-6861
indeed	-6862
izarre	-6863
▁cable	-6864
▁flows	-6865
▁nerve	-6866
▁opera	-6867
▁panel	-6868
▁sharp	-6869
▁silly	-6870
▁smith	-6871
▁spark	-6872
▁threw	-6873
▁trash	-6874
igation	-6875
▁caring	-6876
▁chairs	-6877
▁curric	-6878
▁domain	-6879
▁inches	-6880
▁intrig	-6881
▁needle	-6882
▁nurses	-6883
▁served	-6884
▁thresh	-6885
everyone	-6886
▁emerged	-6887
▁imagery	-6888
▁parties	-6889
▁persist	-6890
▁russian	-6891
▁shelter	-6892
▁climbing	-6893
▁colonies	-6894
▁database	-6895
▁dialogue	-6896
▁dinosaur	-6897
▁extended	-6898
▁genocide	-6899
▁completed	-6900
▁economist	-6901
▁expansion	-6902
▁gathering	-6903
▁positions	-6904
▁suggested	-6905
▁expectancy	-6906
▁originally	-6907
▁struggling	-6908
▁underlying	-6909
▁constructed	-6910
▁predictions	-6911
▁programming	-6912
▁translation	-6913
▁instructions	-6914
▁vulnerability	-6915
aze	-6916
ecd	-6917
agon	-6918
agos	-6919
atom	-6920
ilit	-6921
rill	-6922
▁jim	-6923
▁lun	-6924
▁ooh	-6925
asses	-6926
itous	-6927
▁2003	-6928
▁brut	-6929
▁cert	-6930
▁duck	-6931
▁fool	-6932
▁mode	-6933
▁palm	-6934
▁plug	-6935
▁sits	-6936
▁soup	-6937
bruary	-6938
comput	-6939
▁antar	-6940
▁fract	-6941
▁holds	-6942
▁schiz	-6943
▁tooth	-6944
attered	-6945
▁buried	-6946
▁degrad	-6947
▁ethnic	-6948
▁garage	-6949
▁injury	-6950
▁perpet	-6951
▁phosph	-6952
▁regime	-6953
▁regret	-6954
▁richer	-6955
▁shrimp	-6956
▁tumors	-6957
▁citizen	-6958
▁convert	-6959
▁dolphin	-6960
▁sisters	-6961
▁soldier	-6962
▁answered	-6963
▁ethiopia	-6964
▁fabulous	-6965
▁flexible	-6966
▁inherent	-6967
▁sleeping	-6968
▁fortunate	-6969
▁immediate	-6970
▁attractive	-6971
▁photographed	-6972
▁collaborative	-6973
▁administration	-6974
▁representation	-6975
ari	-6976
dis	-6977
iac	-6978
ras	-6979
▁gy	-6980
asse	-6981
free	-6982
grow	-6983
icks	-6984
izer	-6985
none	-6986
oran	-6987
road	-6988
utes	-6989
▁bin	-6990
▁lit	-6991
▁tut	-6992
▁wra	-6993
cking	-6994
cular	-6995
maker	-6996
rical	-6997
▁dive	-6998
▁eleg	-6999
▁radi	-7000
▁salt	-7001
▁sink	-7002
itudes	-7003
soever	-7004
▁4,000	-7005
▁bears	-7006
▁derek	-7007
▁dutch	-7008
▁monit	-7009
▁willi	-7010
related	-7011
▁arrive	-7012
▁county	-7013
▁dragon	-7014
▁matrix	-7015
▁subtle	-7016
american	-7017
▁aggress	-7018
▁analyze	-7019
▁bizarre	-7020
▁chromos	-7021
▁diamond	-7022
▁drivers	-7023
▁october	-7024
▁smarter	-7025
▁smoking	-7026
▁taliban	-7027
▁cartoons	-7028
▁educated	-7029
▁innocent	-7030
▁keyboard	-7031
▁measures	-7032
▁restrict	-7033
▁robotics	-7034
▁shopping	-7035
▁skeleton	-7036
▁stranger	-7037
▁exception	-7038
▁highlight	-7039
▁supported	-7040
▁biologists	-7041
▁difficulty	-7042
▁hypothesis	-7043
▁inevitable	-7044
▁proportion	-7045
▁whatsoever	-7046
▁unbelievable	-7047
gi	-7048
pm	-7049
vy	-7050
rol	-7051
sey	-7052
six	-7053
emen	-7054
iens	-7055
rome	-7056
urse	-7057
viol	-7058
yard	-7059
▁800	-7060
▁sav	-7061
▁upd	-7062
ading	-7063
anned	-7064
cript	-7065
eight	-7066
igned	-7067
thusi	-7068
▁grat	-7069
▁hind	-7070
▁kiss	-7071
▁tent	-7072
▁tone	-7073
▁tort	-7074
ancing	-7075
icious	-7076
▁begun	-7077
▁edges	-7078
▁peter	-7079
obvious	-7080
zheimer	-7081
▁bother	-7082
▁compos	-7083
▁fought	-7084
▁killer	-7085
▁merely	-7086
▁neural	-7087
▁reveal	-7088
▁vagina	-7089
▁charges	-7090
▁deliber	-7091
▁garbage	-7092
▁graphic	-7093
▁miracle	-7094
▁warning	-7095
▁category	-7096
▁leverage	-7097
▁schizoph	-7098
▁wildlife	-7099
▁confident	-7100
▁documents	-7101
▁radically	-7102
▁explaining	-7103
▁trajectory	-7104
▁uncertainty	-7105
▁contemporary	-7106
▁successfully	-7107
▁interestingly	-7108
udi	-7109
▁85	-7110
ania	-7111
erer	-7112
long	-7113
▁sel	-7114
chron	-7115
happy	-7116
▁bond	-7117
▁homo	-7118
▁lamp	-7119
▁leaf	-7120
▁neck	-7121
▁summ	-7122
employ	-7123
esthes	-7124
▁array	-7125
▁gotta	-7126
▁hello	-7127
▁mixed	-7128
▁nurse	-7129
▁plain	-7130
▁ships	-7131
▁sixth	-7132
▁wider	-7133
athered	-7134
otherap	-7135
▁assess	-7136
▁breaks	-7137
▁lawyer	-7138
▁martin	-7139
▁mining	-7140
▁orient	-7141
▁pursue	-7142
▁pushed	-7143
▁recess	-7144
▁saturn	-7145
▁scores	-7146
fficient	-7147
▁anxiety	-7148
▁elderly	-7149
▁failing	-7150
▁founded	-7151
▁helpful	-7152
▁hitting	-7153
▁hunting	-7154
▁involve	-7155
▁leather	-7156
▁statist	-7157
▁targets	-7158
▁articles	-7159
▁choosing	-7160
▁informed	-7161
▁openness	-7162
▁perceive	-7163
▁sciences	-7164
▁christian	-7165
▁gradually	-7166
▁primarily	-7167
▁curriculum	-7168
▁mysterious	-7169
▁permission	-7170
▁simulation	-7171
▁treatments	-7172
▁description	-7173
▁capabilities	-7174
▁architectural	-7175
▁institutional	-7176
dam	-7177
erd	-7178
ora	-7179
pat	-7180
tra	-7181
ache	-7182
aran	-7183
conf	-7184
orus	-7185
real	-7186
uity	-7187
vide	-7188
▁191	-7189
▁ain	-7190
▁bol	-7191
▁dop	-7192
flies	-7193
iment	-7194
otion	-7195
oying	-7196
worth	-7197
▁bure	-7198
▁chop	-7199
▁diss	-7200
▁meal	-7201
▁mood	-7202
▁nurt	-7203
▁pigs	-7204
▁tear	-7205
▁tuna	-7206
mingly	-7207
omeday	-7208
▁advoc	-7209
▁agent	-7210
▁owned	-7211
▁owner	-7212
▁spont	-7213
▁tempt	-7214
▁uncle	-7215
▁decent	-7216
▁ending	-7217
▁ensure	-7218
▁insist	-7219
▁rhythm	-7220
narrator	-7221
▁besides	-7222
▁distort	-7223
▁enables	-7224
▁enthusi	-7225
▁fragile	-7226
▁imaging	-7227
▁immense	-7228
▁promote	-7229
▁threats	-7230
▁february	-7231
▁homework	-7232
▁throwing	-7233
▁adventure	-7234
▁alzheimer	-7235
▁intuition	-7236
▁magnitude	-7237
▁nutrition	-7238
▁traditions	-7239
▁surprisingly	-7240
▁participation	-7241
fi	-7242
bab	-7243
bus	-7244
lar	-7245
▁33	-7246
,500	-7247
aker	-7248
ifer	-7249
ship	-7250
▁awk	-7251
copes	-7252
emics	-7253
iogen	-7254
umble	-7255
world	-7256
▁bats	-7257
▁bend	-7258
▁craw	-7259
▁dumb	-7260
▁dung	-7261
▁gods	-7262
▁gore	-7263
▁holy	-7264
▁odds	-7265
▁orph	-7266
▁rats	-7267
▁tsun	-7268
▁award	-7269
▁bronx	-7270
▁parli	-7271
▁phant	-7272
▁physi	-7273
▁shore	-7274
▁twist	-7275
▁weeke	-7276
▁addict	-7277
▁convey	-7278
▁defend	-7279
▁empire	-7280
▁rivers	-7281
▁sensor	-7282
▁subway	-7283
▁turkey	-7284
▁awkward	-7285
▁fastest	-7286
▁highway	-7287
▁lawyers	-7288
▁officer	-7289
▁wheelch	-7290
▁baseball	-7291
▁channels	-7292
▁clothing	-7293
▁distingu	-7294
▁scholars	-7295
▁conducted	-7296
▁extension	-7297
▁factories	-7298
▁glamorous	-7299
▁orchestra	-7300
▁primitive	-7301
▁replicate	-7302
▁terrorist	-7303
▁transcend	-7304
▁initiative	-7305
▁demographic	-7306
▁schizophren	-7307
▁demonstration	-7308
kb	-7309
dig	-7310
och	-7311
ocr	-7312
pre	-7313
sah	-7314
▁3.	-7315
▁tu	-7316
agen	-7317
mill	-7318
oded	-7319
wind	-7320
▁lap	-7321
▁pad	-7322
▁ros	-7323
adays	-7324
field	-7325
iance	-7326
ifice	-7327
stone	-7328
video	-7329
▁cous	-7330
▁gaps	-7331
▁gate	-7332
▁labs	-7333
▁susp	-7334
▁whis	-7335
mental	-7336
rained	-7337
should	-7338
utical	-7339
▁bored	-7340
▁civic	-7341
▁doors	-7342
▁grace	-7343
▁jesus	-7344
▁outer	-7345
▁pride	-7346
▁proto	-7347
▁schem	-7348
▁spray	-7349
▁squee	-7350
▁stake	-7351
angible	-7352
▁30,000	-7353
▁canopy	-7354
▁drones	-7355
▁funded	-7356
▁improv	-7357
▁victim	-7358
otherapy	-7359
▁affects	-7360
▁arrange	-7361
▁bottles	-7362
▁closing	-7363
▁forming	-7364
▁magical	-7365
▁methane	-7366
▁observe	-7367
▁portion	-7368
▁prepare	-7369
▁protest	-7370
▁restore	-7371
▁rolling	-7372
▁slavery	-7373
ustration	-7374
▁confused	-7375
▁entering	-7376
▁homeless	-7377
▁included	-7378
▁invested	-7379
▁judgment	-7380
▁optimism	-7381
▁expecting	-7382
▁paralyzed	-7383
▁realizing	-7384
▁strategic	-7385
▁profoundly	-7386
▁exponential	-7387
▁experiencing	-7388
bid	-7389
fif	-7390
gal	-7391
ares	-7392
cost	-7393
kins	-7394
racy	-7395
▁cig	-7396
▁fer	-7397
▁gri	-7398
▁hen	-7399
▁jar	-7400
▁jet	-7401
▁tie	-7402
oples	-7403
stage	-7404
▁acou	-7405
▁buff	-7406
▁crew	-7407
▁dies	-7408
▁shit	-7409
▁triv	-7410
▁urge	-7411
iences	-7412
nostic	-7413
theast	-7414
urable	-7415
▁altru	-7416
▁blogs	-7417
▁crush	-7418
▁drone	-7419
▁indig	-7420
▁kills	-7421
▁shout	-7422
▁slime	-7423
▁spain	-7424
▁steal	-7425
▁ubiqu	-7426
section	-7427
▁excuse	-7428
▁headed	-7429
▁occurs	-7430
▁recept	-7431
▁ticket	-7432
▁tomato	-7433
▁widely	-7434
▁demands	-7435
▁enlight	-7436
▁indians	-7437
▁peoples	-7438
▁routine	-7439
▁shocked	-7440
▁staying	-7441
▁trigger	-7442
aceutical	-7443
▁december	-7444
▁detailed	-7445
▁dopamine	-7446
▁drawings	-7447
▁fraction	-7448
▁friendly	-7449
▁graphics	-7450
▁remained	-7451
▁shipping	-7452
▁suffered	-7453
▁tendency	-7454
▁airplanes	-7455
▁broadcast	-7456
▁explosion	-7457
▁nutrients	-7458
▁qualities	-7459
▁remaining	-7460
▁comparison	-7461
▁facilities	-7462
▁influenced	-7463
▁parliament	-7464
▁supporting	-7465
▁assumptions	-7466
▁computation	-7467
▁conservative	-7468
aa	-7469
hh	-7470
eda	-7471
mun	-7472
▁kh	-7473
aded	-7474
angh	-7475
ilem	-7476
plus	-7477
▁bob	-7478
▁loo	-7479
aving	-7480
opath	-7481
owing	-7482
produ	-7483
▁butt	-7484
▁dawn	-7485
▁guns	-7486
▁irre	-7487
▁rick	-7488
▁toss	-7489
▁woke	-7490
active	-7491
aneous	-7492
encing	-7493
iotics	-7494
minute	-7495
within	-7496
▁dilem	-7497
▁farms	-7498
▁lifes	-7499
▁mayor	-7500
▁sauce	-7501
▁saudi	-7502
▁winds	-7503
▁aggreg	-7504
▁burden	-7505
▁entrop	-7506
▁formal	-7507
▁halluc	-7508
▁tackle	-7509
▁tongue	-7510
▁tunnel	-7511
▁upside	-7512
orescent	-7513
▁adopted	-7514
▁analogy	-7515
▁contrad	-7516
▁elected	-7517
▁engines	-7518
▁paradox	-7519
▁phantom	-7520
▁regener	-7521
▁rituals	-7522
▁serving	-7523
▁suspend	-7524
obviously	-7525
▁arrested	-7526
▁earliest	-7527
▁explains	-7528
▁genetics	-7529
▁pandemic	-7530
▁pointing	-7531
▁preserve	-7532
▁refugees	-7533
▁synchron	-7534
▁gentleman	-7535
▁obstacles	-7536
▁threshold	-7537
▁compelling	-7538
▁ecological	-7539
▁remembered	-7540
▁authorities	-7541
▁genetically	-7542
mt	-7543
200	-7544
enh	-7545
abil	-7546
ails	-7547
norm	-7548
quis	-7549
xual	-7550
▁aqu	-7551
▁dys	-7552
▁jih	-7553
▁nin	-7554
▁piz	-7555
▁rio	-7556
▁sna	-7557
▁tes	-7558
aming	-7559
athan	-7560
elect	-7561
lings	-7562
otted	-7563
voice	-7564
▁beij	-7565
▁damn	-7566
▁file	-7567
▁hors	-7568
▁ipod	-7569
▁keys	-7570
▁lean	-7571
▁leon	-7572
▁suck	-7573
astics	-7574
inated	-7575
▁armed	-7576
▁fault	-7577
▁gonna	-7578
▁marry	-7579
▁ratio	-7580
▁shelf	-7581
▁tends	-7582
inarily	-7583
saharan	-7584
whereas	-7585
▁athlet	-7586
▁august	-7587
▁preval	-7588
▁rubber	-7589
▁shrink	-7590
▁silver	-7591
▁stones	-7592
▁strike	-7593
▁tracks	-7594
▁trains	-7595
▁unable	-7596
controll	-7597
▁chances	-7598
▁flowing	-7599
▁gallery	-7600
▁italian	-7601
▁located	-7602
▁percept	-7603
▁printer	-7604
▁profile	-7605
▁spanish	-7606
▁tissues	-7607
▁wealthy	-7608
▁comments	-7609
▁counting	-7610
▁covering	-7611
▁morality	-7612
▁musician	-7613
▁reinvent	-7614
▁strongly	-7615
▁substant	-7616
▁classical	-7617
▁detection	-7618
▁diagnosed	-7619
▁improving	-7620
▁mechanics	-7621
▁additional	-7622
▁categories	-7623
▁consistent	-7624
▁continuing	-7625
▁impression	-7626
▁significantly	-7627
▁simultaneously	-7628
▁straightforward	-7629
rb	-7630
acc	-7631
exp	-7632
was	-7633
▁29	-7634
▁eu	-7635
both	-7636
fram	-7637
next	-7638
onge	-7639
umes	-7640
▁bug	-7641
▁dub	-7642
▁fir	-7643
▁fox	-7644
▁nom	-7645
▁vel	-7646
anzee	-7647
attoo	-7648
burgh	-7649
creat	-7650
gence	-7651
haust	-7652
never	-7653
riend	-7654
▁athe	-7655
▁cake	-7656
▁cows	-7657
▁dump	-7658
▁ford	-7659
▁gear	-7660
▁indo	-7661
▁subt	-7662
▁synd	-7663
▁tanz	-7664
▁zeal	-7665
ashing	-7666
▁brook	-7667
▁camps	-7668
▁divor	-7669
▁downt	-7670
▁greek	-7671
▁herit	-7672
▁incor	-7673
▁intim	-7674
▁items	-7675
▁jihad	-7676
▁pause	-7677
▁rehab	-7678
▁scott	-7679
▁viral	-7680
▁wires	-7681
angered	-7682
ounding	-7683
▁burned	-7684
▁combat	-7685
▁cosmic	-7686
▁cotton	-7687
▁freely	-7688
▁metric	-7689
▁potato	-7690
▁stored	-7691
although	-7692
changing	-7693
quarters	-7694
▁200,000	-7695
▁barrier	-7696
▁beneath	-7697
▁courses	-7698
▁neander	-7699
▁profits	-7700
▁reminds	-7701
▁winning	-7702
▁connects	-7703
▁currency	-7704
▁distract	-7705
▁gathered	-7706
▁interior	-7707
▁scenario	-7708
▁shifting	-7709
▁smallest	-7710
▁unemploy	-7711
▁distances	-7712
▁expertise	-7713
▁infection	-7714
▁investing	-7715
▁investors	-7716
▁passenger	-7717
▁stability	-7718
▁workforce	-7719
▁appearance	-7720
▁approaches	-7721
▁classrooms	-7722
▁frustrated	-7723
▁impressive	-7724
▁prediction	-7725
▁established	-7726
▁restaurants	-7727
▁corporations	-7728
▁professionals	-7729
▁interpretation	-7730
▁pharmaceutical	-7731
sk	-7732
ani	-7733
ctu	-7734
ini	-7735
isy	-7736
▁dy	-7737
▁ib	-7738
▁ye	-7739
atar	-7740
cled	-7741
coln	-7742
▁fbi	-7743
▁sew	-7744
▁vit	-7745
chool	-7746
clock	-7747
copic	-7748
ctica	-7749
ician	-7750
▁cree	-7751
▁deck	-7752
▁fits	-7753
really	-7754
umines	-7755
▁arist	-7756
▁bucks	-7757
▁excit	-7758
▁fancy	-7759
▁grasp	-7760
▁hired	-7761
▁inhab	-7762
▁loves	-7763
▁maker	-7764
▁membr	-7765
▁memes	-7766
▁numer	-7767
▁patch	-7768
▁shirt	-7769
▁shots	-7770
▁wheat	-7771
similar	-7772
▁client	-7773
▁column	-7774
▁gained	-7775
▁jumped	-7776
▁lowest	-7777
▁manual	-7778
▁motors	-7779
▁norway	-7780
▁pollut	-7781
▁sketch	-7782
▁speaks	-7783
▁static	-7784
andering	-7785
esthesia	-7786
secondly	-7787
together	-7788
▁beating	-7789
▁deserve	-7790
▁someday	-7791
▁stomach	-7792
▁storage	-7793
▁accounts	-7794
▁believes	-7795
▁improved	-7796
▁interven	-7797
▁magnific	-7798
▁purposes	-7799
▁reducing	-7800
▁socially	-7801
▁survived	-7802
▁teenager	-7803
▁terribly	-7804
▁addiction	-7805
▁cooperate	-7806
▁healthier	-7807
▁incentive	-7808
▁instantly	-7809
▁ownership	-7810
▁phenomena	-7811
▁physician	-7812
▁prisoners	-7813
▁procedure	-7814
▁temporary	-7815
▁aggressive	-7816
▁chimpanzee	-7817
▁encouraged	-7818
▁endangered	-7819
▁phosphorus	-7820
▁threatened	-7821
▁vegetables	-7822
▁wheelchair	-7823
▁competitive	-7824
▁fortunately	-7825
▁reconstruct	-7826
▁supermarket	-7827
▁independence	-7828
▁occasionally	-7829
bow	-7830
bye	-7831
law	-7832
bell	-7833
bial	-7834
isph	-7835
mart	-7836
▁mri	-7837
▁pip	-7838
anged	-7839
great	-7840
▁arth	-7841
▁asks	-7842
▁genu	-7843
▁heal	-7844
▁horr	-7845
▁jazz	-7846
▁prec	-7847
▁rabb	-7848
▁rape	-7849
anghai	-7850
▁ambig	-7851
▁asian	-7852
▁brush	-7853
▁cabin	-7854
▁cruel	-7855
▁delhi	-7856
▁index	-7857
▁insul	-7858
▁leban	-7859
▁pairs	-7860
▁santa	-7861
▁tubes	-7862
▁valid	-7863
without	-7864
▁cycles	-7865
▁editor	-7866
▁errors	-7867
▁export	-7868
▁planes	-7869
▁propag	-7870
▁stroke	-7871
▁surviv	-7872
▁tattoo	-7873
▁uncons	-7874
▁upload	-7875
cedented	-7876
▁cigaret	-7877
▁closest	-7878
▁cluster	-7879
▁compete	-7880
▁despair	-7881
▁destiny	-7882
▁entropy	-7883
▁footage	-7884
▁glacier	-7885
▁glasses	-7886
▁hardest	-7887
▁lincoln	-7888
▁mindset	-7889
▁offices	-7890
▁package	-7891
▁passive	-7892
▁redwood	-7893
▁secrets	-7894
▁teenage	-7895
▁tension	-7896
▁tsunami	-7897
▁branches	-7898
▁generous	-7899
▁insights	-7900
▁managers	-7901
▁palestin	-7902
▁precious	-7903
▁prostate	-7904
▁reliable	-7905
▁replaced	-7906
▁versions	-7907
▁initially	-7908
▁interrupt	-7909
▁miserable	-7910
▁performed	-7911
▁substance	-7912
otechnology	-7913
▁continents	-7914
▁extinction	-7915
▁landscapes	-7916
▁prevention	-7917
▁previously	-7918
▁ubiquitous	-7919
▁achievement	-7920
▁approaching	-7921
▁consciously	-7922
▁unconscious	-7923
▁mathematicians	-7924
py	-7925
eds	-7926
oma	-7927
▁55	-7928
away	-7929
edge	-7930
lets	-7931
neys	-7932
oral	-7933
soon	-7934
uded	-7935
▁bot	-7936
▁cyl	-7937
▁jam	-7938
▁kar	-7939
▁moz	-7940
▁voy	-7941
heart	-7942
icial	-7943
izers	-7944
ogram	-7945
rence	-7946
uctor	-7947
▁abra	-7948
▁anno	-7949
▁bind	-7950
▁brid	-7951
▁lord	-7952
▁ngos	-7953
▁penn	-7954
▁tune	-7955
asters	-7956
▁anten	-7957
▁brave	-7958
▁brows	-7959
▁eaten	-7960
▁fears	-7961
▁gases	-7962
▁incom	-7963
▁koran	-7964
▁overl	-7965
▁satur	-7966
▁slums	-7967
▁troub	-7968
▁unpre	-7969
▁vocal	-7970
▁worms	-7971
▁agents	-7972
▁amazed	-7973
▁annual	-7974
▁berlin	-7975
▁carpet	-7976
▁excess	-7977
▁habits	-7978
▁hiding	-7979
▁korean	-7980
▁makers	-7981
▁marvel	-7982
▁multip	-7983
▁murder	-7984
▁purple	-7985
▁tragic	-7986
▁arguing	-7987
▁ecology	-7988
▁harness	-7989
▁horizon	-7990
▁ongoing	-7991
▁pursuit	-7992
▁puzzles	-7993
▁retreat	-7994
▁synthes	-7995
▁unhappy	-7996
▁applying	-7997
▁asteroid	-7998
▁circuits	-7999
▁offering	-8000
▁stereoty	-8001
▁sensation	-8002
▁succeeded	-8003
▁antarctica	-8004
▁elementary	-8005
▁excitement	-8006
▁researcher	-8007
▁limitations	-8008
▁predictable	-8009
▁grandparents	-8010
▁storytelling	-8011
▁transforming	-8012
▁unprecedented	-8013
▁interconnected	-8014
auc	-8015
mat	-8016
pie	-8017
▁42	-8018
▁dv	-8019
▁gi	-8020
bird	-8021
chem	-8022
gent	-8023
iate	-8024
ilty	-8025
olic	-8026
onia	-8027
reen	-8028
▁20-	-8029
▁30-	-8030
▁dil	-8031
▁dun	-8032
▁pir	-8033
▁pit	-8034
emies	-8035
gener	-8036
grade	-8037
iated	-8038
icked	-8039
lades	-8040
mates	-8041
roach	-8042
▁2002	-8043
▁2011	-8044
▁2050	-8045
▁bags	-8046
▁crop	-8047
▁fate	-8048
▁fest	-8049
▁jose	-8050
▁july	-8051
▁jung	-8052
▁junk	-8053
▁lion	-8054
▁nick	-8055
▁nuts	-8056
except	-8057
icient	-8058
weight	-8059
▁amate	-8060
▁badly	-8061
▁caves	-8062
▁elite	-8063
▁fires	-8064
▁mines	-8065
▁moore	-8066
▁nodes	-8067
▁pizza	-8068
▁remot	-8069
▁safer	-8070
▁treas	-8071
▁warri	-8072
itative	-8073
▁builds	-8074
▁fibers	-8075
▁fusion	-8076
▁nearby	-8077
▁strict	-8078
▁sunday	-8079
▁tempor	-8080
▁traits	-8081
▁chamber	-8082
▁cocaine	-8083
▁drought	-8084
▁fathers	-8085
▁females	-8086
▁genuine	-8087
▁gesture	-8088
▁glamour	-8089
▁insulin	-8090
▁mandela	-8091
▁minimum	-8092
▁pockets	-8093
▁propose	-8094
▁reserve	-8095
▁resolve	-8096
▁stepped	-8097
▁customer	-8098
▁delivery	-8099
▁geometry	-8100
▁shanghai	-8101
▁syndrome	-8102
▁transmit	-8103
▁audiences	-8104
▁banglades	-8105
▁breakfast	-8106
▁estimates	-8107
▁headlines	-8108
▁jellyfish	-8109
▁medicines	-8110
▁perceived	-8111
▁protocell	-8112
▁religions	-8113
▁reproduce	-8114
▁responses	-8115
▁signature	-8116
▁assumption	-8117
▁continuous	-8118
▁helicopter	-8119
▁physicists	-8120
▁terrifying	-8121
▁yourselves	-8122
▁association	-8123
▁encouraging	-8124
bc	-8125
ga	-8126
ov	-8127
bie	-8128
ker	-8129
lie	-8130
net	-8131
oft	-8132
cycl	-8133
irlf	-8134
mony	-8135
phal	-8136
sell	-8137
▁mah	-8138
▁mud	-8139
▁sty	-8140
▁tam	-8141
▁tin	-8142
afric	-8143
ifact	-8144
watch	-8145
ynman	-8146
▁batt	-8147
▁coke	-8148
▁drum	-8149
▁rope	-8150
▁subm	-8151
govern	-8152
▁artic	-8153
▁comic	-8154
▁dough	-8155
▁lever	-8156
▁raped	-8157
▁redes	-8158
▁shine	-8159
ativity	-8160
perform	-8161
powered	-8162
▁atomic	-8163
▁basket	-8164
▁comedy	-8165
▁config	-8166
▁estate	-8167
▁guilty	-8168
▁harbor	-8169
▁howard	-8170
▁luxury	-8171
▁newton	-8172
▁nights	-8173
▁shakes	-8174
▁sheets	-8175
▁subsid	-8176
▁summar	-8177
▁yorker	-8178
▁absence	-8179
▁academy	-8180
▁beijing	-8181
▁colored	-8182
▁cricket	-8183
▁enemies	-8184
▁farming	-8185
▁formula	-8186
▁hormone	-8187
▁intrins	-8188
▁johnson	-8189
▁proceed	-8190
▁trivial	-8191
▁wedding	-8192
irlfriend	-8193
▁artifact	-8194
▁decrease	-8195
▁navigate	-8196
▁portrait	-8197
▁relation	-8198
▁tropical	-8199
▁anonymous	-8200
▁biosphere	-8201
▁nonprofit	-8202
▁reactions	-8203
▁manipulate	-8204
▁newspapers	-8205
▁retirement	-8206
▁beautifully	-8207
▁discovering	-8208
▁interviewed	-8209
▁journalists	-8210
▁marketplace	-8211
▁concentrated	-8212
▁compassionate	-8213
eu	-8214
cip	-8215
isa	-8216
rit	-8217
sud	-8218
sur	-8219
aeda	-8220
ague	-8221
asty	-8222
pass	-8223
same	-8224
seen	-8225
stud	-8226
supp	-8227
▁350	-8228
▁ads	-8229
▁hob	-8230
▁ire	-8231
▁joe	-8232
ansas	-8233
ffect	-8234
itzer	-8235
phony	-8236
▁ampl	-8237
▁biol	-8238
▁blah	-8239
▁bold	-8240
▁bowl	-8241
▁bust	-8242
▁clue	-8243
▁drew	-8244
▁glue	-8245
▁hybr	-8246
▁jugg	-8247
▁toes	-8248
▁wrap	-8249
arians	-8250
during	-8251
mented	-8252
▁bless	-8253
▁buddh	-8254
▁coinc	-8255
▁donor	-8256
▁drown	-8257
▁exerc	-8258
▁knife	-8259
▁peers	-8260
▁redef	-8261
▁sched	-8262
▁stair	-8263
▁swiss	-8264
▁trail	-8265
▁40,000	-8266
▁accent	-8267
▁crimes	-8268
▁dating	-8269
▁nerves	-8270
▁parach	-8271
▁proved	-8272
▁proven	-8273
▁recall	-8274
▁recipe	-8275
▁scenes	-8276
▁troops	-8277
▁viewer	-8278
▁wheels	-8279
▁bedroom	-8280
▁cancers	-8281
▁dressed	-8282
▁enforce	-8283
▁hacking	-8284
▁halfway	-8285
▁hemisph	-8286
▁ignored	-8287
▁indones	-8288
▁seeking	-8289
▁toilets	-8290
▁activist	-8291
▁attacked	-8292
▁carolina	-8293
▁contamin	-8294
▁failures	-8295
▁listened	-8296
▁mosquito	-8297
▁plastics	-8298
▁predator	-8299
▁affecting	-8300
▁believing	-8301
▁blindness	-8302
▁collapsed	-8303
▁locations	-8304
▁predators	-8305
▁preparing	-8306
▁sacrifice	-8307
▁volunteer	-8308
▁challenged	-8309
▁convenient	-8310
▁disability	-8311
▁discipline	-8312
▁inevitably	-8313
▁interviews	-8314
▁monitoring	-8315
▁reflection	-8316
▁antibiotics	-8317
▁contributed	-8318
▁foundations	-8319
▁legislation	-8320
▁proposition	-8321
▁surrounding	-8322
▁technically	-8323
▁calculations	-8324
▁demonstrated	-8325
▁installation	-8326
aby	-8327
gas	-8328
iph	-8329
raw	-8330
▁37	-8331
city	-8332
mean	-8333
▁15-	-8334
▁amy	-8335
▁luc	-8336
▁obt	-8337
arest	-8338
ashed	-8339
enous	-8340
▁coat	-8341
▁dent	-8342
▁dirt	-8343
▁impl	-8344
▁inch	-8345
▁infl	-8346
▁loan	-8347
▁mesh	-8348
▁pige	-8349
▁sexy	-8350
assemb	-8351
coming	-8352
sudden	-8353
▁6,000	-8354
▁embod	-8355
▁embry	-8356
▁encry	-8357
▁henry	-8358
▁hills	-8359
▁immig	-8360
▁immun	-8361
▁lanes	-8362
▁loose	-8363
▁lungs	-8364
▁minus	-8365
▁param	-8366
▁parks	-8367
▁royal	-8368
▁stays	-8369
▁trace	-8370
keepers	-8371
▁beaten	-8372
▁behalf	-8373
▁butter	-8374
▁campus	-8375
▁columb	-8376
▁compre	-8377
▁covers	-8378
▁friday	-8379
▁orders	-8380
▁packed	-8381
▁pedest	-8382
▁tasman	-8383
▁topics	-8384
▁victor	-8385
somebody	-8386
▁enabled	-8387
▁follows	-8388
▁penguin	-8389
▁request	-8390
▁uniform	-8391
▁useless	-8392
▁zealand	-8393
▁breeding	-8394
▁cellular	-8395
▁contrary	-8396
▁downtown	-8397
▁enjoying	-8398
▁exposure	-8399
▁heritage	-8400
▁leonardo	-8401
▁selected	-8402
▁stopping	-8403
▁supplies	-8404
▁competing	-8405
▁describes	-8406
▁guarantee	-8407
▁recession	-8408
▁recycling	-8409
▁workplace	-8410
▁approached	-8411
▁assignment	-8412
▁expedition	-8413
▁infections	-8414
▁mainstream	-8415
▁narratives	-8416
▁physicians	-8417
▁regardless	-8418
▁constraints	-8419
▁desperately	-8420
▁magnificent	-8421
▁philosopher	-8422
▁historically	-8423
▁psychologist	-8424
▁transmission	-8425
▁concentration	-8426
▁visualization	-8427
99	-8428
cs	-8429
bod	-8430
hea	-8431
hen	-8432
ias	-8433
lif	-8434
pol	-8435
vol	-8436
yan	-8437
▁os	-8438
aped	-8439
irts	-8440
lers	-8441
phen	-8442
usal	-8443
word	-8444
▁gif	-8445
▁hut	-8446
anges	-8447
gradu	-8448
inery	-8449
peare	-8450
pless	-8451
teach	-8452
▁bite	-8453
▁calm	-8454
▁dism	-8455
▁lawn	-8456
▁melt	-8457
▁rome	-8458
▁sale	-8459
▁sons	-8460
▁stad	-8461
▁ward	-8462
gments	-8463
ulsion	-8464
▁algae	-8465
▁bills	-8466
▁brian	-8467
▁chips	-8468
▁delay	-8469
▁gorge	-8470
▁lobby	-8471
▁marsh	-8472
▁plank	-8473
▁rings	-8474
▁spill	-8475
▁tiles	-8476
▁yemen	-8477
ometown	-8478
umented	-8479
▁correl	-8480
▁fallen	-8481
▁insane	-8482
▁loving	-8483
▁magnet	-8484
▁nelson	-8485
▁offers	-8486
▁orphan	-8487
▁portug	-8488
▁render	-8489
▁stimul	-8490
▁wooden	-8491
suddenly	-8492
▁captain	-8493
▁educate	-8494
▁ireland	-8495
▁manager	-8496
▁mapping	-8497
▁printed	-8498
▁readers	-8499
▁refugee	-8500
▁simpler	-8501
▁altitude	-8502
▁bathroom	-8503
▁democrat	-8504
▁explicit	-8505
▁historic	-8506
▁honestly	-8507
▁intended	-8508
▁mobility	-8509
▁skeletal	-8510
▁tanzania	-8511
▁alexander	-8512
▁biologist	-8513
▁delicious	-8514
▁dominated	-8515
▁equations	-8516
▁graduated	-8517
▁intensive	-8518
▁parkinson	-8519
▁receiving	-8520
▁territory	-8521
▁accomplish	-8522
▁biolumines	-8523
▁calculated	-8524
▁catastroph	-8525
▁girlfriend	-8526
▁indigenous	-8527
▁publishing	-8528
▁punishment	-8529
▁reasonable	-8530
▁acknowledge	-8531
▁expressions	-8532
▁communicating	-8533
▁psychologists	-8534
▁extraordinarily	-8535
10	-8536
ati	-8537
bia	-8538
cla	-8539
een	-8540
▁bm	-8541
▁uh	-8542
kids	-8543
oked	-8544
outs	-8545
plet	-8546
utan	-8547
▁reb	-8548
▁rib	-8549
▁shy	-8550
▁tib	-8551
▁zoo	-8552
apore	-8553
atson	-8554
isons	-8555
oning	-8556
pring	-8557
▁2012	-8558
▁deaf	-8559
▁guid	-8560
▁nord	-8561
▁nove	-8562
▁pale	-8563
▁pear	-8564
▁pref	-8565
▁scal	-8566
▁sett	-8567
▁sole	-8568
cyclop	-8569
iously	-8570
▁bench	-8571
▁boats	-8572
▁choir	-8573
▁clint	-8574
▁detro	-8575
▁drops	-8576
▁hawai	-8577
▁loads	-8578
▁pills	-8579
▁sheph	-8580
▁steam	-8581
▁straw	-8582
▁tiger	-8583
▁tweet	-8584
▁zones	-8585
essions	-8586
▁assets	-8587
▁binary	-8588
▁chimps	-8589
▁criter	-8590
▁denial	-8591
▁immers	-8592
▁infant	-8593
▁posted	-8594
▁relief	-8595
▁summit	-8596
▁voting	-8597
standing	-8598
▁abraham	-8599
▁enjoyed	-8600
▁exhaust	-8601
▁harmony	-8602
▁healing	-8603
▁origins	-8604
▁passage	-8605
▁rethink	-8606
▁scanner	-8607
▁venture	-8608
▁whistle	-8609
▁backyard	-8610
▁ceremony	-8611
▁coverage	-8612
▁encyclop	-8613
▁kindness	-8614
▁nowadays	-8615
▁overhead	-8616
▁worrying	-8617
▁correctly	-8618
▁empowered	-8619
▁hierarchy	-8620
▁relatives	-8621
▁seemingly	-8622
forestation	-8623
▁anticipate	-8624
▁assistance	-8625
▁automobile	-8626
▁bangladesh	-8627
▁compromise	-8628
▁electrodes	-8629
▁engineered	-8630
▁generating	-8631
▁prosperity	-8632
▁partnership	-8633
▁shakespeare	-8634
▁collectively	-8635
▁personalized	-8636
vo	-8637
ali	-8638
lon	-8639
neg	-8640
run	-8641
try	-8642
zes	-8643
▁ga	-8644
aken	-8645
bees	-8646
cher	-8647
educ	-8648
hero	-8649
iful	-8650
oric	-8651
page	-8652
stit	-8653
▁apr	-8654
▁ibm	-8655
▁jon	-8656
▁via	-8657
enses	-8658
ester	-8659
irect	-8660
omics	-8661
whate	-8662
▁1900	-8663
▁biof	-8664
▁cany	-8665
▁eric	-8666
▁hans	-8667
▁perm	-8668
▁pier	-8669
▁quar	-8670
▁rect	-8671
▁sail	-8672
▁shoe	-8673
▁turt	-8674
▁util	-8675
▁vice	-8676
commun	-8677
twenty	-8678
uction	-8679
▁aspir	-8680
▁blink	-8681
▁carri	-8682
▁chile	-8683
▁deals	-8684
▁discr	-8685
▁entry	-8686
▁fatal	-8687
▁inher	-8688
▁irony	-8689
▁mcdon	-8690
▁meals	-8691
▁penet	-8692
▁pulse	-8693
▁roles	-8694
▁screw	-8695
▁anatom	-8696
▁apolog	-8697
▁approx	-8698
▁chains	-8699
▁comics	-8700
▁cultiv	-8701
▁michel	-8702
▁safely	-8703
▁temple	-8704
whatever	-8705
▁adapted	-8706
▁corrupt	-8707
▁dilemma	-8708
▁genomes	-8709
▁heading	-8710
▁iceland	-8711
▁logical	-8712
▁neutral	-8713
▁reactor	-8714
▁seventh	-8715
▁swallow	-8716
cientists	-8717
▁advances	-8718
▁calories	-8719
▁catching	-8720
▁clusters	-8721
▁complain	-8722
▁concerns	-8723
▁consumed	-8724
▁diameter	-8725
▁disabled	-8726
▁fragment	-8727
▁november	-8728
▁observed	-8729
▁recycled	-8730
▁sidewalk	-8731
▁simplest	-8732
▁aesthetic	-8733
▁agreement	-8734
▁bacterial	-8735
▁installed	-8736
▁occurring	-8737
▁officials	-8738
▁overnight	-8739
▁planetary	-8740
▁reflected	-8741
▁suspended	-8742
▁legitimate	-8743
▁medication	-8744
▁variations	-8745
▁fluorescent	-8746
▁connectivity	-8747
▁civilizations	-8748
▁controversial	-8749
ado	-8750
gle	-8751
iro	-8752
nut	-8753
obs	-8754
oll	-8755
anas	-8756
erey	-8757
ergy	-8758
gram	-8759
illa	-8760
pres	-8761
text	-8762
udge	-8763
▁dum	-8764
▁ech	-8765
▁mol	-8766
▁nam	-8767
▁nap	-8768
▁por	-8769
▁tox	-8770
cover	-8771
omagn	-8772
pling	-8773
press	-8774
quate	-8775
▁2020	-8776
▁carr	-8777
▁crap	-8778
▁curt	-8779
▁hong	-8780
▁impr	-8781
▁josh	-8782
▁lego	-8783
▁mant	-8784
▁mast	-8785
▁murd	-8786
▁nano	-8787
▁sake	-8788
▁seal	-8789
▁symp	-8790
▁thus	-8791
▁tony	-8792
driven	-8793
lihood	-8794
orient	-8795
thirds	-8796
▁album	-8797
▁april	-8798
▁cheat	-8799
▁clubs	-8800
▁conqu	-8801
▁drunk	-8802
▁gross	-8803
▁inhib	-8804
▁jones	-8805
▁lingu	-8806
▁lists	-8807
▁pants	-8808
▁remix	-8809
▁sends	-8810
▁sperm	-8811
▁stead	-8812
▁strip	-8813
▁taxes	-8814
▁usage	-8815
▁woods	-8816
▁curves	-8817
▁forbid	-8818
▁gravit	-8819
▁grocer	-8820
▁intact	-8821
▁livest	-8822
▁manner	-8823
▁namely	-8824
▁tables	-8825
▁thread	-8826
▁bridges	-8827
▁broader	-8828
▁bureauc	-8829
▁corners	-8830
▁doubled	-8831
▁facilit	-8832
▁laptops	-8833
▁locally	-8834
▁mankind	-8835
▁planted	-8836
▁staring	-8837
▁strings	-8838
▁terrain	-8839
▁activate	-8840
▁brooklyn	-8841
▁contempl	-8842
▁deployed	-8843
▁disagree	-8844
▁division	-8845
▁hometown	-8846
▁memorial	-8847
▁nitrogen	-8848
▁peaceful	-8849
▁randomly	-8850
▁shocking	-8851
▁striking	-8852
▁touching	-8853
▁abandoned	-8854
▁activists	-8855
▁brazilian	-8856
▁criminals	-8857
▁electrons	-8858
▁estimated	-8859
▁formation	-8860
▁indonesia	-8861
▁microbial	-8862
▁motivated	-8863
▁residents	-8864
▁secretary	-8865
▁frequently	-8866
▁hemisphere	-8867
▁illustrate	-8868
▁likelihood	-8869
▁psychopath	-8870
▁remarkably	-8871
▁sanitation	-8872
▁telescopes	-8873
▁composition	-8874
▁distinction	-8875
▁electromagn	-8876
▁programmers	-8877
▁realization	-8878
▁humanitarian	-8879
▁transformative	-8880
je	-8881
uh	-8882
yr	-8883
isn	-8884
kin	-8885
mic	-8886
urd	-8887
vae	-8888
▁38	-8889
▁ig	-8890
▁ly	-8891
ador	-8892
door	-8893
ette	-8894
igma	-8895
otle	-8896
rist	-8897
stop	-8898
▁bru	-8899
▁kat	-8900
▁orb	-8901
▁ski	-8902
▁sne	-8903
break	-8904
erent	-8905
inent	-8906
oline	-8907
owers	-8908
start	-8909
until	-8910
▁benj	-8911
▁bulb	-8912
▁cube	-8913
▁entr	-8914
▁logo	-8915
▁spat	-8916
▁tact	-8917
▁thor	-8918
▁ties	-8919
▁vary	-8920
▁welf	-8921
▁wins	-8922
anyone	-8923
inging	-8924
master	-8925
▁alpha	-8926
▁blend	-8927
▁bulbs	-8928
▁camel	-8929
▁decor	-8930
▁fence	-8931
▁harry	-8932
▁hopes	-8933
▁norms	-8934
▁retro	-8935
▁ridge	-8936
▁wrist	-8937
rations	-8938
▁absorb	-8939
▁claims	-8940
▁crowds	-8941
▁diving	-8942
▁donors	-8943
▁emails	-8944
▁grades	-8945
▁pencil	-8946
▁sovere	-8947
▁unfold	-8948
▁watson	-8949
▁winner	-8950
▁belongs	-8951
▁biomass	-8952
▁clinics	-8953
▁clinton	-8954
▁coastal	-8955
▁cybercr	-8956
▁enhance	-8957
▁exploit	-8958
▁goodbye	-8959
▁maximum	-8960
▁smiling	-8961
▁spreads	-8962
▁switzer	-8963
▁teaches	-8964
▁texture	-8965
▁announce	-8966
▁approved	-8967
▁boundary	-8968
▁compound	-8969
▁incorpor	-8970
▁injuries	-8971
▁literacy	-8972
▁opinions	-8973
▁proposal	-8974
▁revealed	-8975
▁scanning	-8976
▁seawater	-8977
▁spinning	-8978
▁vaccines	-8979
▁virginia	-8980
▁attitudes	-8981
▁batteries	-8982
▁deception	-8983
▁diagnosis	-8984
▁emergence	-8985
▁fisheries	-8986
▁intensity	-8987
▁renewable	-8988
▁surgeries	-8989
▁textbooks	-8990
▁universes	-8991
▁visualize	-8992
▁enterprise	-8993
▁microphone	-8994
▁phenomenal	-8995
▁structural	-8996
▁sufficient	-8997
▁instruction	-8998
▁politically	-8999
▁switzerland	-9000
▁theoretical	-9001
▁accomplished	-9002
▁continuously	-9003
▁measurements	-9004
▁observations	-9005
▁temperatures	-9006
▁mathematician	-9007
.5	-9008
di	-9009
jh	-9010
uk	-9011
100	-9012
bot	-9013
hot	-9014
oli	-9015
psy	-9016
ran	-9017
▁48	-9018
fing	-9019
rane	-9020
wart	-9021
zard	-9022
▁1.2	-9023
▁ego	-9024
▁gee	-9025
▁pix	-9026
▁usa	-9027
▁zip	-9028
aware	-9029
digit	-9030
impse	-9031
raine	-9032
sized	-9033
still	-9034
▁1999	-9035
▁2030	-9036
▁chef	-9037
▁cuts	-9038
▁ende	-9039
▁guer	-9040
▁kong	-9041
▁meme	-9042
▁mike	-9043
▁mild	-9044
▁scot	-9045
▁turk	-9046
▁twin	-9047
almost	-9048
arrhea	-9049
culiar	-9050
iances	-9051
income	-9052
itable	-9053
ocracy	-9054
▁belly	-9055
▁couch	-9056
▁depos	-9057
▁erect	-9058
▁funds	-9059
▁knock	-9060
▁laden	-9061
▁laure	-9062
▁maneu	-9063
▁mimic	-9064
▁miner	-9065
▁mobil	-9066
▁naive	-9067
▁spons	-9068
▁sweat	-9069
▁uniqu	-9070
ocation	-9071
osexual	-9072
someone	-9073
▁elabor	-9074
▁foster	-9075
▁frames	-9076
▁gandhi	-9077
▁helium	-9078
▁horses	-9079
▁hunter	-9080
▁marath	-9081
▁pestic	-9082
▁prepar	-9083
▁revers	-9084
▁riding	-9085
▁sensit	-9086
function	-9087
ongevity	-9088
▁banking	-9089
▁carries	-9090
▁congest	-9091
▁cooling	-9092
▁deepest	-9093
▁default	-9094
▁fantasy	-9095
▁feynman	-9096
▁filling	-9097
▁glimpse	-9098
▁hackers	-9099
▁handful	-9100
▁hostile	-9101
▁landing	-9102
▁powered	-9103
▁reaches	-9104
▁trapped	-9105
▁welfare	-9106
▁william	-9107
▁alphabet	-9108
▁angiogen	-9109
▁assembly	-9110
▁autistic	-9111
▁barriers	-9112
▁criteria	-9113
▁cylinder	-9114
▁dropping	-9115
▁findings	-9116
▁gorgeous	-9117
▁hopeless	-9118
▁indicate	-9119
▁olympics	-9120
▁peculiar	-9121
▁promised	-9122
▁reserves	-9123
▁surgeons	-9124
▁transist	-9125
▁abundance	-9126
▁amazingly	-9127
▁asteroids	-9128
▁commodity	-9129
▁livestock	-9130
▁machinery	-9131
▁realistic	-9132
▁resistant	-9133
▁shoulders	-9134
▁therapies	-9135
▁documented	-9136
▁exceptions	-9137
▁privileged	-9138
▁spacecraft	-9139
▁suggestion	-9140
▁cooperative	-9141
▁corporation	-9142
▁devastating	-9143
▁frightening	-9144
▁embarrassing	-9145
▁philanthropy	-9146
▁computational	-9147
▁schizophrenia	-9148
▁systematically	-9149
ask	-9150
ava	-9151
cod	-9152
cre	-9153
fur	-9154
low	-9155
mad	-9156
via	-9157
▁31	-9158
▁72	-9159
▁ll	-9160
alog	-9161
bian	-9162
eren	-9163
mind	-9164
pack	-9165
prob	-9166
rade	-9167
spec	-9168
unks	-9169
▁ade	-9170
▁awe	-9171
▁huh	-9172
▁jun	-9173
▁pla	-9174
▁rod	-9175
adian	-9176
arten	-9177
built	-9178
ifies	-9179
matic	-9180
seven	-9181
▁1930	-9182
▁1998	-9183
▁apps	-9184
▁buck	-9185
▁carp	-9186
▁dood	-9187
▁dose	-9188
▁glor	-9189
▁hamb	-9190
▁liby	-9191
▁mini	-9192
▁mixt	-9193
▁mumb	-9194
▁pitt	-9195
▁prey	-9196
▁seti	-9197
▁sque	-9198
▁verb	-9199
▁worm	-9200
enance	-9201
health	-9202
school	-9203
▁ambit	-9204
▁boost	-9205
▁cream	-9206
▁flick	-9207
▁flock	-9208
▁fried	-9209
▁gains	-9210
▁grave	-9211
▁infer	-9212
▁juice	-9213
▁marks	-9214
▁messy	-9215
▁obese	-9216
▁pulls	-9217
▁reass	-9218
▁recre	-9219
▁texts	-9220
▁voted	-9221
▁watts	-9222
faction	-9223
natural	-9224
ometime	-9225
▁advers	-9226
▁arabia	-9227
▁argent	-9228
▁canvas	-9229
▁divers	-9230
▁horror	-9231
▁immort	-9232
▁masses	-9233
▁mentor	-9234
▁nightm	-9235
▁shower	-9236
▁strain	-9237
▁triang	-9238
▁wishes	-9239
computer	-9240
▁antenna	-9241
▁chronic	-9242
▁committ	-9243
▁commons	-9244
▁creator	-9245
▁crossed	-9246
▁descend	-9247
▁detroit	-9248
▁earning	-9249
▁elegant	-9250
▁hopeful	-9251
▁labeled	-9252
▁laughed	-9253
▁nearest	-9254
▁periods	-9255
▁propell	-9256
▁rewards	-9257
▁scaling	-9258
▁sectors	-9259
▁spiders	-9260
▁stadium	-9261
▁strands	-9262
▁calculus	-9263
▁hormones	-9264
▁informal	-9265
▁ministry	-9266
▁minority	-9267
▁monterey	-9268
▁nigerian	-9269
▁prisoner	-9270
▁protocol	-9271
▁underest	-9272
▁visually	-9273
▁websites	-9274
▁attracted	-9275
▁candidate	-9276
▁favorites	-9277
▁geography	-9278
▁longevity	-9279
▁regularly	-9280
▁screaming	-9281
▁sequences	-9282
▁singapore	-9283
▁destroying	-9284
▁determines	-9285
▁discussing	-9286
▁discussions	-9287
▁understands	-9288
▁accelerating	-9289
▁alternatives	-9290
▁constitution	-9291
▁contribution	-9292
▁representative	-9293
ng	-9294
cam	-9295
ima	-9296
oen	-9297
oto	-9298
tim	-9299
▁iv	-9300
beat	-9301
etti	-9302
gend	-9303
itar	-9304
offs	-9305
star	-9306
teen	-9307
ylac	-9308
▁192	-9309
▁apo	-9310
▁gor	-9311
▁jur	-9312
▁lam	-9313
▁rap	-9314
▁sup	-9315
aired	-9316
asive	-9317
china	-9318
eling	-9319
ighth	-9320
iolet	-9321
▁alle	-9322
▁blew	-9323
▁budd	-9324
▁bump	-9325
▁cage	-9326
▁carl	-9327
▁coch	-9328
▁enzy	-9329
▁epis	-9330
▁jane	-9331
▁mead	-9332
▁myce	-9333
▁voca	-9334
inator	-9335
spring	-9336
things	-9337
▁alter	-9338
▁bonob	-9339
▁careg	-9340
▁chess	-9341
▁crows	-9342
▁indus	-9343
▁insec	-9344
▁juven	-9345
▁loses	-9346
▁meets	-9347
▁penal	-9348
▁picks	-9349
▁risky	-9350
▁shred	-9351
▁sizes	-9352
ressing	-9353
thetics	-9354
▁25,000	-9355
▁appeal	-9356
▁cables	-9357
▁cattle	-9358
▁dispar	-9359
▁evapor	-9360
▁flavor	-9361
▁iconic	-9362
▁kidney	-9363
▁lifted	-9364
▁mating	-9365
▁modest	-9366
▁preced	-9367
▁psycho	-9368
▁racing	-9369
▁retail	-9370
▁rotate	-9371
▁smells	-9372
▁trauma	-9373
▁unlock	-9374
ergarten	-9375
ortunate	-9376
▁acquire	-9377
▁authors	-9378
▁envelop	-9379
▁happily	-9380
▁heavily	-9381
▁iranian	-9382
▁kidding	-9383
▁lebanon	-9384
▁logging	-9385
▁lottery	-9386
▁nonviol	-9387
▁olympic	-9388
▁patents	-9389
▁pouring	-9390
▁screens	-9391
▁trading	-9392
▁whoever	-9393
▁accuracy	-9394
▁benjamin	-9395
▁expanded	-9396
▁inventor	-9397
▁multiply	-9398
▁publicly	-9399
▁youngest	-9400
▁ambitious	-9401
▁answering	-9402
▁associate	-9403
▁astronomy	-9404
▁comparing	-9405
▁convicted	-9406
▁mutations	-9407
▁parachute	-9408
▁responded	-9409
▁statistic	-9410
▁terrified	-9411
▁witnessed	-9412
▁christians	-9413
▁horizontal	-9414
▁irrational	-9415
▁professors	-9416
▁prosthetic	-9417
▁distinguish	-9418
▁overwhelmed	-9419
▁preparation	-9420
▁specialized	-9421
▁introduction	-9422
▁overwhelming	-9423
eg	-9424
hc	-9425
aza	-9426
bet	-9427
fre	-9428
iju	-9429
ila	-9430
uno	-9431
▁44	-9432
arsh	-9433
burg	-9434
fire	-9435
iots	-9436
▁130	-9437
▁190	-9438
▁bor	-9439
▁exh	-9440
▁sib	-9441
abeth	-9442
ierra	-9443
itate	-9444
keley	-9445
oenix	-9446
proof	-9447
turns	-9448
▁1984	-9449
▁asth	-9450
▁cape	-9451
▁mask	-9452
ijuana	-9453
istine	-9454
▁arbit	-9455
▁candy	-9456
▁cared	-9457
▁consp	-9458
▁femin	-9459
▁ingen	-9460
▁jewel	-9461
▁mater	-9462
▁panic	-9463
▁posed	-9464
▁squid	-9465
▁stumb	-9466
▁tibet	-9467
percent	-9468
working	-9469
▁allies	-9470
▁canyon	-9471
▁dissol	-9472
▁fluctu	-9473
▁format	-9474
▁hybrid	-9475
▁marrow	-9476
▁mumbai	-9477
▁norden	-9478
▁plates	-9479
▁selves	-9480
▁slower	-9481
▁steven	-9482
▁thylac	-9483
▁worthy	-9484
probably	-9485
▁condoms	-9486
▁folding	-9487
▁inhabit	-9488
▁israeli	-9489
▁luckily	-9490
▁matched	-9491
▁optical	-9492
▁outrage	-9493
▁playful	-9494
▁pleased	-9495
▁seattle	-9496
▁utterly	-9497
imination	-9498
▁analyzed	-9499
▁berkeley	-9500
▁detector	-9501
▁diarrhea	-9502
▁forecast	-9503
▁mcdonald	-9504
▁momentum	-9505
▁mutation	-9506
▁parasite	-9507
▁priority	-9508
▁redesign	-9509
▁rejected	-9510
▁sexually	-9511
▁sometime	-9512
▁switched	-9513
▁symphony	-9514
▁terrific	-9515
▁thrilled	-9516
▁triangle	-9517
▁administr	-9518
▁cockroach	-9519
▁expressed	-9520
▁integrate	-9521
▁migration	-9522
▁mushrooms	-9523
▁negotiate	-9524
▁reasoning	-9525
▁tolerance	-9526
▁candidates	-9527
▁households	-9528
▁ingredient	-9529
▁organizing	-9530
▁practicing	-9531
▁prototypes	-9532
▁undergradu	-9533
▁concentrate	-9534
▁destination	-9535
▁emotionally	-9536
▁enforcement	-9537
▁unfortunate	-9538
▁angiogenesis	-9539
▁coordination	-9540
▁approximately	-9541
▁accountability	-9542
lg	-9543
▁♪	-9544
hel	-9545
nis	-9546
wis	-9547
aves	-9548
give	-9549
hist	-9550
olen	-9551
thet	-9552
▁jaw	-9553
▁kin	-9554
▁une	-9555
▁yog	-9556
berry	-9557
brush	-9558
ching	-9559
ermen	-9560
inity	-9561
iracy	-9562
olera	-9563
osity	-9564
ouses	-9565
stics	-9566
▁alas	-9567
▁blur	-9568
▁bosn	-9569
▁calc	-9570
▁cher	-9571
▁cope	-9572
▁dare	-9573
▁fuck	-9574
▁hint	-9575
▁indu	-9576
▁obso	-9577
▁oven	-9578
▁piss	-9579
▁semi	-9580
▁shed	-9581
▁surg	-9582
▁tags	-9583
▁tide	-9584
▁torn	-9585
ometer	-9586
rather	-9587
social	-9588
violet	-9589
▁acids	-9590
▁align	-9591
▁blown	-9592
▁cares	-9593
▁cyrus	-9594
▁epiph	-9595
▁ethic	-9596
▁frogs	-9597
▁hated	-9598
▁lifel	-9599
▁probe	-9600
▁rains	-9601
▁resur	-9602
▁revel	-9603
▁roofs	-9604
▁scaff	-9605
▁scans	-9606
▁sheer	-9607
▁slice	-9608
▁spare	-9609
▁trips	-9610
▁tunis	-9611
▁unint	-9612
▁vivid	-9613
▁12,000	-9614
▁albert	-9615
▁aliens	-9616
▁barrel	-9617
▁brands	-9618
▁copies	-9619
▁counts	-9620
▁disney	-9621
▁equals	-9622
▁exquis	-9623
▁famine	-9624
▁greece	-9625
▁guards	-9626
▁hambur	-9627
▁mozart	-9628
▁occupy	-9629
▁raises	-9630
▁shifts	-9631
▁stolen	-9632
▁suprem	-9633
▁themes	-9634
▁unfair	-9635
▁unseen	-9636
ffective	-9637
▁150,000	-9638
▁assumed	-9639
▁atlanta	-9640
▁blowing	-9641
▁climbed	-9642
▁compreh	-9643
▁compute	-9644
▁exagger	-9645
▁heating	-9646
▁liberty	-9647
▁mexican	-9648
▁phoenix	-9649
▁squares	-9650
▁superno	-9651
▁actively	-9652
▁adoption	-9653
▁catholic	-9654
▁cheating	-9655
▁evolving	-9656
▁freezing	-9657
▁guerrill	-9658
▁intimate	-9659
▁mentally	-9660
▁pathways	-9661
▁variable	-9662
ographical	-9663
technology	-9664
▁acknowled	-9665
▁converted	-9666
▁eliminate	-9667
▁imagining	-9668
▁adolescent	-9669
▁critically	-9670
▁metabolism	-9671
▁networking	-9672
▁priorities	-9673
▁sculptures	-9674
▁separation	-9675
▁palestinian	-9676
▁revolutions	-9677
▁transported	-9678
▁ultraviolet	-9679
▁economically	-9680
▁encyclopedia	-9681
▁kindergarten	-9682
▁deforestation	-9683
▁philosophical	-9684
ki	-9685
bag	-9686
kyo	-9687
lor	-9688
mus	-9689
nik	-9690
occ	-9691
pos	-9692
uba	-9693
▁ky	-9694
▁uk	-9695
ason	-9696
lium	-9697
make	-9698
mass	-9699
oned	-9700
oton	-9701
qual	-9702
such	-9703
ules	-9704
▁ara	-9705
▁mum	-9706
▁pap	-9707
▁rac	-9708
▁reh	-9709
alend	-9710
aters	-9711
heads	-9712
ogens	-9713
oters	-9714
speed	-9715
▁adds	-9716
▁aims	-9717
▁beef	-9718
▁buzz	-9719
▁coin	-9720
▁cups	-9721
▁foie	-9722
▁koso	-9723
▁nons	-9724
▁odor	-9725
▁pays	-9726
▁ster	-9727
▁unle	-9728
▁unst	-9729
boards	-9730
estone	-9731
normal	-9732
shaped	-9733
vasive	-9734
▁1,500	-9735
▁advis	-9736
▁alarm	-9737
▁alice	-9738
▁anecd	-9739
▁bribe	-9740
▁entit	-9741
▁favel	-9742
▁louis	-9743
▁paste	-9744
▁reper	-9745
▁shops	-9746
▁sweep	-9747
▁yards	-9748
enhagen	-9749
izabeth	-9750
raising	-9751
▁60,000	-9752
▁angles	-9753
▁argued	-9754
▁corrid	-9755
▁courts	-9756
▁deadly	-9757
▁digest	-9758
▁exotic	-9759
▁hurric	-9760
▁insert	-9761
▁jungle	-9762
▁lethal	-9763
▁losses	-9764
▁pigeon	-9765
▁refuse	-9766
communic	-9767
pectives	-9768
ventions	-9769
▁airline	-9770
▁archive	-9771
▁cholera	-9772
▁counted	-9773
▁couples	-9774
▁damaged	-9775
▁filters	-9776
▁fulfill	-9777
▁planned	-9778
▁priorit	-9779
▁prostit	-9780
▁shining	-9781
▁spatial	-9782
▁streams	-9783
▁travels	-9784
▁weekend	-9785
ationally	-9786
conscious	-9787
▁acquired	-9788
▁egyptian	-9789
▁entrance	-9790
▁frontier	-9791
▁membrane	-9792
▁remotely	-9793
▁targeted	-9794
▁tedtalks	-9795
▁vacation	-9796
▁alongside	-9797
▁collision	-9798
▁desperate	-9799
▁diplomacy	-9800
▁disasters	-9801
▁generates	-9802
▁offspring	-9803
▁vegetable	-9804
▁accelerate	-9805
▁delivering	-9806
▁employment	-9807
▁enormously	-9808
▁infectious	-9809
▁renewables	-9810
▁symmetries	-9811
▁systematic	-9812
▁translator	-9813
▁celebration	-9814
▁corresponds	-9815
▁documentary	-9816
▁frustration	-9817
▁integration	-9818
▁investments	-9819
▁maintenance	-9820
▁symmetrical	-9821
▁chemotherapy	-9822
▁contributing	-9823
▁dictionaries	-9824
▁representing	-9825
▁authoritarian	-9826
▁interventions	-9827
ala	-9828
big	-9829
fly	-9830
oth	-9831
ugg	-9832
▁98	-9833
▁eb	-9834
▁om	-9835
▁pc	-9836
ause	-9837
held	-9838
igan	-9839
leep	-9840
luck	-9841
rium	-9842
▁193	-9843
▁cul	-9844
▁ell	-9845
▁fis	-9846
▁fog	-9847
▁ram	-9848
▁soc	-9849
ensus	-9850
gency	-9851
grand	-9852
month	-9853
trans	-9854
ulses	-9855
▁beam	-9856
▁belt	-9857
▁drif	-9858
▁narc	-9859
▁neoc	-9860
▁pean	-9861
▁porn	-9862
▁stun	-9863
bulary	-9864
having	-9865
iatric	-9866
ladies	-9867
lement	-9868
olitan	-9869
uesday	-9870
usalem	-9871
▁acres	-9872
▁blast	-9873
▁breed	-9874
▁chase	-9875
▁crude	-9876
▁drain	-9877
▁escal	-9878
▁feeds	-9879
▁fired	-9880
▁float	-9881
▁freak	-9882
▁manus	-9883
▁nasty	-9884
▁obser	-9885
▁slope	-9886
▁snake	-9887
▁sudan	-9888
▁tanks	-9889
▁towns	-9890
▁yeast	-9891
anybody	-9892
atories	-9893
growing	-9894
ilation	-9895
itating	-9896
▁arthur	-9897
▁beetle	-9898
▁boards	-9899
▁calend	-9900
▁cathed	-9901
▁copied	-9902
▁eighth	-9903
▁firing	-9904
▁grains	-9905
▁hawaii	-9906
▁lonely	-9907
▁mammal	-9908
▁mapped	-9909
▁marker	-9910
▁monday	-9911
▁passes	-9912
▁preach	-9913
▁punish	-9914
▁regist	-9915
▁rolled	-9916
▁server	-9917
▁stabil	-9918
▁towers	-9919
▁weighs	-9920
ountered	-9921
▁affairs	-9922
▁artwork	-9923
▁cardiac	-9924
▁clarity	-9925
▁columns	-9926
▁dancers	-9927
▁digging	-9928
▁everest	-9929
▁flights	-9930
▁grocery	-9931
▁injured	-9932
▁jeopard	-9933
▁longest	-9934
▁neglect	-9935
▁returns	-9936
▁richest	-9937
▁shorter	-9938
▁shortly	-9939
▁talents	-9940
▁trusted	-9941
▁visions	-9942
▁wrapped	-9943
according	-9944
similarly	-9945
therlands	-9946
▁autonomy	-9947
▁entities	-9948
▁gestures	-9949
▁ideology	-9950
▁innovate	-9951
▁lifespan	-9952
▁mycelium	-9953
▁pipeline	-9954
▁pleasant	-9955
▁saturday	-9956
▁tangible	-9957
controlled	-9958
▁achieving	-9959
▁artifacts	-9960
▁bacterium	-9961
▁dictators	-9962
▁elaborate	-9963
▁embracing	-9964
▁indicates	-9965
▁integrity	-9966
▁jerusalem	-9967
▁parenting	-9968
▁platforms	-9969
▁pressures	-9970
▁producers	-9971
▁reporting	-9972
▁screening	-9973
▁superhero	-9974
▁confronted	-9975
▁copenhagen	-9976
▁describing	-9977
▁intentions	-9978
▁interfaces	-9979
▁manuscript	-9980
▁predicting	-9981
▁preventing	-9982
▁programmed	-9983
▁projection	-9984
▁relativity	-9985
▁sequencing	-9986
▁vocabulary	-9987
▁collaborate	-9988
▁considering	-9989
▁democracies	-9990
▁encountered	-9991
▁recognizing	-9992
▁sensitivity	-9993
▁statistical	-9994
▁catastrophic	-9995
▁headquarters	-9996
▁significance	-9997
19	-9998
ao	-9999
tt	-10000
ux	-10001
cha	-10002
elf	-10003
idi	-10004
jan	-10005
ona	-10006
pay	-10007
sea	-10008
wan	-10009
wid	-10010
▁cd	-10011
▁oz	-10012
▁vo	-10013
▁yo	-10014
alay	-10015
cola	-10016
high	-10017
idal	-10018
nedy	-10019
orms	-10020
size	-10021
ucks	-10022
umbs	-10023
▁12-	-10024
▁ark	-10025
▁caf	-10026
▁dim	-10027
▁eru	-10028
▁fda	-10029
▁gad	-10030
▁inn	-10031
▁kir	-10032
▁kit	-10033
▁pic	-10034
▁pou	-10035
▁sco	-10036
▁tyr	-10037
arded	-10038
clear	-10039
naiss	-10040
▁1995	-10041
▁apes	-10042
▁cass	-10043
▁chat	-10044
▁cine	-10045
▁cycl	-10046
▁dome	-10047
▁glow	-10048
▁grim	-10049
▁jews	-10050
▁merg	-10051
▁node	-10052
▁orth	-10053
▁pond	-10054
▁reck	-10055
▁seaf	-10056
▁toll	-10057
▁whoa	-10058
▁wore	-10059
▁yard	-10060
around	-10061
liness	-10062
ograms	-10063
rhythm	-10064
uminum	-10065
▁chord	-10066
▁cloth	-10067
▁flesh	-10068
▁greet	-10069
▁hoped	-10070
▁laund	-10071
▁loans	-10072
▁octop	-10073
▁proph	-10074
▁rigid	-10075
▁shuff	-10076
▁slave	-10077
▁syria	-10078
▁tokyo	-10079
▁wrest	-10080
certain	-10081
ictions	-10082
imeters	-10083
▁abroad	-10084
▁absurd	-10085
▁apples	-10086
▁behold	-10087
▁brutal	-10088
▁census	-10089
▁copper	-10090
▁daniel	-10091
▁dishes	-10092
▁enrich	-10093
▁intend	-10094
▁joseph	-10095
▁peanut	-10096
▁potent	-10097
▁precip	-10098
▁puppet	-10099
▁serves	-10100
▁sierra	-10101
▁soccer	-10102
▁spiral	-10103
▁tagged	-10104
▁viscer	-10105
▁waited	-10106
▁warmer	-10107
▁wasted	-10108
▁altered	-10109
▁beetles	-10110
▁charged	-10111
▁decides	-10112
▁desktop	-10113
▁endless	-10114
▁eternal	-10115
▁exhibit	-10116
▁gardens	-10117
▁grabbed	-10118
▁himalay	-10119
▁kennedy	-10120
▁markers	-10121
▁ordered	-10122
▁segment	-10123
▁shifted	-10124
▁sulfide	-10125
▁surveys	-10126
▁tuesday	-10127
ilitation	-10128
naissance	-10129
▁annivers	-10130
▁assemble	-10131
▁cocktail	-10132
▁deciding	-10133
▁defining	-10134
▁envision	-10135
▁explored	-10136
▁friction	-10137
▁habitats	-10138
▁helpless	-10139
▁humility	-10140
▁improvis	-10141
▁managing	-10142
▁maneuver	-10143
▁motivate	-10144
▁obsolete	-10145
▁receptor	-10146
▁regional	-10147
▁revenues	-10148
▁simulate	-10149
▁singular	-10150
▁symbolic	-10151
▁visiting	-10152
▁astronaut	-10153
▁blueprint	-10154
▁celebrity	-10155
▁consensus	-10156
▁consuming	-10157
▁contained	-10158
▁fishermen	-10159
▁greenland	-10160
▁magazines	-10161
▁millennia	-10162
▁portraits	-10163
▁precision	-10164
▁principal	-10165
▁replacing	-10166
▁disturbing	-10167
▁millennium	-10168
▁responding	-10169
▁embarrassed	-10170
▁netherlands	-10171
▁progression	-10172
▁improvements	-10173
▁philosophers	-10174
▁prescription	-10175
▁satisfaction	-10176
▁exponentially	-10177
▁investigation	-10178
▁hallucinations	-10179
-2	-10180
dad	-10181
iva	-10182
oly	-10183
rah	-10184
▁52	-10185
▁96	-10186
▁ja	-10187
alia	-10188
anch	-10189
bean	-10190
cult	-10191
imed	-10192
math	-10193
orth	-10194
rels	-10195
umen	-10196
▁arc	-10197
▁bip	-10198
▁blo	-10199
▁dvd	-10200
▁fou	-10201
▁hyp	-10202
▁jup	-10203
▁unw	-10204
▁zim	-10205
bling	-10206
ctive	-10207
front	-10208
india	-10209
ourse	-10210
piece	-10211
ppers	-10212
thals	-10213
▁aunt	-10214
▁aven	-10215
▁bore	-10216
▁dens	-10217
▁depr	-10218
▁disk	-10219
▁edit	-10220
▁enab	-10221
▁goat	-10222
▁jord	-10223
▁pent	-10224
▁rank	-10225
▁sang	-10226
▁tale	-10227
▁thro	-10228
▁vene	-10229
action	-10230
ghetti	-10231
iverse	-10232
recent	-10233
unting	-10234
▁alert	-10235
▁asset	-10236
▁brick	-10237
▁buses	-10238
▁clips	-10239
▁clues	-10240
▁drama	-10241
▁dread	-10242
▁ethan	-10243
▁fever	-10244
▁harsh	-10245
▁infra	-10246
▁jumps	-10247
▁loyal	-10248
▁milky	-10249
▁morph	-10250
▁noisy	-10251
▁pipes	-10252
▁pound	-10253
▁regul	-10254
▁rises	-10255
▁seals	-10256
▁steep	-10257
▁taboo	-10258
ouncing	-10259
ructive	-10260
▁alaska	-10261
▁ambass	-10262
▁asleep	-10263
▁beside	-10264
▁candle	-10265
▁contag	-10266
▁cracks	-10267
▁empath	-10268
▁equity	-10269
▁filmed	-10270
▁folded	-10271
▁graphs	-10272
▁handed	-10273
▁kicked	-10274
▁legisl	-10275
▁mature	-10276
▁metals	-10277
▁mixing	-10278
▁presum	-10279
▁queens	-10280
▁reader	-10281
▁resemb	-10282
▁scheme	-10283
▁submit	-10284
▁traces	-10285
▁treaty	-10286
▁viewed	-10287
▁virtue	-10288
▁wright	-10289
building	-10290
whenever	-10291
▁blessed	-10292
▁consent	-10293
▁deficit	-10294
▁greatly	-10295
▁jupiter	-10296
▁leopard	-10297
▁masters	-10298
▁melting	-10299
▁mirrors	-10300
▁mixture	-10301
▁monster	-10302
▁penalty	-10303
▁praying	-10304
▁refused	-10305
▁sensing	-10306
▁shaking	-10307
▁shelves	-10308
▁squeeze	-10309
▁strikes	-10310
▁thermal	-10311
▁tightly	-10312
▁transit	-10313
▁warrior	-10314
meanwhile	-10315
therefore	-10316
▁acoustic	-10317
▁ambition	-10318
▁attempts	-10319
▁basement	-10320
▁chapters	-10321
▁checking	-10322
▁elevator	-10323
▁feminist	-10324
▁gasoline	-10325
▁lectures	-10326
▁magician	-10327
▁marathon	-10328
▁resident	-10329
▁scaffold	-10330
▁sticking	-10331
▁surgical	-10332
▁talented	-10333
▁weakness	-10334
ifications	-10335
▁aristotle	-10336
▁breakdown	-10337
▁cardboard	-10338
▁isolation	-10339
▁judgments	-10340
▁massively	-10341
▁promoting	-10342
▁resilient	-10343
▁secondary	-10344
▁spaghetti	-10345
▁summarize	-10346
▁apartments	-10347
▁chromosome	-10348
▁conceptual	-10349
▁disappears	-10350
▁disruptive	-10351
▁inherently	-10352
▁inventions	-10353
▁millimeter	-10354
▁calculation	-10355
▁disciplines	-10356
▁empowerment	-10357
▁frequencies	-10358
▁implemented	-10359
▁investigate	-10360
▁orientation	-10361
▁practically	-10362
▁republicans	-10363
▁appreciation	-10364
▁authenticity	-10365
▁disabilities	-10366
▁laboratories	-10367
▁neanderthals	-10368
▁perspectives	-10369
▁configuration	-10370
▁gravitational	-10371
▁rehabilitation	-10372
▁scientifically	-10373
18	-10374
ju	-10375
▁(	-10376
300	-10377
ben	-10378
bro	-10379
dog	-10380
eem	-10381
ena	-10382
ili	-10383
rie	-10384
una	-10385
zzy	-10386
▁2,	-10387
▁47	-10388
▁86	-10389
▁mt	-10390
▁ow	-10391
asha	-10392
aste	-10393
bill	-10394
ched	-10395
eyed	-10396
hara	-10397
lvia	-10398
robi	-10399
sure	-10400
▁ape	-10401
▁bid	-10402
▁hmm	-10403
▁lem	-10404
▁mun	-10405
▁naz	-10406
▁owe	-10407
▁pav	-10408
▁ron	-10409
▁vas	-10410
▁vin	-10411
▁woo	-10412
0,000	-10413
actic	-10414
ccoli	-10415
ffiti	-10416
oding	-10417
▁brig	-10418
▁bugs	-10419
▁debr	-10420
▁dick	-10421
▁font	-10422
▁hump	-10423
▁lane	-10424
▁menu	-10425
▁nich	-10426
▁plut	-10427
▁slog	-10428
▁solo	-10429
carbon	-10430
depend	-10431
ilated	-10432
iments	-10433
itated	-10434
orters	-10435
theses	-10436
verted	-10437
▁8,000	-10438
▁arena	-10439
▁bonds	-10440
▁colom	-10441
▁craig	-10442
▁divid	-10443
▁draws	-10444
▁flush	-10445
▁kevin	-10446
▁knees	-10447
▁macro	-10448
▁neutr	-10449
▁poems	-10450
▁qaeda	-10451
▁recur	-10452
▁sarah	-10453
▁slept	-10454
▁trium	-10455
conomic	-10456
ulative	-10457
▁andrew	-10458
▁avatar	-10459
▁casual	-10460
▁cataly	-10461
▁cookie	-10462
▁divine	-10463
▁guitar	-10464
▁hugely	-10465
▁humble	-10466
▁imagin	-10467
▁ironic	-10468
▁kansas	-10469
▁metrop	-10470
▁mouths	-10471
▁multin	-10472
▁powder	-10473
▁prayer	-10474
▁salary	-10475
▁speeds	-10476
▁stairs	-10477
▁submar	-10478
▁typing	-10479
▁upward	-10480
▁viable	-10481
▁applies	-10482
▁appoint	-10483
▁ashamed	-10484
▁budgets	-10485
▁charter	-10486
▁counsel	-10487
▁crashes	-10488
▁dismiss	-10489
▁editors	-10490
▁farther	-10491
▁forgive	-10492
▁honored	-10493
▁jumping	-10494
▁matches	-10495
▁museums	-10496
▁primate	-10497
▁ratings	-10498
▁reforms	-10499
▁stephen	-10500
▁thereby	-10501
▁upright	-10502
izational	-10503
▁aluminum	-10504
▁canadian	-10505
▁circular	-10506
▁columbia	-10507
▁consists	-10508
▁displays	-10509
▁embodied	-10510
▁goodness	-10511
▁intimacy	-10512
▁misunder	-10513
▁nonsense	-10514
▁numerous	-10515
▁petition	-10516
▁stressed	-10517
▁thinkers	-10518
▁thorough	-10519
▁uniquely	-10520
▁activated	-10521
▁bombsight	-10522
▁container	-10523
▁countless	-10524
▁demograph	-10525
▁exercises	-10526
▁finishing	-10527
▁hurricane	-10528
▁metabolic	-10529
▁observing	-10530
▁obsession	-10531
▁skeptical	-10532
▁staircase	-10533
▁surviving	-10534
▁therapist	-10535
▁accumulate	-10536
▁addressing	-10537
▁congestion	-10538
▁empowering	-10539
▁frightened	-10540
▁intriguing	-10541
▁journalism	-10542
▁opposition	-10543
▁presenting	-10544
▁prevalence	-10545
▁profitable	-10546
▁propaganda	-10547
▁reflective	-10548
▁anniversary	-10549
▁microscopic	-10550
▁psychiatric	-10551
▁regulations	-10552
▁renaissance	-10553
▁disappointed	-10554
▁manipulation	-10555
▁presidential	-10556
▁multinational	-10557
▁participating	-10558
▁revolutionary	-10559
▁spontaneously	-10560
▁electromagnetic	-10561
bj	-10562
wk	-10563
bee	-10564
cet	-10565
cur	-10566
fit	-10567
omp	-10568
rey	-10569
sex	-10570
udd	-10571
▁34	-10572
▁43	-10573
▁46	-10574
▁bh	-10575
▁ms	-10576
adel	-10577
aver	-10578
chel	-10579
desp	-10580
glob	-10581
hope	-10582
ilib	-10583
mile	-10584
phia	-10585
pted	-10586
rose	-10587
uted	-10588
▁1.5	-10589
▁24-	-10590
▁dal	-10591
▁eco	-10592
▁gel	-10593
▁ner	-10594
▁oak	-10595
▁osc	-10596
▁soy	-10597
alore	-10598
close	-10599
green	-10600
oster	-10601
sight	-10602
sored	-10603
thood	-10604
▁bert	-10605
▁eats	-10606
▁fier	-10607
▁folk	-10608
▁heck	-10609
▁herd	-10610
▁nike	-10611
▁offe	-10612
▁puff	-10613
▁rays	-10614
▁scra	-10615
▁unre	-10616
accept	-10617
ailand	-10618
apagos	-10619
consum	-10620
ements	-10621
formed	-10622
notice	-10623
redict	-10624
▁boots	-10625
▁carib	-10626
▁dimin	-10627
▁fungi	-10628
▁hatch	-10629
▁heter	-10630
▁moder	-10631
▁nepal	-10632
▁paths	-10633
▁perse	-10634
▁simul	-10635
▁spite	-10636
▁stamp	-10637
▁stare	-10638
▁toast	-10639
holders	-10640
inating	-10641
ocratic	-10642
▁15,000	-10643
▁admire	-10644
▁angels	-10645
▁assure	-10646
▁banned	-10647
▁buddha	-10648
▁cambod	-10649
▁checks	-10650
▁cosmos	-10651
▁fruits	-10652
▁hatred	-10653
▁helmet	-10654
▁joshua	-10655
▁lately	-10656
▁luther	-10657
▁noises	-10658
▁periph	-10659
▁reserv	-10660
▁sahara	-10661
▁sooner	-10662
▁sticky	-10663
▁storms	-10664
▁timing	-10665
▁underm	-10666
▁update	-10667
▁vaccin	-10668
ifferent	-10669
ilibrium	-10670
▁bananas	-10671
▁buttons	-10672
▁copying	-10673
▁emerges	-10674
▁explode	-10675
▁generic	-10676
▁grammar	-10677
▁iceberg	-10678
▁premise	-10679
▁pricing	-10680
▁relates	-10681
▁stewart	-10682
▁submers	-10683
▁touches	-10684
▁abundant	-10685
▁accommod	-10686
▁broccoli	-10687
▁champion	-10688
▁composed	-10689
▁deserves	-10690
▁detected	-10691
▁diamonds	-10692
▁famously	-10693
▁festival	-10694
▁minerals	-10695
▁modeling	-10696
▁patience	-10697
▁plankton	-10698
▁planting	-10699
▁portugal	-10700
▁prospect	-10701
▁purchase	-10702
▁reflects	-10703
▁regulate	-10704
▁shepherd	-10705
▁stepping	-10706
▁bangalore	-10707
▁compounds	-10708
▁emphasize	-10709
▁enlighten	-10710
▁galapagos	-10711
▁involving	-10712
▁jefferson	-10713
▁mosquitos	-10714
▁nightmare	-10715
▁processor	-10716
▁realities	-10717
▁returning	-10718
▁sexuality	-10719
▁spaceship	-10720
▁tasmanian	-10721
▁unpredict	-10722
▁acceptance	-10723
▁anesthesia	-10724
▁beneficial	-10725
▁celebrated	-10726
▁connectome	-10727
▁fertilizer	-10728
▁invitation	-10729
▁physiology	-10730
▁playground	-10731
▁politician	-10732
▁recognizes	-10733
▁strengthen	-10734
▁supportive	-10735
▁correlation	-10736
▁functioning	-10737
▁nonetheless	-10738
▁perceptions	-10739
▁replacement	-10740
▁researching	-10741
▁substantial	-10742
interestingly	-10743
▁explanations	-10744
▁collaborators	-10745
.7	-10746
dd	-10747
sl	-10748
cel	-10749
dem	-10750
flu	-10751
jud	-10752
lla	-10753
pop	-10754
weg	-10755
▁74	-10756
▁ny	-10757
▁oy	-10758
acqu	-10759
agan	-10760
bral	-10761
etal	-10762
fare	-10763
intu	-10764
mann	-10765
mate	-10766
ptic	-10767
rays	-10768
▁125	-10769
▁450	-10770
▁adh	-10771
▁bib	-10772
▁cum	-10773
▁fid	-10774
▁gag	-10775
▁hay	-10776
▁kle	-10777
▁tai	-10778
▁wre	-10779
aches	-10780
akers	-10781
apped	-10782
babwe	-10783
bbing	-10784
cycle	-10785
etary	-10786
fight	-10787
hello	-10788
sorry	-10789
story	-10790
width	-10791
works	-10792
▁1997	-10793
▁alar	-10794
▁beck	-10795
▁bent	-10796
▁bern	-10797
▁brad	-10798
▁ceos	-10799
▁conj	-10800
▁crab	-10801
▁deci	-10802
▁extr	-10803
▁obsc	-10804
▁pity	-10805
▁pose	-10806
▁rend	-10807
▁ross	-10808
▁rust	-10809
▁seam	-10810
▁tips	-10811
▁ware	-10812
africa	-10813
angelo	-10814
handed	-10815
humans	-10816
others	-10817
pretty	-10818
stairs	-10819
▁amput	-10820
▁arous	-10821
▁daddy	-10822
▁danny	-10823
▁folds	-10824
▁forum	-10825
▁fuzzy	-10826
▁georg	-10827
▁ghost	-10828
▁incon	-10829
▁lagos	-10830
▁namib	-10831
▁newly	-10832
▁occas	-10833
▁patri	-10834
▁piles	-10835
▁pumps	-10836
▁sells	-10837
▁tuned	-10838
▁twins	-10839
▁venus	-10840
▁wiped	-10841
▁wives	-10842
clearly	-10843
despite	-10844
frontal	-10845
iterate	-10846
version	-10847
▁bitter	-10848
▁circul	-10849
▁debris	-10850
▁earned	-10851
▁floors	-10852
▁greeks	-10853
▁hooked	-10854
▁insult	-10855
▁intric	-10856
▁kosovo	-10857
▁laying	-10858
▁prince	-10859
▁scroll	-10860
▁shoots	-10861
▁stigma	-10862
▁tribal	-10863
▁twenty	-10864
▁washed	-10865
▁wished	-10866
aggering	-10867
oriented	-10868
restrial	-10869
▁amateur	-10870
▁bankers	-10871
▁catalog	-10872
▁charlie	-10873
▁chasing	-10874
▁contest	-10875
▁divorce	-10876
▁dreamed	-10877
▁easiest	-10878
▁equator	-10879
▁expense	-10880
▁frontal	-10881
▁honesty	-10882
▁impulse	-10883
▁lighter	-10884
▁needles	-10885
▁octopus	-10886
▁onstage	-10887
▁persons	-10888
▁philipp	-10889
▁reveals	-10890
▁sadness	-10891
▁slowing	-10892
▁substit	-10893
▁supreme	-10894
▁texting	-10895
▁vitamin	-10896
▁wonders	-10897
istically	-10898
mentation	-10899
▁admitted	-10900
▁advocate	-10901
▁altruism	-10902
▁ancestor	-10903
▁baseline	-10904
▁cerebral	-10905
▁chickens	-10906
▁confined	-10907
▁contents	-10908
▁endeavor	-10909
▁gigantic	-10910
▁graffiti	-10911
▁imprison	-10912
▁jeopardy	-10913
▁juvenile	-10914
▁operated	-10915
▁passions	-10916
▁promises	-10917
▁siblings	-10918
▁superior	-10919
▁temporal	-10920
▁thailand	-10921
▁zimbabwe	-10922
generation	-10923
▁analyzing	-10924
▁attacking	-10925
▁committee	-10926
▁illusions	-10927
▁inclusive	-10928
▁kilometer	-10929
▁processed	-10930
▁respected	-10931
▁stimulate	-10932
▁successes	-10933
▁sustained	-10934
▁variables	-10935
▁voluntary	-10936
engineering	-10937
▁accurately	-10938
▁convincing	-10939
▁dependence	-10940
▁disgusting	-10941
▁enthusiasm	-10942
▁generosity	-10943
▁powerpoint	-10944
▁smartphone	-10945
▁statements	-10946
▁subjective	-10947
▁documenting	-10948
▁dysfunction	-10949
▁equilibrium	-10950
▁frustrating	-10951
▁questioning	-10952
▁rainforests	-10953
▁remembering	-10954
▁storyteller	-10955
▁transmitted	-10956
▁biologically	-10957
▁deliberately	-10958
▁individually	-10959
▁intersection	-10960
▁partnerships	-10961
▁reproduction	-10962
▁personalities	-10963
▁characteristic	-10964
▁entrepreneurial	-10965
80	-10966
eb	-10967
fg	-10968
hey	-10969
isc	-10970
mes	-10971
omy	-10972
▁mi	-10973
auth	-10974
home	-10975
inch	-10976
inea	-10977
mail	-10978
oven	-10979
wall	-10980
▁1.3	-10981
▁geo	-10982
▁lak	-10983
▁mes	-10984
▁ngo	-10985
▁pel	-10986
▁ush	-10987
cture	-10988
david	-10989
event	-10990
idesp	-10991
ivals	-10992
ocity	-10993
pound	-10994
roots	-10995
uting	-10996
vance	-10997
▁1994	-10998
▁beds	-10999
▁cort	-11000
▁cuba	-11001
▁duty	-11002
▁inqu	-11003
▁keen	-11004
▁lama	-11005
▁lips	-11006
▁lith	-11007
▁lump	-11008
▁mama	-11009
▁moma	-11010
▁pron	-11011
▁slum	-11012
▁stir	-11013
▁tedx	-11014
▁trap	-11015
giving	-11016
global	-11017
lights	-11018
minded	-11019
ortion	-11020
ounded	-11021
▁alike	-11022
▁beast	-11023
▁bonus	-11024
▁canal	-11025
▁chalk	-11026
▁chunk	-11027
▁codes	-11028
▁crank	-11029
▁cried	-11030
▁deter	-11031
▁diego	-11032
▁empir	-11033
▁faint	-11034
▁hairs	-11035
▁incar	-11036
▁kidna	-11037
▁lexic	-11038
▁relie	-11039
▁rolls	-11040
▁rover	-11041
▁suits	-11042
▁towel	-11043
fulness	-11044
genesis	-11045
million	-11046
writing	-11047
▁apollo	-11048
▁asthma	-11049
▁benign	-11050
▁biases	-11051
▁bloody	-11052
▁cement	-11053
▁cinema	-11054
▁confir	-11055
▁cousin	-11056
▁crocod	-11057
▁exceed	-11058
▁guinea	-11059
▁league	-11060
▁mutual	-11061
▁nicely	-11062
▁norweg	-11063
▁pilots	-11064
▁purely	-11065
▁senate	-11066
▁snakes	-11067
▁steady	-11068
▁tricky	-11069
▁triple	-11070
▁violin	-11071
assembly	-11072
consider	-11073
▁auditor	-11074
▁babylon	-11075
▁basking	-11076
▁browser	-11077
▁chaotic	-11078
▁chemist	-11079
▁cousins	-11080
▁crystal	-11081
▁devoted	-11082
▁dispers	-11083
▁examine	-11084
▁jewelry	-11085
▁joining	-11086
▁linking	-11087
▁mastery	-11088
▁minimal	-11089
▁montana	-11090
▁morally	-11091
▁newborn	-11092
▁notions	-11093
▁nucleus	-11094
▁pathway	-11095
▁recruit	-11096
▁reinfor	-11097
▁rockets	-11098
▁shadows	-11099
▁subsequ	-11100
▁swedish	-11101
▁unified	-11102
▁victory	-11103
▁viewing	-11104
condition	-11105
idespread	-11106
▁advertis	-11107
▁applause	-11108
▁buddhist	-11109
▁commonly	-11110
▁equipped	-11111
▁guardian	-11112
▁infinity	-11113
▁infrared	-11114
▁marginal	-11115
▁michigan	-11116
▁miracles	-11117
▁obstacle	-11118
▁operates	-11119
▁operator	-11120
▁outbreak	-11121
▁passport	-11122
▁pressing	-11123
▁producer	-11124
▁pursuing	-11125
▁register	-11126
▁sections	-11127
▁supports	-11128
▁visitors	-11129
eventually	-11130
▁apologize	-11131
▁argentina	-11132
▁assistant	-11133
▁cathedral	-11134
▁democrats	-11135
▁directors	-11136
▁displaced	-11137
▁distorted	-11138
▁galleries	-11139
▁impressed	-11140
▁intervene	-11141
▁libraries	-11142
▁lightning	-11143
▁limestone	-11144
▁marijuana	-11145
▁northeast	-11146
▁practiced	-11147
▁projected	-11148
▁recovered	-11149
▁sequenced	-11150
▁strengths	-11151
▁struggled	-11152
▁acceptable	-11153
▁accounting	-11154
▁adaptation	-11155
▁diagnostic	-11156
▁disconnect	-11157
▁pedestrian	-11158
▁procedures	-11159
▁quantities	-11160
▁regenerate	-11161
▁regulation	-11162
▁staggering	-11163
▁standpoint	-11164
▁adolescence	-11165
▁astronomers	-11166
▁chromosomes	-11167
▁complaining	-11168
▁controversy	-11169
▁countryside	-11170
▁dragonflies	-11171
▁expectation	-11172
▁stimulation	-11173
▁willingness	-11174
▁disappearing	-11175
▁nevertheless	-11176
▁refrigerator	-11177
▁independently	-11178
ni	-11179
rd	-11180
600	-11181
gon	-11182
goo	-11183
gue	-11184
tom	-11185
uch	-11186
▁53	-11187
aman	-11188
cium	-11189
core	-11190
ctar	-11191
fund	-11192
ican	-11193
isan	-11194
nels	-11195
neum	-11196
zuel	-11197
▁50-	-11198
▁900	-11199
▁aph	-11200
▁lhc	-11201
▁nai	-11202
▁obe	-11203
▁rna	-11204
▁sap	-11205
▁sms	-11206
arial	-11207
berty	-11208
count	-11209
gered	-11210
graph	-11211
inger	-11212
liath	-11213
lical	-11214
opian	-11215
rants	-11216
rophe	-11217
stick	-11218
wheel	-11219
wired	-11220
▁cram	-11221
▁ebay	-11222
▁gosh	-11223
▁grey	-11224
▁hood	-11225
▁moms	-11226
▁mund	-11227
▁nail	-11228
▁quot	-11229
▁ripp	-11230
▁slam	-11231
▁slip	-11232
▁sput	-11233
▁tink	-11234
▁trek	-11235
angers	-11236
cities	-11237
energy	-11238
indust	-11239
integr	-11240
irling	-11241
ogenic	-11242
orship	-11243
resist	-11244
taking	-11245
▁7,000	-11246
▁arise	-11247
▁dalai	-11248
▁dates	-11249
▁doses	-11250
▁dwell	-11251
▁fails	-11252
▁glory	-11253
▁lakes	-11254
▁leone	-11255
▁lewis	-11256
▁libya	-11257
▁midst	-11258
▁noble	-11259
▁peaks	-11260
▁pearl	-11261
▁pitts	-11262
▁repet	-11263
▁siber	-11264
▁spike	-11265
▁steer	-11266
▁strat	-11267
▁sucks	-11268
▁swing	-11269
▁symbi	-11270
▁wells	-11271
acities	-11272
inburgh	-11273
richard	-11274
suppose	-11275
umental	-11276
▁archae	-11277
▁bounce	-11278
▁coined	-11279
▁dancer	-11280
▁defect	-11281
▁depths	-11282
▁ethics	-11283
▁expose	-11284
▁facult	-11285
▁fixing	-11286
▁hammer	-11287
▁heroin	-11288
▁johnny	-11289
▁judges	-11290
▁louder	-11291
▁marked	-11292
▁nectar	-11293
▁retina	-11294
▁scarce	-11295
▁singer	-11296
▁truths	-11297
▁voters	-11298
adelphia	-11299
conflict	-11300
recently	-11301
specific	-11302
▁250,000	-11303
▁anatomy	-11304
▁blocked	-11305
▁brainst	-11306
▁careers	-11307
▁confirm	-11308
▁cracked	-11309
▁crushed	-11310
▁denmark	-11311
▁desires	-11312
▁goliath	-11313
▁harmful	-11314
▁illumin	-11315
▁monsoon	-11316
▁nairobi	-11317
▁posture	-11318
▁rescued	-11319
▁secular	-11320
▁skilled	-11321
▁summary	-11322
▁surplus	-11323
▁tickets	-11324
▁torture	-11325
▁triumph	-11326
▁worship	-11327
▁accompan	-11328
▁adaptive	-11329
▁assuming	-11330
▁athletes	-11331
▁balanced	-11332
▁calendar	-11333
▁colorful	-11334
▁constitu	-11335
▁daylight	-11336
▁declared	-11337
▁doubling	-11338
▁dreaming	-11339
▁evaluate	-11340
▁executed	-11341
▁exploded	-11342
▁headline	-11343
▁modified	-11344
▁presents	-11345
▁primates	-11346
▁rainfall	-11347
▁releases	-11348
▁sacrific	-11349
▁secondly	-11350
▁stealing	-11351
▁suburban	-11352
▁unaccept	-11353
▁venezuel	-11354
ustainable	-11355
▁aggregate	-11356
▁automatic	-11357
▁champions	-11358
▁fragments	-11359
▁geometric	-11360
▁graduates	-11361
▁humankind	-11362
▁inflation	-11363
▁mythology	-11364
▁preserved	-11365
▁releasing	-11366
▁similarly	-11367
▁supercond	-11368
▁attraction	-11369
▁attributes	-11370
▁basketball	-11371
▁conscience	-11372
▁globalized	-11373
▁harvesting	-11374
▁imperative	-11375
▁meditation	-11376
▁multiverse	-11377
▁parameters	-11378
▁repeatedly	-11379
▁catastrophe	-11380
▁celebrating	-11381
▁conferences	-11382
▁flexibility	-11383
▁introducing	-11384
▁maintaining	-11385
▁wonderfully	-11386
▁acceleration	-11387
▁consistently	-11388
▁philadelphia	-11389
▁contradiction	-11390
▁manufacturers	-11391
cav	-11392
dar	-11393
god	-11394
mia	-11395
nin	-11396
zer	-11397
▁97	-11398
▁ku	-11399
amas	-11400
arks	-11401
atts	-11402
axis	-11403
bery	-11404
bled	-11405
bone	-11406
copy	-11407
flow	-11408
inas	-11409
isha	-11410
moth	-11411
orph	-11412
ousy	-11413
oves	-11414
rine	-11415
uled	-11416
▁180	-11417
▁cav	-11418
▁hij	-11419
▁lol	-11420
▁max	-11421
▁nsa	-11422
▁rip	-11423
▁rud	-11424
▁von	-11425
ached	-11426
anted	-11427
aurus	-11428
backs	-11429
ceton	-11430
ected	-11431
ensed	-11432
essim	-11433
ilage	-11434
imony	-11435
langu	-11436
leans	-11437
quest	-11438
shine	-11439
stein	-11440
▁1975	-11441
▁1991	-11442
▁2015	-11443
▁bamb	-11444
▁barb	-11445
▁belo	-11446
▁cafe	-11447
▁fame	-11448
▁fasc	-11449
▁horn	-11450
▁leak	-11451
▁lind	-11452
▁matt	-11453
▁oecd	-11454
▁rept	-11455
▁skip	-11456
▁stam	-11457
▁unin	-11458
▁zamb	-11459
aching	-11460
engths	-11461
irable	-11462
lethal	-11463
levant	-11464
nature	-11465
tering	-11466
thered	-11467
▁acute	-11468
▁arose	-11469
▁boson	-11470
▁chore	-11471
▁crust	-11472
▁eager	-11473
▁elbow	-11474
▁firms	-11475
▁fleet	-11476
▁incub	-11477
▁limbs	-11478
▁moist	-11479
▁oblig	-11480
▁orang	-11481
▁pneum	-11482
▁recip	-11483
▁recla	-11484
▁sands	-11485
▁scare	-11486
▁scope	-11487
▁templ	-11488
▁tenth	-11489
▁vegas	-11490
▁wavel	-11491
▁withd	-11492
balance	-11493
iratory	-11494
justice	-11495
usually	-11496
▁acumen	-11497
▁agrees	-11498
▁ballet	-11499
▁banana	-11500
▁biased	-11501
▁bosnia	-11502
▁bucket	-11503
▁bypass	-11504
▁condom	-11505
▁elders	-11506
▁fights	-11507
▁hacker	-11508
▁labels	-11509
▁ladder	-11510
▁larvae	-11511
▁lester	-11512
▁listed	-11513
▁pessim	-11514
▁slowed	-11515
▁spades	-11516
▁spends	-11517
▁spouse	-11518
▁urgent	-11519
▁warren	-11520
▁wilson	-11521
business	-11522
ographer	-11523
speaking	-11524
vascular	-11525
▁400,000	-11526
▁calcium	-11527
▁checked	-11528
▁compens	-11529
▁donated	-11530
▁episode	-11531
▁fingert	-11532
▁fossils	-11533
▁heights	-11534
▁knocked	-11535
▁laundry	-11536
▁literal	-11537
▁migrate	-11538
▁orleans	-11539
▁posters	-11540
▁puberty	-11541
▁redisco	-11542
▁reduces	-11543
▁refined	-11544
▁regrets	-11545
▁reviews	-11546
▁scanned	-11547
▁spheres	-11548
▁squared	-11549
▁subscri	-11550
▁tracked	-11551
▁utility	-11552
▁winners	-11553
▁wounded	-11554
▁annoying	-11555
▁blocking	-11556
▁certific	-11557
▁civilian	-11558
▁climbers	-11559
▁diplomat	-11560
▁envelope	-11561
▁flourish	-11562
▁impaired	-11563
▁missions	-11564
▁mustache	-11565
▁optimize	-11566
▁persuade	-11567
▁potatoes	-11568
▁province	-11569
▁terminal	-11570
▁velocity	-11571
▁workshop	-11572
industrial	-11573
▁afterward	-11574
▁arbitrary	-11575
▁assembled	-11576
▁bandwidth	-11577
▁cartilage	-11578
▁cigarette	-11579
▁conductor	-11580
▁discussed	-11581
▁edinburgh	-11582
▁exclusive	-11583
▁filmmaker	-11584
▁improvise	-11585
▁mysteries	-11586
▁pregnancy	-11587
▁princeton	-11588
▁promising	-11589
▁relevance	-11590
▁selective	-11591
▁varieties	-11592
▁vibrating	-11593
▁worldview	-11594
▁articulate	-11595
▁auditorium	-11596
▁comparable	-11597
▁compressed	-11598
▁divergence	-11599
▁friendship	-11600
▁grassroots	-11601
▁pesticides	-11602
▁randomness	-11603
▁republican	-11604
▁suspicious	-11605
▁unemployed	-11606
▁widespread	-11607
▁accountable	-11608
▁aspirations	-11609
▁battlefield	-11610
▁calculating	-11611
▁destructive	-11612
▁eradication	-11613
▁problematic	-11614
▁spontaneous	-11615
▁astronomical	-11616
▁consideration	-11617
▁enlightenment	-11618
▁photographers	-11619
▁undergraduate	-11620
12	-11621
60	-11622
fa	-11623
jc	-11624
ko	-11625
rh	-11626
tz	-11627
cko	-11628
iza	-11629
izz	-11630
mom	-11631
ois	-11632
raz	-11633
rob	-11634
▁54	-11635
▁cn	-11636
▁ov	-11637
▁zo	-11638
adam	-11639
aire	-11640
bine	-11641
cale	-11642
coal	-11643
iner	-11644
john	-11645
leys	-11646
obic	-11647
ocks	-11648
open	-11649
plan	-11650
uate	-11651
wait	-11652
▁40-	-11653
▁bou	-11654
▁cer	-11655
▁dug	-11656
▁jay	-11657
▁lee	-11658
▁len	-11659
▁plu	-11660
▁pup	-11661
▁sha	-11662
▁tid	-11663
▁vig	-11664
apses	-11665
avors	-11666
early	-11667
enter	-11668
later	-11669
liers	-11670
metic	-11671
negie	-11672
ocamp	-11673
opoly	-11674
otive	-11675
plete	-11676
quite	-11677
shore	-11678
space	-11679
vania	-11680
▁abed	-11681
▁bunk	-11682
▁dorm	-11683
▁esca	-11684
▁fans	-11685
▁fred	-11686
▁gaze	-11687
▁peru	-11688
▁pops	-11689
▁sabb	-11690
▁sere	-11691
▁snap	-11692
▁swam	-11693
advant	-11694
asking	-11695
strong	-11696
thirty	-11697
▁arter	-11698
▁backs	-11699
▁baker	-11700
▁blade	-11701
▁desal	-11702
▁drift	-11703
▁fairy	-11704
▁guilt	-11705
▁hurts	-11706
▁inade	-11707
▁inexp	-11708
▁jokes	-11709
▁kings	-11710
▁lasts	-11711
▁mortg	-11712
▁ninth	-11713
▁parag	-11714
▁radar	-11715
▁resid	-11716
▁ruins	-11717
▁skies	-11718
▁skype	-11719
▁spawn	-11720
▁spine	-11721
▁votes	-11722
▁wrink	-11723
fashion	-11724
isecond	-11725
keeping	-11726
massive	-11727
ologies	-11728
▁avenue	-11729
▁bumble	-11730
▁camels	-11731
▁coding	-11732
▁crispr	-11733
▁defeat	-11734
▁differ	-11735
▁enters	-11736
▁entity	-11737
▁evergl	-11738
▁fierce	-11739
▁firmly	-11740
▁freeze	-11741
▁gallon	-11742
▁harass	-11743
▁heroic	-11744
▁hotter	-11745
▁improb	-11746
▁issued	-11747
▁misery	-11748
▁prejud	-11749
▁shield	-11750
▁slaves	-11751
▁sylvia	-11752
▁taller	-11753
▁tastes	-11754
▁tender	-11755
▁thirds	-11756
▁timber	-11757
▁titles	-11758
▁underp	-11759
attering	-11760
breaking	-11761
cellular	-11762
chemical	-11763
friendly	-11764
osterone	-11765
▁300,000	-11766
▁anytime	-11767
▁aquatic	-11768
▁atheist	-11769
▁erectus	-11770
▁ethanol	-11771
▁finland	-11772
▁forcing	-11773
▁funeral	-11774
▁heavens	-11775
▁justify	-11776
▁mundane	-11777
▁painter	-11778
▁portray	-11779
▁prisons	-11780
▁recycle	-11781
▁sailing	-11782
▁seafood	-11783
▁settled	-11784
▁shipped	-11785
▁singers	-11786
▁sputnik	-11787
▁symptom	-11788
▁volumes	-11789
americans	-11790
organized	-11791
▁agnostic	-11792
▁clapping	-11793
▁cleaning	-11794
▁commands	-11795
▁diagnose	-11796
▁drilling	-11797
▁enabling	-11798
▁fighters	-11799
▁founding	-11800
▁glaciers	-11801
▁happiest	-11802
▁insisted	-11803
▁midnight	-11804
▁observer	-11805
▁receiver	-11806
▁redefine	-11807
▁referred	-11808
▁russians	-11809
▁sensible	-11810
▁sessions	-11811
▁shortcut	-11812
▁shouting	-11813
▁stewards	-11814
▁stumbled	-11815
▁sunshine	-11816
▁veterans	-11817
▁visceral	-11818
▁accepting	-11819
▁caribbean	-11820
▁cellphone	-11821
▁certainty	-11822
▁declining	-11823
▁delighted	-11824
▁disadvant	-11825
▁educators	-11826
▁gratitude	-11827
▁hamburger	-11828
▁hippocamp	-11829
▁illnesses	-11830
▁implanted	-11831
▁intrinsic	-11832
▁kilograms	-11833
▁launching	-11834
▁nurturing	-11835
▁paralysis	-11836
▁parasites	-11837
▁pervasive	-11838
▁resonance	-11839
▁schooling	-11840
▁simulated	-11841
▁southeast	-11842
▁sovereign	-11843
▁submitted	-11844
▁survivors	-11845
▁wandering	-11846
▁assessment	-11847
▁coordinate	-11848
▁culturally	-11849
▁humanities	-11850
▁identities	-11851
▁pittsburgh	-11852
▁pollutants	-11853
▁programmer	-11854
▁reasonably	-11855
▁unintended	-11856
▁coincidence	-11857
▁commodities	-11858
▁conclusions	-11859
▁fundraising	-11860
▁initiatives	-11861
▁meaningless	-11862
▁millisecond	-11863
▁negotiation	-11864
▁reinventing	-11865
▁scholarship	-11866
▁specialists	-11867
▁demographics	-11868
▁neurogenesis	-11869
▁quantitative	-11870
▁testosterone	-11871
▁unacceptable	-11872
▁statistically	-11873
▁cybercriminals	-11874
▁environmentally	-11875
70	-11876
sb	-11877
ws	-11878
800	-11879
alt	-11880
emi	-11881
eve	-11882
mob	-11883
pot	-11884
syl	-11885
▁57	-11886
▁58	-11887
acle	-11888
bear	-11889
dest	-11890
eing	-11891
esty	-11892
find	-11893
grat	-11894
hill	-11895
hops	-11896
ials	-11897
imic	-11898
mach	-11899
name	-11900
rust	-11901
stal	-11902
type	-11903
uten	-11904
wire	-11905
zler	-11906
▁140	-11907
▁abu	-11908
▁bak	-11909
▁dav	-11910
▁han	-11911
▁inh	-11912
▁pas	-11913
▁pul	-11914
▁rum	-11915
▁wig	-11916
ahidi	-11917
asant	-11918
brain	-11919
erers	-11920
frame	-11921
gebra	-11922
ibera	-11923
illes	-11924
oping	-11925
▁1989	-11926
▁argu	-11927
▁auto	-11928
▁balk	-11929
▁bulk	-11930
▁cues	-11931
▁dall	-11932
▁dean	-11933
▁deny	-11934
▁eros	-11935
▁exit	-11936
▁goss	-11937
▁inex	-11938
▁lobe	-11939
▁mash	-11940
▁nerd	-11941
▁peps	-11942
▁plum	-11943
▁shir	-11944
▁sket	-11945
▁swar	-11946
▁tect	-11947
▁wage	-11948
▁writ	-11949
design	-11950
elines	-11951
esteem	-11952
google	-11953
hythms	-11954
ignant	-11955
linear	-11956
search	-11957
▁ambul	-11958
▁angel	-11959
▁awake	-11960
▁bikes	-11961
▁booth	-11962
▁excer	-11963
▁frees	-11964
▁grabs	-11965
▁halls	-11966
▁hobby	-11967
▁insur	-11968
▁jerry	-11969
▁kilos	-11970
▁landf	-11971
▁locom	-11972
▁myths	-11973
▁oppon	-11974
▁rhino	-11975
▁riots	-11976
▁roman	-11977
▁sanct	-11978
▁scand	-11979
▁snaps	-11980
▁surre	-11981
▁swamp	-11982
▁sword	-11983
▁theft	-11984
▁tread	-11985
▁tuber	-11986
alright	-11987
centric	-11988
develop	-11989
lection	-11990
product	-11991
teacher	-11992
▁arrows	-11993
▁balcon	-11994
▁bamboo	-11995
▁collar	-11996
▁cooler	-11997
▁copern	-11998
▁digits	-11999
▁expend	-12000
▁falcon	-12001
▁finite	-12002
▁incons	-12003
▁jordan	-12004
▁julian	-12005
▁lasted	-12006
▁learns	-12007
▁legend	-12008
▁malnut	-12009
▁mosque	-12010
▁nuclei	-12011
▁overse	-12012
▁philip	-12013
▁priest	-12014
▁prizes	-12015
▁prohib	-12016
▁radius	-12017
▁scaled	-12018
▁shares	-12019
▁slogan	-12020
▁sought	-12021
▁statue	-12022
▁thumbs	-12023
▁transf	-12024
▁valued	-12025
▁voyage	-12026
▁wilder	-12027
▁writes	-12028
ensively	-12029
ictional	-12030
sylvania	-12031
▁addicts	-12032
▁anxious	-12033
▁beaches	-12034
▁broadly	-12035
▁cabinet	-12036
▁caltech	-12037
▁cleaned	-12038
▁compact	-12039
▁curator	-12040
▁dragged	-12041
▁editing	-12042
▁gaining	-12043
▁georgia	-12044
▁hawking	-12045
▁holiday	-12046
▁hunters	-12047
▁manages	-12048
▁namibia	-12049
▁needing	-12050
▁placebo	-12051
▁quietly	-12052
▁reperto	-12053
▁rhythms	-12054
▁ringing	-12055
▁seasons	-12056
▁shuttle	-12057
▁somalia	-12058
▁sounded	-12059
▁teszler	-12060
▁volcano	-12061
▁warfare	-12062
▁wolfram	-12063
▁abnormal	-12064
▁backpack	-12065
▁blogging	-12066
▁bureaucr	-12067
▁carnegie	-12068
▁delicate	-12069
▁drowning	-12070
▁governor	-12071
▁incarcer	-12072
▁indirect	-12073
▁inviting	-12074
▁juggling	-12075
▁notebook	-12076
▁obtained	-12077
▁pentagon	-12078
▁portable	-12079
▁reactors	-12080
▁scotland	-12081
▁settings	-12082
▁sketches	-12083
▁strictly	-12084
▁treasure	-12085
▁unstable	-12086
▁volcanic	-12087
organizing	-12088
▁addressed	-12089
▁affection	-12090
▁ambiguity	-12091
▁campaigns	-12092
▁criticism	-12093
▁decentral	-12094
▁demanding	-12095
▁donations	-12096
▁educating	-12097
▁egyptians	-12098
▁eradicate	-12099
▁exquisite	-12100
▁honeybees	-12101
▁instances	-12102
▁instincts	-12103
▁intersect	-12104
▁marvelous	-12105
▁neocortex	-12106
▁palestine	-12107
▁pediatric	-12108
▁routinely	-12109
▁scenarios	-12110
▁southwest	-12111
▁stressful	-12112
▁synthesis	-12113
▁triangles	-12114
▁aesthetics	-12115
▁ambassador	-12116
▁animations	-12117
▁antibodies	-12118
▁appliances	-12119
▁attachment	-12120
▁cigarettes	-12121
▁explicitly	-12122
▁indication	-12123
▁infinitely	-12124
▁influences	-12125
▁nonviolent	-12126
▁registered	-12127
▁specialist	-12128
▁vegetation	-12129
▁accelerated	-12130
▁accompanied	-12131
▁appreciated	-12132
▁automobiles	-12133
▁circulation	-12134
▁continually	-12135
▁departments	-12136
▁ideological	-12137
▁negotiating	-12138
▁operational	-12139
▁requirement	-12140
▁suggestions	-12141
▁disconnected	-12142
▁incidentally	-12143
▁interconnect	-12144
▁malnutrition	-12145
▁pennsylvania	-12146
▁tremendously	-12147
▁unemployment	-12148
▁urbanization	-12149
▁appropriately	-12150
▁comprehensive	-12151
▁developmental	-12152
▁improvisation	-12153
▁unpredictable	-12154
▁organizational	-12155
15	-12156
sj	-12157
▁+	-12158
has	-12159
hed	-12160
ipt	-12161
odd	-12162
opa	-12163
rer	-12164
sad	-12165
ser	-12166
squ	-12167
uan	-12168
ulu	-12169
urb	-12170
▁59	-12171
▁ft	-12172
abad	-12173
acre	-12174
aids	-12175
alan	-12176
anim	-12177
arat	-12178
arer	-12179
bast	-12180
bons	-12181
brow	-12182
dney	-12183
eros	-12184
etts	-12185
inos	-12186
mich	-12187
onal	-12188
orse	-12189
prot	-12190
sens	-12191
wear	-12192
▁18-	-12193
▁185	-12194
▁2.5	-12195
▁aur	-12196
▁aus	-12197
▁cri	-12198
▁fee	-12199
▁gur	-12200
▁gym	-12201
▁kim	-12202
▁nie	-12203
▁nud	-12204
▁quo	-12205
▁ric	-12206
▁sid	-12207
▁tig	-12208
▁umb	-12209
▁wax	-12210
achus	-12211
amous	-12212
bands	-12213
borne	-12214
bucks	-12215
iraff	-12216
kings	-12217
lined	-12218
meter	-12219
resol	-12220
ucose	-12221
white	-12222
▁1940	-12223
▁1945	-12224
▁1993	-12225
▁amph	-12226
▁axes	-12227
▁blob	-12228
▁cann	-12229
▁clap	-12230
▁dash	-12231
▁deng	-12232
▁ease	-12233
▁feas	-12234
▁ipad	-12235
▁jill	-12236
▁jury	-12237
▁merm	-12238
▁milo	-12239
▁outs	-12240
▁peel	-12241
▁pets	-12242
▁prag	-12243
▁rear	-12244
▁rhet	-12245
▁sums	-12246
▁taxi	-12247
▁tilt	-12248
abytes	-12249
eighty	-12250
engers	-12251
imagin	-12252
imicry	-12253
necess	-12254
ocaust	-12255
ranean	-12256
verbal	-12257
▁agile	-12258
▁aquar	-12259
▁arrog	-12260
▁bands	-12261
▁banjo	-12262
▁bumps	-12263
▁centr	-12264
▁compr	-12265
▁dealt	-12266
▁delta	-12267
▁fatty	-12268
▁gamma	-12269
▁gifts	-12270
▁handy	-12271
▁icons	-12272
▁idiot	-12273
▁inert	-12274
▁merit	-12275
▁ozone	-12276
▁penis	-12277
▁pools	-12278
▁poses	-12279
▁pries	-12280
▁prose	-12281
▁rooft	-12282
▁sadly	-12283
▁shack	-12284
▁swell	-12285
▁tesla	-12286
believe	-12287
culosis	-12288
ethoven	-12289
hundred	-12290
inators	-12291
luckily	-12292
markets	-12293
ometers	-12294
science	-12295
sterdam	-12296
umbling	-12297
▁acquis	-12298
▁bookst	-12299
▁carcin	-12300
▁cardio	-12301
▁crafts	-12302
▁decomp	-12303
▁edited	-12304
▁embass	-12305
▁hollow	-12306
▁hotels	-12307
▁ideals	-12308
▁indoor	-12309
▁lenses	-12310
▁loaded	-12311
▁meadow	-12312
▁orgasm	-12313
▁poorly	-12314
▁quotes	-12315
▁reflex	-12316
▁resort	-12317
▁rooted	-12318
▁sulfur	-12319
▁taiwan	-12320
▁tennis	-12321
▁theirs	-12322
▁thrive	-12323
▁toxins	-12324
▁turbul	-12325
▁ultras	-12326
▁venice	-12327
▁waking	-12328
appropri	-12329
ithmetic	-12330
language	-12331
national	-12332
thetical	-12333
▁algebra	-12334
▁athlete	-12335
▁barrels	-12336
▁bluefin	-12337
▁congrat	-12338
▁crowded	-12339
▁deserts	-12340
▁gallons	-12341
▁glucose	-12342
▁koreans	-12343
▁mammoth	-12344
▁margins	-12345
▁mentors	-12346
▁metrics	-12347
▁nurture	-12348
▁partial	-12349
▁photons	-12350
▁pioneer	-12351
▁rehears	-12352
▁romance	-12353
▁sapiens	-12354
▁satisfy	-12355
▁scripts	-12356
▁thunder	-12357
▁tourist	-12358
▁wasting	-12359
achusetts	-12360
efficient	-12361
intuitive	-12362
▁approval	-12363
▁balloons	-12364
▁colonial	-12365
▁composer	-12366
▁crashing	-12367
▁crawling	-12368
▁distress	-12369
▁donation	-12370
▁duration	-12371
▁embraced	-12372
▁entitled	-12373
▁explorer	-12374
▁franklin	-12375
▁genomics	-12376
▁horrific	-12377
▁inconven	-12378
▁insecure	-12379
▁interrog	-12380
▁meanings	-12381
▁noticing	-12382
▁officers	-12383
▁paradise	-12384
▁photosyn	-12385
▁survivor	-12386
▁synapses	-12387
▁tedsters	-12388
▁threaten	-12389
▁academics	-12390
▁appearing	-12391
▁certified	-12392
▁charities	-12393
▁cognition	-12394
▁confusion	-12395
▁epidemics	-12396
▁execution	-12397
▁executive	-12398
▁explorers	-12399
▁histories	-12400
▁holocaust	-12401
▁imaginary	-12402
▁inconsist	-12403
▁injustice	-12404
▁intrigued	-12405
▁metaphors	-12406
▁ministers	-12407
▁norwegian	-12408
▁packaging	-12409
▁qualified	-12410
▁rejection	-12411
▁satisfied	-12412
▁starbucks	-12413
▁strangely	-12414
▁streaming	-12415
▁surprises	-12416
▁swallowed	-12417
▁triggered	-12418
▁venezuela	-12419
▁waterfall	-12420
▁altogether	-12421
▁beginnings	-12422
▁calculator	-12423
▁censorship	-12424
▁complained	-12425
▁distribute	-12426
▁everglades	-12427
▁excellence	-12428
▁guaranteed	-12429
▁innovators	-12430
▁irrelevant	-12431
▁irrigation	-12432
▁limitation	-12433
▁prefrontal	-12434
▁prioritize	-12435
▁propulsion	-12436
▁protective	-12437
▁repertoire	-12438
▁restricted	-12439
▁satisfying	-12440
▁temptation	-12441
▁worthwhile	-12442
▁citizenship	-12443
▁competitors	-12444
▁efficiently	-12445
▁existential	-12446
▁hippocampus	-12447
▁inefficient	-12448
▁instability	-12449
▁mammography	-12450
▁projections	-12451
▁prototyping	-12452
▁variability	-12453
▁achievements	-12454
▁combinations	-12455
▁metropolitan	-12456
▁neurological	-12457
▁reproductive	-12458
▁surroundings	-12459
▁tuberculosis	-12460
▁biotechnology	-12461
▁breakthroughs	-12462
▁massachusetts	-12463
▁discrimination	-12464
▁industrialized	-12465
▁mathematically	-12466
▁representatives	-12467
ho	-12468
kt	-12469
tm	-12470
aic	-12471
cro	-12472
dan	-12473
got	-12474
lan	-12475
nas	-12476
sen	-12477
too	-12478
▁ay	-12479
▁fm	-12480
▁si	-12481
▁um	-12482
amil	-12483
aser	-12484
blog	-12485
bott	-12486
cils	-12487
eman	-12488
help	-12489
iana	-12490
iflu	-12491
ingo	-12492
jour	-12493
nine	-12494
pace	-12495
rett	-12496
rina	-12497
sets	-12498
shot	-12499
▁160	-12500
▁2.0	-12501
▁bac	-12502
▁cue	-12503
▁dur	-12504
▁eag	-12505
▁gru	-12506
▁hug	-12507
▁ike	-12508
▁kam	-12509
▁onc	-12510
▁ove	-12511
▁piv	-12512
▁rab	-12513
▁sue	-12514
▁tad	-12515
anium	-12516
cuses	-12517
fifty	-12518
ibati	-12519
olith	-12520
regon	-12521
rians	-12522
ronto	-12523
thous	-12524
ucked	-12525
years	-12526
▁200-	-12527
▁adul	-12528
▁alan	-12529
▁anth	-12530
▁coma	-12531
▁dove	-12532
▁dude	-12533
▁dune	-12534
▁ecst	-12535
▁eman	-12536
▁envy	-12537
▁flop	-12538
▁gord	-12539
▁grip	-12540
▁knot	-12541
▁lazy	-12542
▁lied	-12543
▁mism	-12544
▁mite	-12545
▁oops	-12546
▁pine	-12547
▁pist	-12548
▁plun	-12549
▁prol	-12550
▁ramp	-12551
▁ruin	-12552
▁skys	-12553
▁ucla	-12554
▁yale	-12555
anting	-12556
either	-12557
growth	-12558
igrade	-12559
jacent	-12560
little	-12561
ocated	-12562
vering	-12563
worthy	-12564
▁allen	-12565
▁amino	-12566
▁blows	-12567
▁burns	-12568
▁cheet	-12569
▁cubic	-12570
▁delet	-12571
▁disse	-12572
▁dunes	-12573
▁epile	-12574
▁flown	-12575
▁gecko	-12576
▁germs	-12577
▁goats	-12578
▁homin	-12579
▁keith	-12580
▁kyoto	-12581
▁larry	-12582
▁lemon	-12583
▁lined	-12584
▁linux	-12585
▁loops	-12586
▁merch	-12587
▁petro	-12588
▁races	-12589
▁reads	-12590
▁rides	-12591
▁saint	-12592
▁simon	-12593
▁spraw	-12594
▁sting	-12595
▁tales	-12596
▁trait	-12597
▁tutor	-12598
▁unity	-12599
▁versa	-12600
atively	-12601
bastian	-12602
creatic	-12603
healthy	-12604
nostics	-12605
ressive	-12606
washing	-12607
western	-12608
▁academ	-12609
▁bhutan	-12610
▁compat	-12611
▁cooked	-12612
▁costly	-12613
▁dallas	-12614
▁denied	-12615
▁dining	-12616
▁giraff	-12617
▁inputs	-12618
▁jersey	-12619
▁kibera	-12620
▁oregon	-12621
▁pirate	-12622
▁poland	-12623
▁poured	-12624
▁reluct	-12625
▁sealed	-12626
▁shells	-12627
▁stocks	-12628
▁stunts	-12629
▁throws	-12630
▁thrust	-12631
▁varied	-12632
▁wallet	-12633
▁weekly	-12634
▁wolves	-12635
positive	-12636
▁apprent	-12637
▁beloved	-12638
▁boiling	-12639
▁complim	-12640
▁curtain	-12641
▁defines	-12642
▁erosion	-12643
▁excerpt	-12644
▁exhilar	-12645
▁expands	-12646
▁favelas	-12647
▁francis	-12648
▁inmates	-12649
▁inspect	-12650
▁kidneys	-12651
▁legally	-12652
▁liberia	-12653
▁mineral	-12654
▁missile	-12655
▁mustard	-12656
▁natasha	-12657
▁optimal	-12658
▁outdoor	-12659
▁overlap	-12660
▁placing	-12661
▁rabbits	-12662
▁railway	-12663
▁replied	-12664
▁retired	-12665
▁shallow	-12666
▁snowden	-12667
▁sterile	-12668
▁suburbs	-12669
▁tamiflu	-12670
▁telecom	-12671
▁titanic	-12672
▁toronto	-12673
▁tropics	-12674
▁tunisia	-12675
▁untouch	-12676
▁veterin	-12677
▁whisper	-12678
otherwise	-12679
wandering	-12680
▁alliance	-12681
▁assigned	-12682
▁auditory	-12683
▁backward	-12684
▁cambodia	-12685
▁collider	-12686
▁contacts	-12687
▁contexts	-12688
▁creators	-12689
▁crystall	-12690
▁degraded	-12691
▁emergent	-12692
▁employed	-12693
▁employee	-12694
▁feminine	-12695
▁liberals	-12696
▁maximize	-12697
▁migraine	-12698
▁occupied	-12699
▁pinpoint	-12700
▁prevents	-12701
▁resolved	-12702
▁schedule	-12703
▁smartest	-12704
▁societal	-12705
▁stimulus	-12706
▁unnecess	-12707
▁weekends	-12708
especially	-12709
scientists	-12710
▁amsterdam	-12711
▁beethoven	-12712
▁confusing	-12713
▁contracts	-12714
▁corridors	-12715
▁cultivate	-12716
▁darwinian	-12717
▁detectors	-12718
▁exhausted	-12719
▁extensive	-12720
▁fictional	-12721
▁himalayas	-12722
▁historian	-12723
▁imperfect	-12724
▁injection	-12725
▁northwest	-12726
▁orphanage	-12727
▁pneumonia	-12728
▁remembers	-12729
▁thylacine	-12730
▁whistling	-12731
▁australian	-12732
▁conspiracy	-12733
▁contagious	-12734
▁courageous	-12735
▁expressing	-12736
▁fingertips	-12737
▁homosexual	-12738
▁inadequate	-12739
▁incomplete	-12740
▁intangible	-12741
▁motorcycle	-12742
▁pancreatic	-12743
▁reflecting	-12744
▁settlement	-12745
▁arrangement	-12746
▁convenience	-12747
▁interdepend	-12748
▁medications	-12749
▁preventable	-12750
▁progressive	-12751
▁publication	-12752
▁respiratory	-12753
▁stereotypes	-12754
▁threatening	-12755
▁commandments	-12756
▁hypothetical	-12757
▁interviewing	-12758
▁manufacturer	-12759
▁michelangelo	-12760
▁negotiations	-12761
▁similarities	-12762
▁conservatives	-12763
▁experimenting	-12764
▁intrinsically	-12765
▁investigating	-12766
▁manifestation	-12767
▁traditionally	-12768
▁nanotechnology	-12769
▁bioluminescence	-12770
.2	-12771
40	-12772
fu	-12773
gb	-12774
mr	-12775
rl	-12776
400	-12777
aba	-12778
abs	-12779
awa	-12780
bec	-12781
chs	-12782
det	-12783
fts	-12784
gel	-12785
gus	-12786
obi	-12787
ods	-12788
sis	-12789
tan	-12790
tha	-12791
▁39	-12792
▁64	-12793
▁82	-12794
▁iq	-12795
brew	-12796
card	-12797
hran	-12798
insp	-12799
kers	-12800
lead	-12801
orig	-12802
otal	-12803
wild	-12804
ylan	-12805
▁14-	-12806
▁bmw	-12807
▁cad	-12808
▁dod	-12809
▁esp	-12810
▁gib	-12811
▁gum	-12812
▁imf	-12813
▁lag	-12814
▁rou	-12815
▁rus	-12816
▁viv	-12817
among	-12818
ashes	-12819
check	-12820
corps	-12821
erman	-12822
given	-12823
icism	-12824
ieval	-12825
izona	-12826
often	-12827
otent	-12828
shirt	-12829
stood	-12830
style	-12831
▁1800	-12832
▁1968	-12833
▁1973	-12834
▁asym	-12835
▁bald	-12836
▁bund	-12837
▁buys	-12838
▁coup	-12839
▁doct	-12840
▁dodo	-12841
▁doug	-12842
▁epic	-12843
▁heel	-12844
▁hers	-12845
▁ikea	-12846
▁kite	-12847
▁kitt	-12848
▁lett	-12849
▁lure	-12850
▁mola	-12851
▁numb	-12852
▁owns	-12853
▁pope	-12854
▁rage	-12855
▁reli	-12856
▁risd	-12857
▁swap	-12858
▁sync	-12859
▁unve	-12860
▁veil	-12861
ailing	-12862
atemal	-12863
atical	-12864
moving	-12865
ologic	-12866
places	-12867
plants	-12868
terror	-12869
unlike	-12870
▁annoy	-12871
▁beans	-12872
▁biode	-12873
▁clich	-12874
▁crown	-12875
▁dylan	-12876
▁erase	-12877
▁fraud	-12878
▁geese	-12879
▁grief	-12880
▁grind	-12881
▁hitch	-12882
▁ivory	-12883
▁kelly	-12884
▁nests	-12885
▁obliv	-12886
▁olive	-12887
▁paulo	-12888
▁pavil	-12889
▁pepsi	-12890
▁rebel	-12891
▁ruled	-12892
▁traff	-12893
▁trunk	-12894
▁urine	-12895
▁valve	-12896
▁vapor	-12897
▁verge	-12898
▁vinci	-12899
▁wages	-12900
▁wreck	-12901
comfort	-12902
sharing	-12903
▁abused	-12904
▁brakes	-12905
▁clicks	-12906
▁cruise	-12907
▁curved	-12908
▁darfur	-12909
▁discou	-12910
▁drinks	-12911
▁dumped	-12912
▁enzyme	-12913
▁feared	-12914
▁hubble	-12915
▁impose	-12916
▁joyful	-12917
▁melody	-12918
▁murray	-12919
▁obsess	-12920
▁offend	-12921
▁parked	-12922
▁poorer	-12923
▁popped	-12924
▁potter	-12925
▁praise	-12926
▁reagan	-12927
▁rebell	-12928
▁refine	-12929
▁retrie	-12930
▁routes	-12931
▁smiles	-12932
▁spills	-12933
▁stockp	-12934
▁strand	-12935
▁syring	-12936
▁traded	-12937
▁turtle	-12938
▁unexpl	-12939
▁vastly	-12940
▁verbal	-12941
cientist	-12942
lessness	-12943
moreover	-12944
students	-12945
▁500,000	-12946
▁abusive	-12947
▁accused	-12948
▁arizona	-12949
▁babbage	-12950
▁battles	-12951
▁crashed	-12952
▁disagre	-12953
▁embassy	-12954
▁evident	-12955
▁faculty	-12956
▁fellows	-12957
▁fishery	-12958
▁focuses	-12959
▁founder	-12960
▁germans	-12961
▁grandma	-12962
▁grounds	-12963
▁humming	-12964
▁invaded	-12965
▁lasting	-12966
▁learner	-12967
▁lesters	-12968
▁lithium	-12969
▁mediter	-12970
▁mermaid	-12971
▁payload	-12972
▁ranging	-12973
▁regimes	-12974
▁relaxed	-12975
▁seroton	-12976
▁shaping	-12977
▁siberia	-12978
▁strains	-12979
▁thirdly	-12980
▁virtues	-12981
astically	-12982
certainly	-12983
evolution	-12984
fashioned	-12985
interview	-12986
resistant	-12987
▁absorbed	-12988
▁addicted	-12989
▁adjacent	-12990
▁charcoal	-12991
▁depended	-12992
▁develops	-12993
▁disposal	-12994
▁emphasis	-12995
▁epiphany	-12996
▁estrogen	-12997
▁flooding	-12998
▁foraging	-12999
▁frequent	-13000
▁grounded	-13001
▁guidance	-13002
▁highways	-13003
▁kiribati	-13004
▁literary	-13005
▁matching	-13006
▁meantime	-13007
▁minimize	-13008
▁offshore	-13009
▁periodic	-13010
▁policing	-13011
▁pristine	-13012
▁quantity	-13013
▁realizes	-13014
▁reminder	-13015
▁reporter	-13016
▁steering	-13017
▁sympathy	-13018
▁underway	-13019
▁unimagin	-13020
▁uploaded	-13021
▁ushahidi	-13022
▁williams	-13023
performing	-13024
▁appealing	-13025
▁balancing	-13026
▁billboard	-13027
▁checklist	-13028
▁continuum	-13029
▁developer	-13030
▁elizabeth	-13031
▁followers	-13032
▁generator	-13033
▁inherited	-13034
▁intercept	-13035
▁interfere	-13036
▁marriages	-13037
▁personnel	-13038
▁preferred	-13039
▁recruited	-13040
▁revealing	-13041
▁slaughter	-13042
▁supernova	-13043
▁adventures	-13044
▁arithmetic	-13045
▁beekeepers	-13046
▁capacities	-13047
▁caregivers	-13048
▁cartoonist	-13049
▁centimeter	-13050
▁eliminated	-13051
▁encryption	-13052
▁evaluation	-13053
▁executives	-13054
▁foreground	-13055
▁outrageous	-13056
▁telephones	-13057
▁backgrounds	-13058
▁commercials	-13059
▁constrained	-13060
▁counterpart	-13061
▁illustrates	-13062
▁immortality	-13063
▁implication	-13064
▁permanently	-13065
▁collaborator	-13066
▁developments	-13067
▁fluctuations	-13068
▁illustration	-13069
▁contributions	-13070
▁corresponding	-13071
▁mediterranean	-13072
▁presentations	-13073
▁bioluminescent	-13074
▁cardiovascular	-13075
▁desertification	-13076
▁internationally	-13077
.9	-13078
rr	-13079
▁#	-13080
amy	-13081
def	-13082
eur	-13083
fed	-13084
fig	-13085
gro	-13086
kel	-13087
mil	-13088
oub	-13089
oys	-13090
pit	-13091
sil	-13092
tar	-13093
tic	-13094
uci	-13095
wed	-13096
wow	-13097
▁93	-13098
▁94	-13099
▁ak	-13100
▁ka	-13101
▁mp	-13102
abel	-13103
acks	-13104
agas	-13105
arin	-13106
chet	-13107
cock	-13108
didn	-13109
ikes	-13110
itis	-13111
ller	-13112
ndip	-13113
olar	-13114
omon	-13115
opsy	-13116
owed	-13117
pler	-13118
rape	-13119
rock	-13120
ropa	-13121
safe	-13122
week	-13123
▁360	-13124
▁80-	-13125
▁ais	-13126
▁bah	-13127
▁bbc	-13128
▁cel	-13129
▁cia	-13130
▁dip	-13131
▁hes	-13132
▁hoo	-13133
▁kab	-13134
▁nik	-13135
▁sri	-13136
▁sug	-13137
cards	-13138
death	-13139
forty	-13140
fting	-13141
garet	-13142
igate	-13143
lived	-13144
named	-13145
pable	-13146
rovir	-13147
sadly	-13148
small	-13149
▁1976	-13150
▁1996	-13151
▁aged	-13152
▁anom	-13153
▁apoc	-13154
▁bach	-13155
▁bass	-13156
▁boil	-13157
▁brow	-13158
▁carn	-13159
▁curs	-13160
▁dave	-13161
▁deer	-13162
▁duke	-13163
▁fees	-13164
▁firs	-13165
▁hats	-13166
▁ideo	-13167
▁ivan	-13168
▁jaws	-13169
▁maid	-13170
▁merc	-13171
▁myst	-13172
▁navy	-13173
▁odys	-13174
▁pads	-13175
▁spam	-13176
▁todd	-13177
▁tops	-13178
▁watt	-13179
▁whit	-13180
▁wipe	-13181
ateral	-13182
belief	-13183
charge	-13184
esters	-13185
europe	-13186
hammad	-13187
houses	-13188
izable	-13189
liance	-13190
living	-13191
razine	-13192
saving	-13193
ulates	-13194
ussani	-13195
weeney	-13196
▁appet	-13197
▁basin	-13198
▁bites	-13199
▁bloom	-13200
▁cheer	-13201
▁chuck	-13202
▁claws	-13203
▁darpa	-13204
▁fonts	-13205
▁fount	-13206
▁freud	-13207
▁gangs	-13208
▁hindu	-13209
▁humil	-13210
▁impat	-13211
▁jeans	-13212
▁mercy	-13213
▁mites	-13214
▁oxide	-13215
▁poles	-13216
▁puppy	-13217
▁rever	-13218
▁saves	-13219
▁slate	-13220
▁slipp	-13221
▁sober	-13222
▁stagn	-13223
▁stain	-13224
▁steak	-13225
▁stink	-13226
▁tails	-13227
▁theat	-13228
▁tunas	-13229
▁vents	-13230
already	-13231
amation	-13232
amiliar	-13233
atemala	-13234
banisha	-13235
between	-13236
discipl	-13237
ignific	-13238
rection	-13239
regular	-13240
▁80,000	-13241
▁aerial	-13242
▁aerody	-13243
▁artery	-13244
▁bronze	-13245
▁deciph	-13246
▁easter	-13247
▁fiscal	-13248
▁floods	-13249
▁gifted	-13250
▁hadron	-13251
▁junior	-13252
▁kenyan	-13253
▁lakota	-13254
▁makeup	-13255
▁novels	-13256
▁pepper	-13257
▁phthal	-13258
▁polite	-13259
▁racial	-13260
▁redund	-13261
▁regain	-13262
▁retain	-13263
▁retros	-13264
▁slices	-13265
▁stated	-13266
▁sydney	-13267
▁tweets	-13268
▁wiring	-13269
▁wounds	-13270
activity	-13271
ceptible	-13272
einstein	-13273
▁assault	-13274
▁auction	-13275
▁austria	-13276
▁breasts	-13277
▁cafeter	-13278
▁cameron	-13279
▁categor	-13280
▁crosses	-13281
▁excuses	-13282
▁fractal	-13283
▁katrina	-13284
▁lesbian	-13285
▁monthly	-13286
▁novelty	-13287
▁outward	-13288
▁popping	-13289
▁reclaim	-13290
▁rightly	-13291
▁scholar	-13292
▁senator	-13293
▁servant	-13294
▁spirits	-13295
▁sponsor	-13296
▁tagging	-13297
▁textile	-13298
▁trailer	-13299
▁unthink	-13300
▁upwards	-13301
▁vicious	-13302
▁worries	-13303
hopefully	-13304
▁ancestry	-13305
▁aquarium	-13306
▁arranged	-13307
▁atrazine	-13308
▁avoiding	-13309
▁bleeding	-13310
▁blessing	-13311
▁currents	-13312
▁doodling	-13313
▁elevated	-13314
▁extremes	-13315
▁giussani	-13316
▁glorious	-13317
▁handsome	-13318
▁ignorant	-13319
▁implicit	-13320
▁improves	-13321
▁invasive	-13322
▁iranians	-13323
▁medieval	-13324
▁mismatch	-13325
▁monopoly	-13326
▁notation	-13327
▁overseas	-13328
▁quarters	-13329
▁railroad	-13330
▁reacting	-13331
▁requests	-13332
▁resemble	-13333
▁respects	-13334
▁richness	-13335
▁rigorous	-13336
▁rotating	-13337
▁scalable	-13338
▁scottish	-13339
▁shortage	-13340
▁sweeping	-13341
▁tortured	-13342
resolution	-13343
▁ambulance	-13344
▁attempted	-13345
▁capturing	-13346
▁combining	-13347
▁crowdsour	-13348
▁databases	-13349
▁dominance	-13350
▁enjoyable	-13351
▁fertility	-13352
▁immensely	-13353
▁ingenuity	-13354
▁meanwhile	-13355
▁partially	-13356
▁penetrate	-13357
▁prejudice	-13358
▁prevalent	-13359
▁promotion	-13360
▁rectangle	-13361
▁rendering	-13362
▁serotonin	-13363
▁shrinking	-13364
▁stretched	-13365
▁switching	-13366
▁testimony	-13367
appropriate	-13368
interviewer	-13369
▁accidental	-13370
▁advantages	-13371
▁aspiration	-13372
▁automotive	-13373
▁conducting	-13374
▁containers	-13375
▁developers	-13376
▁eradicated	-13377
▁extraction	-13378
▁fulfilling	-13379
▁overweight	-13380
▁references	-13381
▁simplistic	-13382
▁starvation	-13383
▁storycorps	-13384
▁thoroughly	-13385
▁translates	-13386
▁ultrasound	-13387
▁vietnamese	-13388
▁wastewater	-13389
▁wilderness	-13390
▁anticipated	-13391
▁certificate	-13392
▁distinctive	-13393
▁eliminating	-13394
▁enlightened	-13395
▁fingerprint	-13396
▁incorporate	-13397
▁inexpensive	-13398
▁integrating	-13399
▁intentional	-13400
▁involvement	-13401
▁measurement	-13402
▁methodology	-13403
▁neanderthal	-13404
▁transferred	-13405
▁transistors	-13406
▁visualizing	-13407
▁acknowledged	-13408
▁availability	-13409
▁commissioned	-13410
▁conditioning	-13411
▁desalination	-13412
▁restrictions	-13413
▁standardized	-13414
communications	-13415
▁decentralized	-13416
▁differentiate	-13417
▁establishment	-13418
▁substantially	-13419
▁supercomputer	-13420
▁underestimate	-13421
▁unsustainable	-13422
▁neuroscientists	-13423
-3	-13424
.8	-13425
jm	-13426
kh	-13427
rg	-13428
▁”	-13429
abe	-13430
ema	-13431
ete	-13432
far	-13433
fat	-13434
hou	-13435
iry	-13436
lem	-13437
lit	-13438
mel	-13439
otr	-13440
rng	-13441
tun	-13442
uri	-13443
vet	-13444
yer	-13445
▁73	-13446
▁78	-13447
▁83	-13448
▁84	-13449
▁ai	-13450
▁dm	-13451
▁jr	-13452
acci	-13453
anor	-13454
arse	-13455
asis	-13456
atin	-13457
bags	-13458
dire	-13459
gree	-13460
hard	-13461
hear	-13462
icus	-13463
ieth	-13464
ileo	-13465
move	-13466
omer	-13467
omic	-13468
omin	-13469
phys	-13470
show	-13471
trad	-13472
uced	-13473
ymph	-13474
▁110	-13475
▁16-	-13476
▁189	-13477
▁bil	-13478
▁bun	-13479
▁cnn	-13480
▁hud	-13481
▁isa	-13482
▁kap	-13483
▁kel	-13484
▁lev	-13485
▁lyn	-13486
▁nev	-13487
▁nih	-13488
▁sie	-13489
▁til	-13490
acted	-13491
alone	-13492
annah	-13493
arity	-13494
atics	-13495
birds	-13496
bruno	-13497
celad	-13498
dives	-13499
ocate	-13500
ogene	-13501
otech	-13502
psych	-13503
rates	-13504
thand	-13505
vanna	-13506
virus	-13507
welve	-13508
▁1985	-13509
▁1986	-13510
▁anch	-13511
▁atro	-13512
▁cane	-13513
▁cern	-13514
▁dwar	-13515
▁flap	-13516
▁fled	-13517
▁fuse	-13518
▁gaza	-13519
▁gran	-13520
▁hect	-13521
▁hive	-13522
▁lang	-13523
▁lank	-13524
▁leds	-13525
▁memo	-13526
▁quiz	-13527
▁reun	-13528
▁rift	-13529
▁rode	-13530
▁sars	-13531
▁warn	-13532
▁weep	-13533
atized	-13534
contin	-13535
darwin	-13536
diving	-13537
import	-13538
ninety	-13539
oscope	-13540
public	-13541
ulsive	-13542
▁1,100	-13543
▁agnes	-13544
▁alleg	-13545
▁andro	-13546
▁armor	-13547
▁beats	-13548
▁cairo	-13549
▁costa	-13550
▁crawl	-13551
▁denom	-13552
▁emily	-13553
▁euros	-13554
▁exams	-13555
▁fifty	-13556
▁gyrus	-13557
▁hives	-13558
▁hunch	-13559
▁hurry	-13560
▁jacqu	-13561
▁juris	-13562
▁milit	-13563
▁nanot	-13564
▁poets	-13565
▁posts	-13566
▁reply	-13567
▁reuse	-13568
▁scrap	-13569
▁scuba	-13570
▁smugg	-13571
▁spear	-13572
▁spong	-13573
▁stiff	-13574
▁stole	-13575
▁sunny	-13576
▁tense	-13577
▁trump	-13578
▁twent	-13579
▁volat	-13580
alities	-13581
america	-13582
celadus	-13583
charles	-13584
illions	-13585
journal	-13586
knowing	-13587
ocative	-13588
several	-13589
somehow	-13590
tically	-13591
versely	-13592
▁affirm	-13593
▁anonym	-13594
▁antide	-13595
▁arises	-13596
▁backed	-13597
▁banker	-13598
▁boreal	-13599
▁carrot	-13600
▁cellul	-13601
▁charts	-13602
▁cliffs	-13603
▁compan	-13604
▁delete	-13605
▁depict	-13606
▁edward	-13607
▁fungus	-13608
▁gently	-13609
▁gossip	-13610
▁humane	-13611
▁intest	-13612
▁lining	-13613
▁mantis	-13614
▁microw	-13615
▁multim	-13616
▁nathan	-13617
▁palace	-13618
▁panthe	-13619
▁plural	-13620
▁precon	-13621
▁proves	-13622
▁refers	-13623
▁retrof	-13624
▁sewage	-13625
▁stakes	-13626
▁stereo	-13627
▁sucked	-13628
▁tehran	-13629
▁wander	-13630
▁zipcar	-13631
aterials	-13632
hundreds	-13633
ospheric	-13634
rability	-13635
research	-13636
▁bonobos	-13637
▁bullets	-13638
▁cassini	-13639
▁convent	-13640
▁critics	-13641
▁crochet	-13642
▁derived	-13643
▁epidemi	-13644
▁hallway	-13645
▁indoors	-13646
▁intimid	-13647
▁jackson	-13648
▁legitim	-13649
▁miracul	-13650
▁modular	-13651
▁payment	-13652
▁pension	-13653
▁prayers	-13654
▁proving	-13655
▁recipes	-13656
▁russell	-13657
▁savanna	-13658
▁shuffle	-13659
▁signing	-13660
▁strokes	-13661
▁surfing	-13662
▁tattoos	-13663
▁tiniest	-13664
▁tougher	-13665
▁tourism	-13666
▁turkish	-13667
▁turtles	-13668
▁urgency	-13669
▁viewers	-13670
▁watches	-13671
effective	-13672
generated	-13673
▁adequate	-13674
▁amateurs	-13675
▁animated	-13676
▁archives	-13677
▁arteries	-13678
▁barefoot	-13679
▁behaving	-13680
▁browsing	-13681
▁clicking	-13682
▁cochlear	-13683
▁colorado	-13684
▁commerce	-13685
▁concerts	-13686
▁credible	-13687
▁crystals	-13688
▁deceased	-13689
▁deterior	-13690
▁dictator	-13691
▁displace	-13692
▁fairness	-13693
▁forehead	-13694
▁freedoms	-13695
▁husbands	-13696
▁invasion	-13697
▁lawrence	-13698
▁lifelong	-13699
▁mistaken	-13700
▁monument	-13701
▁mortgage	-13702
▁movember	-13703
▁muhammad	-13704
▁murdered	-13705
▁mutually	-13706
▁overlook	-13707
▁princess	-13708
▁programm	-13709
▁protects	-13710
▁protests	-13711
▁reconcil	-13712
▁rendered	-13713
▁responds	-13714
▁resulted	-13715
▁searches	-13716
▁suitable	-13717
▁suppress	-13718
▁troubled	-13719
▁trusting	-13720
compassion	-13721
ultimately	-13722
▁attribute	-13723
▁automated	-13724
▁boyfriend	-13725
▁circuitry	-13726
▁cosmology	-13727
▁discrimin	-13728
▁enceladus	-13729
▁europeans	-13730
▁firsthand	-13731
▁genuinely	-13732
▁guatemala	-13733
▁inventors	-13734
▁irregular	-13735
▁mentality	-13736
▁messaging	-13737
▁performer	-13738
▁photoshop	-13739
▁reconnect	-13740
▁strongest	-13741
▁submarine	-13742
▁unhealthy	-13743
▁victorian	-13744
▁viewpoint	-13745
▁workshops	-13746
performance	-13747
▁analytical	-13748
▁commentary	-13749
▁compatible	-13750
▁confession	-13751
▁continuity	-13752
▁criticized	-13753
▁cumulative	-13754
▁deliberate	-13755
▁depressing	-13756
▁discomfort	-13757
▁footprints	-13758
▁guerrillas	-13759
▁hypotheses	-13760
▁ironically	-13761
▁lesterland	-13762
▁loneliness	-13763
▁measurable	-13764
▁occupation	-13765
▁perceptual	-13766
▁performers	-13767
▁persistent	-13768
▁protocells	-13769
▁questioned	-13770
▁responsive	-13771
▁transistor	-13772
▁unfamiliar	-13773
▁vertically	-13774
▁adolescents	-13775
▁antidepress	-13776
▁centralized	-13777
▁collections	-13778
▁exceptional	-13779
▁financially	-13780
▁identifying	-13781
▁imaginative	-13782
▁incremental	-13783
▁inhabitants	-13784
▁manipulated	-13785
▁submersible	-13786
▁synesthesia	-13787
▁broadcasting	-13788
▁contaminated	-13789
▁descriptions	-13790
▁difficulties	-13791
▁experimenter	-13792
▁interference	-13793
▁performances	-13794
▁preservation	-13795
▁effectiveness	-13796
▁extracellular	-13797
▁photographing	-13798
▁identification	-13799
▁neuroscientist	-13800
▁understandable	-13801
--	-13802
dg	-13803
pu	-13804
yo	-13805
▁“	-13806
ano	-13807
beh	-13808
edi	-13809
eor	-13810
fem	-13811
gol	-13812
map	-13813
nie	-13814
nor	-13815
ogy	-13816
ols	-13817
pel	-13818
rio	-13819
rsw	-13820
sam	-13821
sub	-13822
uda	-13823
urp	-13824
utt	-13825
aros	-13826
atma	-13827
chin	-13828
cile	-13829
dles	-13830
enza	-13831
gath	-13832
hrir	-13833
iary	-13834
icut	-13835
ilia	-13836
into	-13837
irth	-13838
izzy	-13839
lene	-13840
lett	-13841
lots	-13842
mies	-13843
note	-13844
odox	-13845
olis	-13846
peer	-13847
pert	-13848
rons	-13849
rosh	-13850
urge	-13851
wels	-13852
went	-13853
▁101	-13854
▁187	-13855
▁abd	-13856
▁alf	-13857
▁coh	-13858
▁doo	-13859
▁dor	-13860
▁mop	-13861
▁pam	-13862
▁rav	-13863
▁tan	-13864
▁tob	-13865
▁wil	-13866
abyte	-13867
adder	-13868
arthe	-13869
azing	-13870
clean	-13871
ergio	-13872
giene	-13873
lapse	-13874
local	-13875
marks	-13876
occup	-13877
raged	-13878
shell	-13879
touch	-13880
uding	-13881
▁andy	-13882
▁barn	-13883
▁casc	-13884
▁corp	-13885
▁dual	-13886
▁euro	-13887
▁evan	-13888
▁flaw	-13889
▁geek	-13890
▁geor	-13891
▁hull	-13892
▁jeal	-13893
▁mans	-13894
▁mull	-13895
▁obey	-13896
▁perf	-13897
▁pies	-13898
▁prox	-13899
▁reed	-13900
▁rows	-13901
▁rupe	-13902
▁seiz	-13903
▁sple	-13904
▁teap	-13905
▁tire	-13906
▁traw	-13907
▁unch	-13908
▁worn	-13909
acious	-13910
alling	-13911
awatts	-13912
azeera	-13913
ivable	-13914
nessee	-13915
onacci	-13916
rapeut	-13917
screen	-13918
terior	-13919
timore	-13920
veling	-13921
wouldn	-13922
writer	-13923
▁1,200	-13924
▁barry	-13925
▁bleed	-13926
▁boils	-13927
▁bruce	-13928
▁calib	-13929
▁cease	-13930
▁crabs	-13931
▁deleg	-13932
▁downs	-13933
▁dried	-13934
▁essay	-13935
▁excav	-13936
▁flags	-13937
▁geeks	-13938
▁indul	-13939
▁julia	-13940
▁kabul	-13941
▁leaks	-13942
▁legos	-13943
▁lymph	-13944
▁merge	-13945
▁modes	-13946
▁moons	-13947
▁moses	-13948
▁nanos	-13949
▁oiled	-13950
▁rearr	-13951
▁secre	-13952
▁serge	-13953
▁shook	-13954
▁sniff	-13955
▁soils	-13956
▁terra	-13957
▁unfin	-13958
▁unite	-13959
▁unple	-13960
▁vague	-13961
▁verte	-13962
▁whirl	-13963
artheid	-13964
chester	-13965
closure	-13966
getting	-13967
hearted	-13968
patient	-13969
stories	-13970
ulously	-13971
▁accord	-13972
▁autobi	-13973
▁bakery	-13974
▁basics	-13975
▁bonobo	-13976
▁carved	-13977
▁condem	-13978
▁courty	-13979
▁crises	-13980
▁devote	-13981
▁elites	-13982
▁enroll	-13983
▁europa	-13984
▁fences	-13985
▁flickr	-13986
▁forage	-13987
▁forens	-13988
▁gloves	-13989
▁gordon	-13990
▁heated	-13991
▁hebrew	-13992
▁hijack	-13993
▁hitler	-13994
▁hudson	-13995
▁innate	-13996
▁invade	-13997
▁jacket	-13998
▁kindly	-13999
▁mantra	-14000
▁manure	-14001
▁metast	-14002
▁mimics	-14003
▁mister	-14004
▁modify	-14005
▁mutant	-14006
▁nevada	-14007
▁oyster	-14008
▁payoff	-14009
▁pissed	-14010
▁primal	-14011
▁prolif	-14012
▁provin	-14013
▁pulses	-14014
▁quoted	-14015
▁rushed	-14016
▁salmon	-14017
▁starch	-14018
▁tablet	-14019
▁tahrir	-14020
▁taxpay	-14021
▁thesis	-14022
▁throat	-14023
▁tigers	-14024
▁toyota	-14025
▁walker	-14026
▁yields	-14027
▁zambia	-14028
educated	-14029
▁apparat	-14030
▁assumes	-14031
▁capsule	-14032
▁chariot	-14033
▁chewing	-14034
▁claimed	-14035
▁cleaner	-14036
▁compose	-14037
▁devised	-14038
▁dumping	-14039
▁escaped	-14040
▁eyebrow	-14041
▁fitness	-14042
▁flipped	-14043
▁hygiene	-14044
▁incomes	-14045
▁inherit	-14046
▁madness	-14047
▁magnets	-14048
▁packing	-14049
▁perpetr	-14050
▁pharmac	-14051
▁polymer	-14052
▁recipro	-14053
▁revenge	-14054
▁seminal	-14055
▁skyscra	-14056
▁springs	-14057
▁toaster	-14058
▁unaware	-14059
▁uncover	-14060
▁upgrade	-14061
▁uranium	-14062
▁vibrant	-14063
cientific	-14064
computers	-14065
roportion	-14066
▁activism	-14067
▁airports	-14068
▁alarming	-14069
▁antennae	-14070
▁arriving	-14071
▁aviation	-14072
▁catalyst	-14073
▁coherent	-14074
▁colombia	-14075
▁declined	-14076
▁destined	-14077
▁dividing	-14078
▁enduring	-14079
▁foragers	-14080
▁friedman	-14081
▁hierarch	-14082
▁imperial	-14083
▁landfill	-14084
▁learners	-14085
▁maldives	-14086
▁margaret	-14087
▁marshall	-14088
▁maternal	-14089
▁mattered	-14090
▁orbiting	-14091
▁packaged	-14092
▁portland	-14093
▁predicts	-14094
▁profiles	-14095
▁receives	-14096
▁sanitary	-14097
▁secretly	-14098
▁serendip	-14099
▁severely	-14100
▁shortest	-14101
▁speeches	-14102
▁stripped	-14103
▁suitcase	-14104
▁switches	-14105
▁timeline	-14106
▁tolerate	-14107
▁treaties	-14108
▁triggers	-14109
▁wetlands	-14110
throughout	-14111
▁ambiguous	-14112
▁augmented	-14113
▁byproduct	-14114
▁civilians	-14115
▁collapses	-14116
▁communist	-14117
▁crocodile	-14118
▁defending	-14119
▁diffusion	-14120
▁displayed	-14121
▁empirical	-14122
▁extending	-14123
▁extracted	-14124
▁headaches	-14125
▁imbalance	-14126
▁intermedi	-14127
▁inventing	-14128
▁mammogram	-14129
▁pathogens	-14130
▁populated	-14131
▁predatory	-14132
▁premature	-14133
▁prevented	-14134
▁providers	-14135
▁skeletons	-14136
▁stabilize	-14137
▁tennessee	-14138
▁therapeut	-14139
▁visionary	-14140
▁warehouse	-14141
▁centigrade	-14142
▁containing	-14143
▁correlated	-14144
▁devastated	-14145
▁distracted	-14146
▁explosions	-14147
▁filmmakers	-14148
▁fragmented	-14149
▁geological	-14150
▁illiterate	-14151
▁improbable	-14152
▁insignific	-14153
▁liberation	-14154
▁linguistic	-14155
▁obligation	-14156
▁passengers	-14157
▁presidents	-14158
▁revelation	-14159
▁underestim	-14160
▁unfinished	-14161
▁unpleasant	-14162
▁accommodate	-14163
▁acquisition	-14164
▁centimeters	-14165
▁connecticut	-14166
▁contributes	-14167
▁degradation	-14168
▁determining	-14169
▁diagnostics	-14170
▁enterprises	-14171
▁fertilizers	-14172
▁flourishing	-14173
▁helicopters	-14174
▁interrupted	-14175
▁lightweight	-14176
▁pollination	-14177
▁pollinators	-14178
▁professions	-14179
▁radioactive	-14180
▁residential	-14181
▁technicians	-14182
▁translating	-14183
▁accidentally	-14184
▁announcement	-14185
▁differential	-14186
▁enthusiastic	-14187
▁exploitation	-14188
▁grandmothers	-14189
▁mechanically	-14190
▁milliseconds	-14191
▁requirements	-14192
▁subconscious	-14193
▁subsequently	-14194
▁determination	-14195
▁functionality	-14196
▁installations	-14197
▁proliferation	-14198
▁experimentation	-14199
▁representations	-14200
25	-14201
sr	-14202
tb	-14203
uz	-14204
awi	-14205
bob	-14206
cke	-14207
doc	-14208
eer	-14209
hex	-14210
jim	-14211
lli	-14212
nov	-14213
oqu	-14214
ppy	-14215
rec	-14216
rot	-14217
sal	-14218
say	-14219
thr	-14220
tru	-14221
airy	-14222
apel	-14223
arts	-14224
burn	-14225
bury	-14226
corn	-14227
dist	-14228
emed	-14229
expl	-14230
gery	-14231
gill	-14232
icer	-14233
ilst	-14234
inge	-14235
inth	-14236
itre	-14237
link	-14238
moud	-14239
opes	-14240
pple	-14241
rick	-14242
rics	-14243
sook	-14244
ucky	-14245
uels	-14246
velt	-14247
▁188	-14248
▁ace	-14249
▁ank	-14250
▁bog	-14251
▁dye	-14252
▁hex	-14253
▁ion	-14254
▁nod	-14255
▁ply	-14256
▁rut	-14257
▁ups	-14258
ahren	-14259
along	-14260
ancou	-14261
anded	-14262
assum	-14263
berto	-14264
bolic	-14265
conut	-14266
defin	-14267
fluid	-14268
ipper	-14269
isive	-14270
isure	-14271
leton	-14272
namic	-14273
onics	-14274
onies	-14275
pical	-14276
relig	-14277
rists	-14278
ronym	-14279
weigh	-14280
▁100-	-14281
▁anes	-14282
▁aura	-14283
▁bion	-14284
▁bono	-14285
▁boot	-14286
▁cant	-14287
▁cone	-14288
▁cush	-14289
▁dads	-14290
▁drip	-14291
▁echo	-14292
▁eden	-14293
▁fond	-14294
▁foxo	-14295
▁jets	-14296
▁khan	-14297
▁lava	-14298
▁moss	-14299
▁nash	-14300
▁oral	-14301
▁rang	-14302
▁romo	-14303
▁sank	-14304
▁spoo	-14305
▁sund	-14306
▁tang	-14307
▁temp	-14308
▁tomb	-14309
aments	-14310
ancies	-14311
atable	-14312
degree	-14313
funded	-14314
incere	-14315
issors	-14316
legged	-14317
orable	-14318
rocket	-14319
square	-14320
uation	-14321
uctive	-14322
▁2,500	-14323
▁ahmed	-14324
▁airst	-14325
▁blobs	-14326
▁booms	-14327
▁botan	-14328
▁bruno	-14329
▁carve	-14330
▁charl	-14331
▁clash	-14332
▁cuban	-14333
▁defec	-14334
▁deriv	-14335
▁diary	-14336
▁drums	-14337
▁files	-14338
▁gears	-14339
▁goose	-14340
▁greed	-14341
▁groom	-14342
▁hears	-14343
▁hosts	-14344
▁humid	-14345
▁illum	-14346
▁irish	-14347
▁livel	-14348
▁lobes	-14349
▁loser	-14350
▁mommy	-14351
▁notor	-14352
▁overd	-14353
▁overf	-14354
▁overt	-14355
▁pains	-14356
▁penic	-14357
▁petri	-14358
▁posit	-14359
▁prest	-14360
▁scram	-14361
▁slick	-14362
▁smash	-14363
▁snail	-14364
▁sneak	-14365
▁souls	-14366
▁squir	-14367
▁susan	-14368
▁swarm	-14369
▁swear	-14370
▁teens	-14371
▁therm	-14372
▁tires	-14373
▁venom	-14374
▁verbs	-14375
agascar	-14376
driving	-14377
ennifer	-14378
entimes	-14379
glasses	-14380
history	-14381
imental	-14382
iogenic	-14383
itories	-14384
onsored	-14385
osevelt	-14386
solving	-14387
▁35,000	-14388
▁awards	-14389
▁backup	-14390
▁ballot	-14391
▁barack	-14392
▁castle	-14393
▁causal	-14394
▁chapel	-14395
▁chunks	-14396
▁closet	-14397
▁creepy	-14398
▁danish	-14399
▁dealer	-14400
▁edible	-14401
▁embryo	-14402
▁evange	-14403
▁flames	-14404
▁giants	-14405
▁hacked	-14406
▁joints	-14407
▁lastly	-14408
▁latter	-14409
▁laughs	-14410
▁levers	-14411
▁liking	-14412
▁miller	-14413
▁miscon	-14414
▁norman	-14415
▁pillar	-14416
▁poetic	-14417
▁portal	-14418
▁proton	-14419
▁refram	-14420
▁rented	-14421
▁ripped	-14422
▁samuel	-14423
▁sergio	-14424
▁serial	-14425
▁spines	-14426
▁strips	-14427
▁tapest	-14428
▁tribut	-14429
▁vacant	-14430
▁valent	-14431
▁vancou	-14432
▁venter	-14433
▁weaker	-14434
learning	-14435
olitical	-14436
▁abalone	-14437
▁acronym	-14438
▁applaud	-14439
▁assured	-14440
▁asymmet	-14441
▁bending	-14442
▁biotech	-14443
▁bombing	-14444
▁charism	-14445
▁cheaply	-14446
▁clarify	-14447
▁collide	-14448
▁compart	-14449
▁confuse	-14450
▁cookies	-14451
▁craving	-14452
▁dangers	-14453
▁diffuse	-14454
▁disturb	-14455
▁encoded	-14456
▁evolves	-14457
▁execute	-14458
▁extends	-14459
▁filming	-14460
▁flatten	-14461
▁freeway	-14462
▁funders	-14463
▁gadgets	-14464
▁galileo	-14465
▁imposed	-14466
▁inquiry	-14467
▁jazeera	-14468
▁laparos	-14469
[...]
