<pad>	0
<unk>	0
<bos>	0
<eos>	0
en	-0
er	-1
ch	-2
▁d	-3
in	-4
ie	-5
▁,	-6
▁s	-7
▁w	-8
un	-9
▁.	-10
ich	-11
▁a	-12
▁e	-13
▁m	-14
st	-15
as	-16
▁g	-17
an	-18
ei	-19
▁die	-20
▁un	-21
▁ein	-22
te	-23
▁b	-24
▁v	-25
▁i	-26
▁h	-27
es	-28
▁k	-29
▁n	-30
▁z	-31
on	-32
ir	-33
le	-34
▁und	-35
▁f	-36
▁das	-37
ar	-38
ten	-39
sch	-40
▁zu	-41
gen	-42
el	-43
▁in	-44
hr	-45
▁au	-46
or	-47
▁der	-48
ti	-49
al	-50
▁sie	-51
▁wir	-52
der	-53
ein	-54
au	-55
em	-56
▁ist	-57
it	-58
den	-59
lich	-60
▁p	-61
ge	-62
ach	-63
ben	-64
▁ich	-65
▁an	-66
ber	-67
ter	-68
de	-69
▁ha	-70
▁er	-71
icht	-72
▁al	-73
ier	-74
ur	-75
▁ver	-76
▁es	-77
▁t	-78
▁ge	-79
ol	-80
▁l	-81
▁r	-82
ung	-83
▁dies	-84
▁be	-85
um	-86
▁den	-87
▁sch	-88
▁j	-89
ür	-90
und	-91
mm	-92
nen	-93
▁nicht	-94
ro	-95
sen	-96
▁auf	-97
▁dass	-98
▁von	-99
▁"	-100
▁eine	-101
eit	-102
is	-103
tz	-104
▁mit	-105
ck	-106
▁o	-107
ann	-108
eh	-109
len	-110
▁wie	-111
ra	-112
ind	-113
il	-114
▁als	-115
▁uns	-116
ig	-117
▁war	-118
am	-119
ent	-120
re	-121
▁sich	-122
▁so	-123
▁le	-124
enn	-125
▁st	-126
über	-127
▁aus	-128
▁:	-129
at	-130
us	-131
schen	-132
ahr	-133
▁sind	-134
be	-135
and	-136
ön	-137
tion	-138
▁um	-139
▁haben	-140
▁?	-141
▁man	-142
▁für	-143
ft	-144
iel	-145
ag	-146
▁hat	-147
ehr	-148
se	-149
▁über	-150
▁was	-151
▁ges	-152
▁wer	-153
▁da	-154
än	-155
▁ihr	-156
▁kön	-157
ff	-158
eine	-159
och	-160
eu	-161
▁vor	-162
ehen	-163
sten	-164
▁sp	-165
▁re	-166
▁dem	-167
▁wei	-168
die	-169
om	-170
▁im	-171
▁diese	-172
ik	-173
▁ar	-174
▁pro	-175
das	-176
▁wenn	-177
tw	-178
kt	-179
ern	-180
wir	-181
▁des	-182
▁men	-183
chen	-184
▁einen	-185
oll	-186
▁-	-187
bt	-188
▁ih	-189
mmen	-190
wei	-191
▁je	-192
rei	-193
▁nach	-194
▁bei	-195
sp	-196
▁ent	-197
▁können	-198
elt	-199
isch	-200
▁unser	-201
zu	-202
ah	-203
▁werden	-204
▁jahr	-205
▁aber	-206
▁oder	-207
men	-208
ungen	-209
sie	-210
▁geh	-211
ut	-212
▁sein	-213
ien	-214
ste	-215
ieren	-216
▁gr	-217
▁ander	-218
tig	-219
ell	-220
▁mach	-221
igen	-222
▁kann	-223
ation	-224
rau	-225
▁auch	-226
▁mein	-227
▁her	-228
ne	-229
▁einer	-230
▁einem	-231
scha	-232
iert	-233
▁hier	-234
▁1	-235
aus	-236
ken	-237
anz	-238
gt	-239
▁dar	-240
ück	-241
▁ko	-242
▁sehr	-243
▁etw	-244
▁nur	-245
▁wird	-246
li	-247
ort	-248
uch	-249
00	-250
▁unter	-251
os	-252
aber	-253
ess	-254
▁gi	-255
▁kon	-256
als	-257
ör	-258
▁mich	-259
▁menschen	-260
▁also	-261
fen	-262
ute	-263
▁viel	-264
▁gen	-265
▁ihnen	-266
urch	-267
äch	-268
▁gibt	-269
▁–	-270
tel	-271
▁all	-272
issen	-273
▁dann	-274
▁wur	-275
äh	-276
▁leben	-277
▁c	-278
▁gesch	-279
▁ab	-280
ab	-281
lau	-282
tzt	-283
hal	-284
▁--	-285
bei	-286
og	-287
▁te	-288
▁noch	-289
ing	-290
ischen	-291
▁etwas	-292
▁sehen	-293
schaft	-294
ät	-295
ang	-296
ver	-297
dern	-298
▁alle	-299
▁mö	-300
▁durch	-301
▁habe	-302
▁gro	-303
▁am	-304
▁dieser	-305
▁mehr	-306
agen	-307
▁welt	-308
▁mir	-309
all	-310
ul	-311
mmer	-312
▁zur	-313
ot	-314
ri	-315
▁sag	-316
heit	-317
▁mus	-318
ke	-319
ün	-320
▁wissen	-321
ko	-322
üh	-323
▁groß	-324
eil	-325
▁wo	-326
ige	-327
keit	-328
lichen	-329
är	-330
ffen	-331
▁wirk	-332
we	-333
▁einf	-334
ellen	-335
▁we	-336
▁ganz	-337
liche	-338
tr	-339
▁bes	-340
ere	-341
▁en	-342
sa	-343
üs	-344
iele	-345
▁2	-346
▁wür	-347
▁ihre	-348
tiv	-349
▁hin	-350
▁zum	-351
▁zeit	-352
▁br	-353
▁wirklich	-354
▁wurde	-355
▁zwei	-356
hen	-357
orm	-358
tet	-359
tzen	-360
ähr	-361
wenn	-362
▁machen	-363
wer	-364
▁neu	-365
assen	-366
▁einfach	-367
▁inter	-368
pp	-369
eln	-370
ob	-371
ische	-372
äl	-373
▁meine	-374
ass	-375
▁weil	-376
br	-377
▁lie	-378
ick	-379
▁immer	-380
me	-381
▁sel	-382
▁gew	-383
cht	-384
▁me	-385
ht	-386
ru	-387
ungs	-388
acht	-389
end	-390
her	-391
per	-392
bst	-393
▁pa	-394
▁tun	-395
he	-396
ühr	-397
▁din	-398
▁fra	-399
ges	-400
ad	-401
▁kle	-402
chte	-403
bar	-404
▁gef	-405
pf	-406
mmt	-407
lie	-408
je	-409
▁gem	-410
nte	-411
▁bil	-412
▁dieses	-413
▁ch	-414
▁beg	-415
▁se	-416
▁ne	-417
▁hatte	-418
▁bis	-419
ze	-420
▁vers	-421
▁unsere	-422
glich	-423
▁müs	-424
ner	-425
rie	-426
ser	-427
inden	-428
ktion	-429
▁erf	-430
▁klein	-431
ehmen	-432
▁keine	-433
che	-434
mal	-435
ran	-436
▁dam	-437
leich	-438
also	-439
eiten	-440
auf	-441
schie	-442
war	-443
ster	-444
tier	-445
▁eigen	-446
des	-447
▁ber	-448
stell	-449
▁leute	-450
onen	-451
ichtig	-452
wie	-453
ingen	-454
▁selbst	-455
di	-456
▁soll	-457
▁diesem	-458
▁ger	-459
▁viele	-460
äu	-461
▁gel	-462
▁müssen	-463
▁waren	-464
dem	-465
omp	-466
▁du	-467
▁sagen	-468
la	-469
▁dinge	-470
ßen	-471
olog	-472
du	-473
ble	-474
▁sagte	-475
▁diesen	-476
▁verb	-477
ger	-478
chn	-479
▁ob	-480
▁wieder	-481
▁mil	-482
unden	-483
▁jetzt	-484
▁jahren	-485
▁weiter	-486
kommen	-487
▁bin	-488
▁glau	-489
ler	-490
zen	-491
ist	-492
▁tat	-493
▁zei	-494
▁son	-495
ielen	-496
▁art	-497
▁eines	-498
▁andere	-499
▁geb	-500
ollen	-501
▁kein	-502
man	-503
qu	-504
▁anderen	-505
▁nie	-506
▁würde	-507
▁kl	-508
leicht	-509
▁alles	-510
fl	-511
▁bl	-512
▁kin	-513
▁mal	-514
zi	-515
ma	-516
angen	-517
det	-518
▁heraus	-519
▁ste	-520
▁per	-521
vor	-522
▁zusa	-523
▁proble	-524
ichte	-525
nis	-526
▁ex	-527
tisch	-528
gend	-529
▁zusammen	-530
was	-531
▁damit	-532
▁verst	-533
▁wel	-534
gef	-535
▁entw	-536
op	-537
änder	-538
ität	-539
▁wen	-540
inn	-541
oh	-542
▁heu	-543
auen	-544
fe	-545
ok	-546
▁gl	-547
▁fl	-548
▁or	-549
▁denn	-550
▁nat	-551
▁geht	-552
ale	-553
stellen	-554
▁wahr	-555
tern	-556
under	-557
im	-558
yst	-559
▁gut	-560
▁jahre	-561
▁best	-562
rä	-563
von	-564
ache	-565
geb	-566
▁zurück	-567
▁milli	-568
iger	-569
spiel	-570
ystem	-571
▁stel	-572
lt	-573
▁gleich	-574
beit	-575
so	-576
▁kam	-577
▁muss	-578
säch	-579
▁entwick	-580
▁erz	-581
▁dan	-582
ug	-583
▁teil	-584
nten	-585
ill	-586
off	-587
ion	-588
für	-589
▁arbei	-590
ap	-591
halten	-592
uten	-593
▁schon	-594
▁frau	-595
sächlich	-596
▁techn	-597
öß	-598
▁möchte	-599
äre	-600
▁pass	-601
gel	-602
▁vielleicht	-603
▁ide	-604
▁gegen	-605
sam	-606
▁ö	-607
▁drei	-608
ast	-609
mit	-610
▁kinder	-611
▁pl	-612
zent	-613
▁sei	-614
▁mo	-615
▁einz	-616
▁dr	-617
cken	-618
▁de	-619
tes	-620
▁letz	-621
ationen	-622
▁macht	-623
▁nun	-624
▁3	-625
▁brau	-626
age	-627
alen	-628
pt	-629
tigen	-630
▁dort	-631
elle	-632
▁ben	-633
▁davon	-634
▁schw	-635
tik	-636
▁ir	-637
▁land	-638
▁genau	-639
aten	-640
▁bede	-641
▁ja	-642
▁hand	-643
rechen	-644
▁zw	-645
▁heute	-646
▁möglich	-647
▁tag	-648
dies	-649
halb	-650
uchen	-651
ak	-652
▁paar	-653
▁besch	-654
form	-655
▁wichtig	-656
tt	-657
nun	-658
achen	-659
▁hei	-660
000	-661
▁weg	-662
▁hatten	-663
▁mensch	-664
achte	-665
▁geschichte	-666
iz	-667
▁bild	-668
ahl	-669
▁größ	-670
pro	-671
▁oh	-672
▁spr	-673
ine	-674
weise	-675
olle	-676
esen	-677
▁arbeit	-678
▁jem	-679
mlich	-680
▁mei	-681
▁grund	-682
ichten	-683
aut	-684
▁fr	-685
▁einige	-686
▁ihn	-687
▁;	-688
▁könnte	-689
esser	-690
tige	-691
▁reg	-692
▁verw	-693
ologie	-694
ändern	-695
dien	-696
kl	-697
▁fre	-698
aum	-699
uss	-700
▁verl	-701
unktion	-702
gr	-703
ade	-704
son	-705
▁ma	-706
mer	-707
ant	-708
att	-709
▁stu	-710
ennen	-711
ha	-712
▁woll	-713
kte	-714
▁wollen	-715
▁schn	-716
▁gehen	-717
ander	-718
anden	-719
▁wurden	-720
▁'	-721
oren	-722
fr	-723
▁darüber	-724
▁beispiel	-725
▁tatsächlich	-726
vers	-727
▁meiner	-728
▁werde	-729
tlich	-730
▁zie	-731
reich	-732
▁denken	-733
▁weiß	-734
irn	-735
art	-736
hier	-737
net	-738
unde	-739
▁ihren	-740
ierte	-741
hn	-742
iv	-743
igkeit	-744
zeu	-745
est	-746
▁problem	-747
teil	-748
▁aut	-749
äd	-750
▁sicher	-751
▁funktion	-752
▁komp	-753
ürlich	-754
▁lei	-755
hin	-756
▁führ	-757
▁lang	-758
diese	-759
schieden	-760
gar	-761
▁ph	-762
schein	-763
▁gab	-764
▁sti	-765
▁tra	-766
▁seine	-767
amen	-768
▁warum	-769
utzen	-770
ährend	-771
nehmen	-772
▁sta	-773
▁!	-774
▁will	-775
▁sondern	-776
▁neue	-777
alt	-778
▁unserer	-779
tra	-780
▁erzäh	-781
▁wasser	-782
▁5	-783
▁dazu	-784
▁bewe	-785
fer	-786
▁interess	-787
itt	-788
änd	-789
los	-790
ktiv	-791
▁kommen	-792
▁wäre	-793
▁mon	-794
▁frage	-795
▁erst	-796
▁denke	-797
▁versuch	-798
achten	-799
▁wor	-800
▁sol	-801
▁vom	-802
▁irgend	-803
▁zwischen	-804
▁mar	-805
▁finden	-806
dan	-807
gehen	-808
▁gemein	-809
▁hät	-810
dr	-811
▁lebens	-812
ühl	-813
▁einmal	-814
▁näch	-815
zie	-816
▁glaube	-817
▁schl	-818
da	-819
▁gemacht	-820
▁sogar	-821
gie	-822
▁ihrer	-823
▁gerade	-824
▁anf	-825
alten	-826
geben	-827
▁geben	-828
▁schu	-829
▁denen	-830
▁nichts	-831
▁lö	-832
▁jeder	-833
▁kommt	-834
bl	-835
th	-836
▁pol	-837
keiten	-838
▁besser	-839
ativ	-840
ßer	-841
for	-842
▁scha	-843
▁wissenschaft	-844
ften	-845
▁for	-846
▁ersten	-847
▁ohne	-848
sel	-849
erik	-850
öl	-851
gew	-852
▁gehirn	-853
▁20	-854
gan	-855
▁kur	-856
ce	-857
licht	-858
▁dafür	-859
▁würden	-860
▁zeigen	-861
▁qu	-862
od	-863
▁kre	-864
ören	-865
▁19	-866
▁prozent	-867
▁passiert	-868
▁hau	-869
▁letzten	-870
▁frauen	-871
▁verschieden	-872
cher	-873
sehen	-874
schei	-875
uter	-876
▁sieht	-877
▁uni	-878
▁4	-879
▁rei	-880
schl	-881
lung	-882
ierung	-883
▁erste	-884
ys	-885
▁verstehen	-886
▁konnte	-887
▁betr	-888
▁daten	-889
▁produ	-890
▁spiel	-891
chten	-892
▁meisten	-893
tschaft	-894
gung	-895
▁ganze	-896
▁min	-897
▁sa	-898
▁bi	-899
▁während	-900
erst	-901
ss	-902
▁natürlich	-903
▁lassen	-904
imm	-905
▁fol	-906
▁millionen	-907
▁daran	-908
ört	-909
▁inform	-910
hem	-911
unkt	-912
▁arbeiten	-913
ahren	-914
ünf	-915
▁sollte	-916
frik	-917
gra	-918
str	-919
▁vier	-920
▁etwa	-921
ekt	-922
gesch	-923
mus	-924
▁fragen	-925
rank	-926
enden	-927
woh	-928
örper	-929
▁große	-930
▁idee	-931
▁ele	-932
zin	-933
▁ins	-934
bs	-935
▁schnell	-936
▁ung	-937
▁sollten	-938
ange	-939
stellt	-940
▁dank	-941
ckt	-942
yp	-943
innen	-944
utz	-945
▁10	-946
ult	-947
▁bef	-948
ogen	-949
▁meinen	-950
▁star	-951
▁wollte	-952
aufen	-953
legen	-954
▁sprechen	-955
äng	-956
▁könnten	-957
mme	-958
agt	-959
ker	-960
▁geld	-961
▁veränder	-962
ßt	-963
▁us	-964
▁ziemlich	-965
.000	-966
▁system	-967
▁stra	-968
ign	-969
ergie	-970
mö	-971
licher	-972
▁bek	-973
ppe	-974
▁meinem	-975
schied	-976
▁univers	-977
▁fin	-978
▁plan	-979
▁bekommen	-980
ts	-981
▁dabei	-982
ord	-983
▁ti	-984
▁raum	-985
tieren	-986
▁hoch	-987
▁jemand	-988
▁gute	-989
ollar	-990
▁comp	-991
▁beh	-992
ide	-993
▁glück	-994
ül	-995
ingt	-996
ären	-997
fall	-998
▁sagt	-999
▁bedeute	-1000
spr	-1001
▁ging	-1002
▁ende	-1003
▁verg	-1004
ust	-1005
▁nehmen	-1006
kun	-1007
▁nah	-1008
eht	-1009
▁lin	-1010
no	-1011
▁di	-1012
ate	-1013
▁darauf	-1014
▁hel	-1015
ernen	-1016
▁dir	-1017
gte	-1018
▁hö	-1019
▁gest	-1020
enz	-1021
▁doch	-1022
▁fall	-1023
jekt	-1024
ay	-1025
▁bereit	-1026
utter	-1027
ktur	-1028
▁körper	-1029
▁co	-1030
amil	-1031
▁sah	-1032
twort	-1033
▁verf	-1034
hl	-1035
denken	-1036
zei	-1037
ite	-1038
▁verk	-1039
▁amerik	-1040
▁bo	-1041
▁buch	-1042
▁sit	-1043
stand	-1044
▁kleinen	-1045
laub	-1046
onder	-1047
ution	-1048
▁bew	-1049
scheinlich	-1050
fte	-1051
itte	-1052
äter	-1053
pr	-1054
▁spe	-1055
▁glauben	-1056
▁kind	-1057
reiben	-1058
▁dollar	-1059
▁weniger	-1060
▁mom	-1061
▁vielen	-1062
▁organ	-1063
sicht	-1064
▁lernen	-1065
pl	-1066
▁em	-1067
▁welche	-1068
nah	-1069
▁bedeutet	-1070
▁wunder	-1071
▁sache	-1072
▁entschei	-1073
ater	-1074
unter	-1075
tische	-1076
▁famil	-1077
kunft	-1078
ischer	-1079
▁computer	-1080
▁technologie	-1081
adt	-1082
arbei	-1083
▁namen	-1084
asch	-1085
▁fal	-1086
▁män	-1087
▁recht	-1088
▁unseren	-1089
▁schön	-1090
annt	-1091
▁ang	-1092
▁eigentlich	-1093
▁dachte	-1094
sst	-1095
▁ihm	-1096
doch	-1097
ffent	-1098
ennt	-1099
▁y	-1100
▁afrik	-1101
▁großen	-1102
▁get	-1103
▁tei	-1104
▁seit	-1105
▁bringen	-1106
▁gesehen	-1107
▁stellen	-1108
..	-1109
▁mann	-1110
▁ganzen	-1111
usst	-1112
▁kleine	-1113
▁frei	-1114
▁ihrem	-1115
▁energie	-1116
▁komple	-1117
▁sozi	-1118
id	-1119
▁fil	-1120
▁poli	-1121
ga	-1122
▁außer	-1123
oten	-1124
▁person	-1125
▁fest	-1126
▁schle	-1127
▁weise	-1128
▁brauchen	-1129
orgen	-1130
▁eben	-1131
▁seite	-1132
ruck	-1133
raft	-1134
▁jeden	-1135
ph	-1136
▁voll	-1137
▁versch	-1138
ppen	-1139
▁kar	-1140
ald	-1141
chs	-1142
▁unterschied	-1143
▁fünf	-1144
▁par	-1145
▁ange	-1146
▁wenig	-1147
▁versuchen	-1148
bil	-1149
▁gar	-1150
immt	-1151
ic	-1152
▁ho	-1153
dig	-1154
ffe	-1155
dung	-1156
achsen	-1157
▁hinter	-1158
hema	-1159
alis	-1160
nung	-1161
tischen	-1162
▁ur	-1163
▁lehr	-1164
▁form	-1165
▁wahrscheinlich	-1166
▁rie	-1167
▁...	-1168
ätz	-1169
▁gru	-1170
lig	-1171
ert	-1172
land	-1173
▁nutzen	-1174
▁besonder	-1175
tete	-1176
▁offen	-1177
▁wirtschaft	-1178
essen	-1179
vol	-1180
leben	-1181
lei	-1182
▁hil	-1183
▁tre	-1184
▁menge	-1185
lick	-1186
▁keinen	-1187
ia	-1188
eren	-1189
▁woch	-1190
▁gesund	-1191
▁zukunft	-1192
schaften	-1193
mittel	-1194
▁gesagt	-1195
kten	-1196
wohl	-1197
▁su	-1198
ierten	-1199
▁moment	-1200
▁ort	-1201
kon	-1202
▁gern	-1203
▁6	-1204
▁unglaub	-1205
dann	-1206
▁hätte	-1207
▁später	-1208
▁„	-1209
ähn	-1210
ernt	-1211
ultur	-1212
▁ern	-1213
stellung	-1214
zeit	-1215
▁hoff	-1216
▁essen	-1217
fft	-1218
ommen	-1219
▁mag	-1220
▁entde	-1221
▁niem	-1222
▁fast	-1223
viel	-1224
▁gesell	-1225
▁augen	-1226
▁erk	-1227
et	-1228
▁tau	-1229
ße	-1230
olg	-1231
▁ster	-1232
▁%	-1233
▁ok	-1234
▁fot	-1235
▁gra	-1236
alität	-1237
▁licht	-1238
▁natur	-1239
▁schwer	-1240
▁beim	-1241
▁musik	-1242
▁“	-1243
▁pr	-1244
▁grün	-1245
▁indem	-1246
▁eigenen	-1247
▁konnten	-1248
▁bed	-1249
▁früh	-1250
▁heißt	-1251
umen	-1252
si	-1253
▁bet	-1254
▁200	-1255
▁schaffen	-1256
▁funktioniert	-1257
▁bere	-1258
führ	-1259
▁sy	-1260
▁krie	-1261
▁jedes	-1262
ard	-1263
denn	-1264
gang	-1265
asse	-1266
▁stadt	-1267
bringen	-1268
tiert	-1269
▁erw	-1270
ließ	-1271
ogra	-1272
▁bau	-1273
ruktur	-1274
▁chin	-1275
eten	-1276
▁oft	-1277
▁richtig	-1278
▁el	-1279
schn	-1280
fel	-1281
eich	-1282
zeich	-1283
ält	-1284
reichen	-1285
▁mutter	-1286
▁fäh	-1287
zt	-1288
gefähr	-1289
▁milliar	-1290
▁eng	-1291
▁schwier	-1292
▁klar	-1293
aler	-1294
▁organis	-1295
▁füh	-1296
▁erkl	-1297
▁rich	-1298
▁vert	-1299
reis	-1300
mp	-1301
welt	-1302
our	-1303
▁erde	-1304
▁allen	-1305
▁seiner	-1306
▁u	-1307
▁verm	-1308
▁aller	-1309
▁haus	-1310
satz	-1311
▁kurz	-1312
▁anders	-1313
bo	-1314
hau	-1315
▁pers	-1316
volution	-1317
▁erzählen	-1318
ks	-1319
lichkeit	-1320
▁lu	-1321
▁probleme	-1322
lassen	-1323
▁at	-1324
▁wohl	-1325
▁eur	-1326
▁helfen	-1327
▁8	-1328
▁the	-1329
▁norm	-1330
▁ü	-1331
▁herum	-1332
▁folgen	-1333
stoff	-1334
▁internet	-1335
▁spielen	-1336
▁komm	-1337
atur	-1338
▁hal	-1339
▁pla	-1340
▁tro	-1341
▁neuen	-1342
▁gesundheit	-1343
ahlen	-1344
▁nächsten	-1345
▁sü	-1346
▁kor	-1347
▁weit	-1348
▁tie	-1349
▁liebe	-1350
hol	-1351
fäl	-1352
▁nein	-1353
▁zeigt	-1354
ome	-1355
▁exper	-1356
wo	-1357
▁medi	-1358
▁erfolg	-1359
lo	-1360
ial	-1361
ünst	-1362
▁genug	-1363
▁lange	-1364
▁mater	-1365
▁begann	-1366
nisse	-1367
ehn	-1368
▁ro	-1369
▁kennen	-1370
▁unserem	-1371
▁ungefähr	-1372
▁rob	-1373
▁blei	-1374
ahrung	-1375
ott	-1376
wissen	-1377
▁kultur	-1378
isten	-1379
▁elekt	-1380
ucht	-1381
itten	-1382
sy	-1383
▁vide	-1384
▁ru	-1385
na	-1386
chmal	-1387
▁bem	-1388
▁str	-1389
system	-1390
▁7	-1391
sol	-1392
▁bevor	-1393
hunder	-1394
liches	-1395
unst	-1396
▁bauen	-1397
zess	-1398
▁prä	-1399
▁bisschen	-1400
▁9	-1401
einen	-1402
▁jede	-1403
▁30	-1404
▁50	-1405
▁flie	-1406
zeug	-1407
heiten	-1408
▁euch	-1409
ja	-1410
▁krank	-1411
ta	-1412
▁usa	-1413
▁15	-1414
▁inner	-1415
▁fort	-1416
danke	-1417
▁feh	-1418
▁einzel	-1419
zus	-1420
▁100	-1421
richt	-1422
finden	-1423
▁kunst	-1424
lte	-1425
▁new	-1426
▁pri	-1427
▁ideen	-1428
▁ted	-1429
▁wus	-1430
▁informationen	-1431
▁bür	-1432
▁liegt	-1433
▁design	-1434
▁wert	-1435
bracht	-1436
enten	-1437
▁verhalten	-1438
asst	-1439
▁dich	-1440
kennen	-1441
▁unternehmen	-1442
gramm	-1443
▁tran	-1444
▁gesam	-1445
▁amerikan	-1446
jetzt	-1447
▁verändern	-1448
möglich	-1449
iss	-1450
ition	-1451
▁großar	-1452
▁gesellschaft	-1453
▁tr	-1454
▁schule	-1455
▁planeten	-1456
▁seinen	-1457
raum	-1458
▁glob	-1459
▁stand	-1460
▁arten	-1461
▁reden	-1462
▁he	-1463
sche	-1464
▁bel	-1465
▁gehört	-1466
ädchen	-1467
▁leuten	-1468
io	-1469
äche	-1470
▁überall	-1471
▁mod	-1472
ücken	-1473
gem	-1474
▁sagten	-1475
cke	-1476
▁stehen	-1477
utzt	-1478
▁nennen	-1479
inner	-1480
▁to	-1481
▁erh	-1482
▁projekt	-1483
▁darum	-1484
▁behand	-1485
kel	-1486
▁sinn	-1487
▁gener	-1488
schauen	-1489
▁kopf	-1490
▁bewusst	-1491
▁anderes	-1492
vielen	-1493
▁antwort	-1494
▁milliarden	-1495
ände	-1496
▁kontr	-1497
glichen	-1498
▁forsch	-1499
ütz	-1500
▁ober	-1501
▁pati	-1502
ven	-1503
druck	-1504
▁gebäu	-1505
▁punkt	-1506
▁schul	-1507
▁film	-1508
setzen	-1509
▁ähn	-1510
▁universum	-1511
etz	-1512
▁musste	-1513
▁aktiv	-1514
▁far	-1515
▁hören	-1516
▁sechs	-1517
zahl	-1518
▁jahrhunder	-1519
▁afrika	-1520
grund	-1521
twor	-1522
▁netz	-1523
▁oben	-1524
▁vorher	-1525
▁bereits	-1526
▁erreichen	-1527
▁entwickelt	-1528
fin	-1529
▁los	-1530
▁mat	-1531
tigt	-1532
▁geschichten	-1533
▁lös	-1534
▁anzu	-1535
dlich	-1536
igkeiten	-1537
eist	-1538
ührt	-1539
kommt	-1540
▁männer	-1541
allen	-1542
▁robo	-1543
▁halten	-1544
▁benutzen	-1545
▁ausge	-1546
▁öffent	-1547
min	-1548
▁fa	-1549
zieh	-1550
▁besonders	-1551
ös	-1552
ris	-1553
▁auto	-1554
einander	-1555
▁verein	-1556
▁verschiedene	-1557
▁steht	-1558
▁gerne	-1559
▁machte	-1560
▁namens	-1561
rom	-1562
▁pu	-1563
öhn	-1564
▁seinem	-1565
▁erkennen	-1566
▁minuten	-1567
▁schr	-1568
▁li	-1569
▁darin	-1570
▁teilen	-1571
voll	-1572
fra	-1573
▁veran	-1574
▁familie	-1575
itz	-1576
▁flug	-1577
▁hätten	-1578
rat	-1579
▁beob	-1580
▁schü	-1581
▁mädchen	-1582
▁interessan	-1583
pe	-1584
stra	-1585
alle	-1586
warum	-1587
orden	-1588
isches	-1589
▁bestimm	-1590
änger	-1591
blik	-1592
tter	-1593
▁res	-1594
andel	-1595
▁typ	-1596
auer	-1597
▁geschä	-1598
indung	-1599
zieren	-1600
▁freund	-1601
gs	-1602
akter	-1603
▁gefühl	-1604
iges	-1605
▁mu	-1606
▁phys	-1607
dieses	-1608
▁stück	-1609
nach	-1610
▁arm	-1611
▁bas	-1612
▁erinn	-1613
▁mittel	-1614
ium	-1615
▁inst	-1616
anzen	-1617
▁entf	-1618
▁beein	-1619
ahn	-1620
aun	-1621
▁vater	-1622
ume	-1623
▁ak	-1624
▁rel	-1625
endet	-1626
▁kosten	-1627
▁unters	-1628
▁indien	-1629
meine	-1630
▁komplex	-1631
ock	-1632
inen	-1633
▁anst	-1634
annte	-1635
gestellt	-1636
▁stunden	-1637
unge	-1638
neh	-1639
ho	-1640
▁bilder	-1641
▁fu	-1642
bare	-1643
halt	-1644
zentr	-1645
▁gruppe	-1646
▁einzige	-1647
▁sk	-1648
▁beginn	-1649
vi	-1650
omen	-1651
ölker	-1652
▁angst	-1653
▁statt	-1654
▁fir	-1655
richten	-1656
ließlich	-1657
▁jedem	-1658
ings	-1659
▁alt	-1660
▁besten	-1661
▁luft	-1662
▁bereich	-1663
▁braucht	-1664
▁vorstellen	-1665
one	-1666
punkt	-1667
▁ergeb	-1668
▁bemer	-1669
▁eltern	-1670
▁sprache	-1671
▁manchmal	-1672
rieben	-1673
▁schauen	-1674
▁op	-1675
werk	-1676
▁wort	-1677
▁ged	-1678
▁ries	-1679
▁na	-1680
▁pf	-1681
▁anw	-1682
ständ	-1683
▁entwickeln	-1684
ehe	-1685
itiv	-1686
mein	-1687
haupt	-1688
lin	-1689
sein	-1690
affen	-1691
▁bewegen	-1692
▁gleiche	-1693
eigen	-1694
▁hunder	-1695
▁verschiedenen	-1696
bes	-1697
iere	-1698
▁dis	-1699
euer	-1700
▁haupt	-1701
▁irgendwie	-1702
▁möglichkeit	-1703
gten	-1704
oder	-1705
sych	-1706
▁entst	-1707
▁video	-1708
▁do	-1709
▁masch	-1710
▁treffen	-1711
▁herz	-1712
sk	-1713
▁kä	-1714
▁arch	-1715
▁erwar	-1716
▁nation	-1717
weil	-1718
▁medizin	-1719
▁künst	-1720
▁erhalten	-1721
ca	-1722
▁städ	-1723
falls	-1724
▁kap	-1725
ohn	-1726
▁unterst	-1727
ämlich	-1728
▁wegen	-1729
bel	-1730
sei	-1731
esse	-1732
ässt	-1733
▁einigen	-1734
▁fäl	-1735
▁gott	-1736
▁wollten	-1737
▁sachen	-1738
▁näh	-1739
▁po	-1740
▁schwar	-1741
▁gemeinsam	-1742
ismus	-1743
▁umwelt	-1744
▁ändern	-1745
ider	-1746
▁unbe	-1747
▁fern	-1748
▁danke	-1749
▁rep	-1750
▁reich	-1751
▁ziel	-1752
häng	-1753
▁hause	-1754
▁innerhalb	-1755
trie	-1756
▁vir	-1757
▁unglaublich	-1758
tten	-1759
▁drau	-1760
gal	-1761
are	-1762
sta	-1763
▁jen	-1764
enzen	-1765
▁rest	-1766
▁nämlich	-1767
annen	-1768
▁sage	-1769
▁kli	-1770
▁beiden	-1771
▁patienten	-1772
lossen	-1773
▁beginnen	-1774
äten	-1775
▁eher	-1776
▁welch	-1777
tis	-1778
▁kü	-1779
genommen	-1780
wirk	-1781
▁yor	-1782
▁regierung	-1783
ziel	-1784
▁niemand	-1785
▁roboter	-1786
▁tausen	-1787
▁verwenden	-1788
▁pos	-1789
▁verr	-1790
▁gebäude	-1791
trag	-1792
▁mik	-1793
▁verändert	-1794
▁werk	-1795
zustellen	-1796
rak	-1797
forder	-1798
▁weltw	-1799
▁kindern	-1800
▁bez	-1801
▁kommun	-1802
▁persön	-1803
▁schein	-1804
vest	-1805
▁neur	-1806
▁]	-1807
lek	-1808
uer	-1809
tem	-1810
▁getan	-1811
ank	-1812
aden	-1813
schr	-1814
▁intel	-1815
▁krebs	-1816
▁bezieh	-1817
iet	-1818
iken	-1819
reifen	-1820
aktion	-1821
▁überhaupt	-1822
▁aufga	-1823
ore	-1824
▁fe	-1825
ihr	-1826
denten	-1827
▁psych	-1828
▁richt	-1829
▁verschw	-1830
zum	-1831
danken	-1832
▁anfang	-1833
▁menschlichen	-1834
sto	-1835
vielleicht	-1836
▁fand	-1837
▁erstaun	-1838
▁eins	-1839
ip	-1840
▁is	-1841
enne	-1842
durch	-1843
tigkeit	-1844
▁fahr	-1845
bte	-1846
▁wil	-1847
▁länder	-1848
▁versucht	-1849
erk	-1850
blikum	-1851
▁erzeu	-1852
▁schreiben	-1853
▁win	-1854
▁zehn	-1855
tei	-1856
▁kn	-1857
ügen	-1858
▁schau	-1859
▁gleichen	-1860
zwei	-1861
stens	-1862
▁wochen	-1863
onnen	-1864
▁erre	-1865
▁führen	-1866
▁struktur	-1867
▁tut	-1868
gegen	-1869
rauen	-1870
▁allem	-1871
▁morgen	-1872
▁nächste	-1873
teten	-1874
▁zwar	-1875
▁no	-1876
völker	-1877
▁sicht	-1878
▁material	-1879
ielt	-1880
ranken	-1881
▁aufzu	-1882
ase	-1883
▁är	-1884
▁sau	-1885
▁lage	-1886
▁tier	-1887
▁programm	-1888
haus	-1889
▁zeich	-1890
▁erinner	-1891
ans	-1892
▁bitte	-1893
ktor	-1894
schnitt	-1895
▁herausforder	-1896
äus	-1897
▁zahl	-1898
tzlich	-1899
▁technolog	-1900
sache	-1901
▁schick	-1902
▁vis	-1903
▁lehrer	-1904
nov	-1905
▁völ	-1906
▁falsch	-1907
orie	-1908
▁fing	-1909
anten	-1910
dam	-1911
eig	-1912
▁ka	-1913
▁bab	-1914
▁ehr	-1915
▁lab	-1916
▁invest	-1917
▁ju	-1918
▁verh	-1919
▁erscha	-1920
▁tri	-1921
▁gene	-1922
▁innov	-1923
▁bedeut	-1924
ängt	-1925
▁kom	-1926
▁prof	-1927
▁erle	-1928
▁absol	-1929
▁auszu	-1930
▁prozess	-1931
ligen	-1932
▁kamen	-1933
eim	-1934
baren	-1935
nahme	-1936
▁erfahrung	-1937
▁entwicklung	-1938
▁mussten	-1939
auso	-1940
▁sen	-1941
▁finanz	-1942
▁geschäft	-1943
▁18	-1944
etzt	-1945
▁trä	-1946
▁meer	-1947
▁überr	-1948
arbeit	-1949
▁mikro	-1950
▁mathema	-1951
▁meines	-1952
▁tö	-1953
▁direkt	-1954
▁situ	-1955
▁40	-1956
▁beste	-1957
▁dingen	-1958
tau	-1959
mo	-1960
tho	-1961
dition	-1962
▁china	-1963
▁weitere	-1964
▁ris	-1965
▁tiere	-1966
▁fühlen	-1967
fiz	-1968
zept	-1969
▁rad	-1970
ziert	-1971
▁chem	-1972
▁rück	-1973
▁demok	-1974
▁europ	-1975
▁herr	-1976
▁tages	-1977
han	-1978
mar	-1979
hlen	-1980
▁pfl	-1981
fläche	-1982
▁zer	-1983
pa	-1984
▁deu	-1985
▁har	-1986
▁wes	-1987
ählen	-1988
▁neben	-1989
▁freunde	-1990
indet	-1991
ers	-1992
yn	-1993
▁dun	-1994
▁obwohl	-1995
▁leiden	-1996
tag	-1997
▁junge	-1998
▁sieben	-1999
▁sek	-2000
▁eigene	-2001
▁letzte	-2002
heu	-2003
ive	-2004
urs	-2005
▁solche	-2006
▁gedanken	-2007
ager	-2008
▁bringt	-2009
▁wusste	-2010
tte	-2011
uns	-2012
inde	-2013
dieser	-2014
▁boden	-2015
▁damals	-2016
▁sicherheit	-2017
▁gol	-2018
▁samm	-2019
▁alter	-2020
▁elektr	-2021
▁grunde	-2022
dar	-2023
▁part	-2024
▁exist	-2025
▁völlig	-2026
▁worden	-2027
bau	-2028
zip	-2029
▁hol	-2030
ienen	-2031
▁kraft	-2032
▁lässt	-2033
▁unten	-2034
▁hervor	-2035
▁lesen	-2036
▁wider	-2037
sichtlich	-2038
rieb	-2039
nahmen	-2040
tre	-2041
ure	-2042
▁fas	-2043
▁wären	-2044
▁möglichkeiten	-2045
sph	-2046
▁fer	-2047
achst	-2048
▁tief	-2049
ative	-2050
▁erfor	-2051
▁hilfe	-2052
▁jedoch	-2053
dete	-2054
lungs	-2055
viele	-2056
▁thema	-2057
kehr	-2058
stet	-2059
▁such	-2060
▁12	-2061
▁york	-2062
▁on	-2063
hören	-2064
ograf	-2065
ötzlich	-2066
▁fragte	-2067
▁betrachten	-2068
to	-2069
bung	-2070
jähr	-2071
▁verfü	-2072
▁fliegen	-2073
▁job	-2074
ionen	-2075
ließen	-2076
▁erlau	-2077
▁platz	-2078
ve	-2079
lef	-2080
▁zent	-2081
▁verbr	-2082
setz	-2083
sätz	-2084
▁okay	-2085
▁information	-2086
uren	-2087
rieden	-2088
▁menschliche	-2089
einer	-2090
annten	-2091
ziehen	-2092
▁sollen	-2093
▁staaten	-2094
▁funktionieren	-2095
ücher	-2096
▁lösen	-2097
▁jungen	-2098
▁entscheiden	-2099
▁mor	-2100
▁lern	-2101
▁go	-2102
▁gesetz	-2103
▁archite	-2104
▁sterben	-2105
▁empf	-2106
▁wich	-2107
▁deren	-2108
itze	-2109
▁sex	-2110
▁modell	-2111
▁verbunden	-2112
sm	-2113
▁blau	-2114
▁zweite	-2115
zug	-2116
spro	-2117
▁ter	-2118
▁dessen	-2119
▁bleiben	-2120
tat	-2121
▁25	-2122
immen	-2123
achstum	-2124
▁beschä	-2125
▁zahlen	-2126
▁öl	-2127
▁eis	-2128
▁oze	-2129
bauen	-2130
älter	-2131
dungen	-2132
tragen	-2133
▁suchen	-2134
iff	-2135
▁geist	-2136
▁schwierig	-2137
ala	-2138
▁kri	-2139
führen	-2140
▁defin	-2141
co	-2142
cen	-2143
▁tage	-2144
▁besteht	-2145
▁woche	-2146
▁laufen	-2147
▁interessant	-2148
▁[	-2149
tens	-2150
achtet	-2151
▁langsam	-2152
roh	-2153
itzen	-2154
aren	-2155
ächst	-2156
▁zerst	-2157
▁entdeck	-2158
▁genauso	-2159
scht	-2160
▁kolle	-2161
wär	-2162
▁indi	-2163
▁prin	-2164
arbeitet	-2165
▁gemeinschaft	-2166
chter	-2167
▁schli	-2168
▁änder	-2169
icher	-2170
gebung	-2171
▁stellt	-2172
kre	-2173
fahr	-2174
lage	-2175
▁schwe	-2176
▁monate	-2177
▁kranken	-2178
dik	-2179
spiele	-2180
▁klima	-2181
▁deshalb	-2182
spe	-2183
nicht	-2184
▁team	-2185
merk	-2186
alter	-2187
▁aufge	-2188
▁zuvor	-2189
▁technik	-2190
▁welches	-2191
riff	-2192
▁führt	-2193
kraft	-2194
▁markt	-2195
▁neues	-2196
▁kaufen	-2197
▁lösung	-2198
▁aussehen	-2199
▁familien	-2200
ile	-2201
blick	-2202
▁char	-2203
▁gesicht	-2204
▁hör	-2205
▁politik	-2206
▁verantwort	-2207
▁erklär	-2208
▁überzeu	-2209
▁beru	-2210
gefühl	-2211
elte	-2212
▁bro	-2213
▁pap	-2214
sieht	-2215
zeigt	-2216
▁aben	-2217
▁benö	-2218
▁hast	-2219
▁nutz	-2220
aschen	-2221
▁größte	-2222
▁sprach	-2223
▁ländern	-2224
▁trotz	-2225
ud	-2226
alien	-2227
▁bein	-2228
▁guten	-2229
nat	-2230
▁stär	-2231
elbe	-2232
wert	-2233
▁stelle	-2234
▁gefunden	-2235
▁ersch	-2236
zeuge	-2237
▁hinein	-2238
anischen	-2239
▁erinnern	-2240
zw	-2241
spir	-2242
▁acht	-2243
▁mite	-2244
weisen	-2245
▁größten	-2246
▁fähigkeit	-2247
▁extr	-2248
▁krieg	-2249
▁antwor	-2250
▁beschäf	-2251
ue	-2252
igt	-2253
äuf	-2254
▁unseres	-2255
▁gegenüber	-2256
▁vergleich	-2257
jen	-2258
▁zug	-2259
▁männ	-2260
▁mitein	-2261
ond	-2262
ieten	-2263
▁größer	-2264
▁publikum	-2265
kle	-2266
jekte	-2267
▁bewegung	-2268
xt	-2269
auft	-2270
reck	-2271
atten	-2272
▁indu	-2273
▁transp	-2274
▁schließlich	-2275
gn	-2276
▁ner	-2277
▁zellen	-2278
▁beeinfl	-2279
cker	-2280
reiten	-2281
prochen	-2282
▁verwand	-2283
dert	-2284
▁erschaffen	-2285
umm	-2286
fort	-2287
▁spa	-2288
▁blick	-2289
▁extrem	-2290
▁anderer	-2291
▁gelernt	-2292
▁möchten	-2293
▁scheint	-2294
ücke	-2295
igten	-2296
wegen	-2297
▁ihres	-2298
▁intelligen	-2299
▁fant	-2300
▁muster	-2301
▁draußen	-2302
ance	-2303
hren	-2304
▁übr	-2305
unehmen	-2306
▁glücklich	-2307
äß	-2308
aner	-2309
▁gewalt	-2310
▁kontroll	-2311
gi	-2312
stu	-2313
weg	-2314
▁lau	-2315
▁nahm	-2316
öffent	-2317
▁bevölker	-2318
do	-2319
▁wahl	-2320
eister	-2321
▁herauszu	-2322
mt	-2323
äuft	-2324
▁sehe	-2325
▁autos	-2326
▁labor	-2327
inne	-2328
▁super	-2329
samkeit	-2330
▁gewesen	-2331
▁wachsen	-2332
ochen	-2333
▁ozean	-2334
gewöhn	-2335
gliche	-2336
▁perfe	-2337
▁ä	-2338
fol	-2339
ückt	-2340
▁passieren	-2341
sw	-2342
ikation	-2343
gessen	-2344
▁erklären	-2345
ali	-2346
▁öff	-2347
▁verle	-2348
▁vergangen	-2349
▁überleben	-2350
bten	-2351
▁mache	-2352
▁reihe	-2353
gesetzt	-2354
▁schritt	-2355
▁tä	-2356
▁iden	-2357
▁wissenschaftler	-2358
▁kleines	-2359
▁nachdem	-2360
▁miteinander	-2361
▁dig	-2362
▁anal	-2363
▁nord	-2364
▁jemals	-2365
▁medien	-2366
▁anfangen	-2367
▁plötzlich	-2368
▁nachdenken	-2369
ese	-2370
sor	-2371
line	-2372
ware	-2373
▁relig	-2374
▁stark	-2375
▁evolution	-2376
▁revolution	-2377
iko	-2378
▁60	-2379
dass	-2380
▁raus	-2381
▁geworden	-2382
▁studenten	-2383
lauf	-2384
▁bürger	-2385
▁danach	-2386
▁daraus	-2387
▁fanden	-2388
▁wahrheit	-2389
uelle	-2390
▁digit	-2391
agieren	-2392
▁beginnt	-2393
▁richtung	-2394
▁jahrhundert	-2395
äss	-2396
gende	-2397
▁ding	-2398
▁veröffent	-2399
▁technologien	-2400
wass	-2401
▁kont	-2402
zellen	-2403
▁anzahl	-2404
▁gefähr	-2405
pfer	-2406
▁bar	-2407
▁verbindung	-2408
ont	-2409
fahren	-2410
▁inspir	-2411
▁niemals	-2412
ales	-2413
ment	-2414
▁rein	-2415
▁nimmt	-2416
▁teile	-2417
▁konzentr	-2418
pfen	-2419
ament	-2420
nation	-2421
▁tradition	-2422
fäh	-2423
ity	-2424
ren	-2425
rift	-2426
weis	-2427
▁fel	-2428
heute	-2429
stung	-2430
▁künstler	-2431
zogen	-2432
älfte	-2433
▁aufre	-2434
▁stimme	-2435
▁kreativ	-2436
dent	-2437
ützen	-2438
▁molek	-2439
▁leicht	-2440
▁situation	-2441
▁großartig	-2442
uell	-2443
▁kil	-2444
elten	-2445
▁stud	-2446
▁nacht	-2447
▁verloren	-2448
ieg	-2449
▁hinaus	-2450
sprechen	-2451
▁schlecht	-2452
lungen	-2453
▁kleiner	-2454
natürlich	-2455
gangen	-2456
▁krankheit	-2457
▁ser	-2458
▁foto	-2459
▁einfl	-2460
▁reise	-2461
▁staat	-2462
▁bekommt	-2463
▁daher	-2464
▁metho	-2465
▁überw	-2466
▁gebaut	-2467
▁physik	-2468
▁bist	-2469
▁indivi	-2470
▁schrieb	-2471
les	-2472
▁80	-2473
▁gebe	-2474
▁individu	-2475
▁maß	-2476
▁aufmerk	-2477
▁verwendet	-2478
ka	-2479
era	-2480
▁wör	-2481
▁toll	-2482
▁gezeigt	-2483
änden	-2484
▁gesp	-2485
▁beide	-2486
▁lieben	-2487
▁aufgabe	-2488
▁benutzt	-2489
▁genannt	-2490
▁umgebung	-2491
▁sonnen	-2492
▁sym	-2493
▁stellte	-2494
▁ernst	-2495
▁findet	-2496
▁bildung	-2497
▁fuß	-2498
▁kat	-2499
▁tür	-2500
ängen	-2501
▁blut	-2502
zeitig	-2503
▁medik	-2504
▁instit	-2505
▁stimmt	-2506
▁bedeutung	-2507
rum	-2508
teilt	-2509
▁abge	-2510
▁formen	-2511
▁richtige	-2512
unkte	-2513
▁gere	-2514
roffen	-2515
unsere	-2516
▁prinzip	-2517
lang	-2518
änge	-2519
▁dor	-2520
▁engl	-2521
▁alten	-2522
▁faszin	-2523
▁rolle	-2524
krie	-2525
▁met	-2526
▁rau	-2527
▁egal	-2528
▁miss	-2529
▁sonst	-2530
▁allein	-2531
▁soziale	-2532
▁vorstellung	-2533
kam	-2534
▁regel	-2535
▁fahren	-2536
▁fehler	-2537
▁erreicht	-2538
▁tatsache	-2539
mung	-2540
▁schrei	-2541
verb	-2542
▁straßen	-2543
▁entfernt	-2544
▁internation	-2545
haft	-2546
techn	-2547
itäten	-2548
▁links	-2549
lten	-2550
▁disk	-2551
▁preis	-2552
▁gingen	-2553
▁bekannt	-2554
▁gegeben	-2555
ins	-2556
rop	-2557
▁eff	-2558
▁erd	-2559
▁größe	-2560
▁mögen	-2561
▁amerika	-2562
zer	-2563
ieht	-2564
tzut	-2565
▁sor	-2566
otion	-2567
▁zeige	-2568
▁fertig	-2569
▁nachzu	-2570
▁sofort	-2571
▁erfolgreich	-2572
▁veränderung	-2573
ame	-2574
kar	-2575
lagen	-2576
tzutage	-2577
▁ziehen	-2578
imen	-2579
daten	-2580
ument	-2581
▁älter	-2582
▁hälfte	-2583
▁länger	-2584
▁versuche	-2585
tatsächlich	-2586
asen	-2587
eiden	-2588
ändig	-2589
▁bekam	-2590
geführt	-2591
▁pflanzen	-2592
▁herausforderung	-2593
▁kan	-2594
▁lok	-2595
▁priv	-2596
▁hoffe	-2597
ror	-2598
ator	-2599
digen	-2600
▁moral	-2601
▁forschung	-2602
▁schlechte	-2603
ari	-2604
zep	-2605
▁jemanden	-2606
▁regen	-2607
▁meinung	-2608
▁ca	-2609
▁west	-2610
▁mitte	-2611
go	-2612
▁tot	-2613
bildung	-2614
▁bakter	-2615
▁straße	-2616
▁wesent	-2617
▁emotion	-2618
▁mathematik	-2619
äume	-2620
immel	-2621
machen	-2622
wirtschaft	-2623
üch	-2624
▁wand	-2625
struktur	-2626
▁phil	-2627
ierungen	-2628
iti	-2629
itter	-2630
▁jung	-2631
▁setzen	-2632
arbeiten	-2633
▁interessiert	-2634
▁dau	-2635
lefon	-2636
▁strom	-2637
▁papier	-2638
▁brachte	-2639
mu	-2640
sphäre	-2641
▁realität	-2642
kön	-2643
wind	-2644
einige	-2645
während	-2646
alerweise	-2647
▁genommen	-2648
▁weltweit	-2649
▁zeu	-2650
iment	-2651
▁einfluss	-2652
haben	-2653
abhäng	-2654
dessen	-2655
▁absolut	-2656
beh	-2657
▁11	-2658
▁voraus	-2659
▁einfache	-2660
▁komplett	-2661
▁wachstum	-2662
▁generation	-2663
▁fähigkeiten	-2664
reg	-2665
▁dna	-2666
▁dra	-2667
▁anges	-2668
jenigen	-2669
▁allgem	-2670
▁liegen	-2671
legt	-2672
ierend	-2673
▁bücher	-2674
▁geboren	-2675
bew	-2676
▁test	-2677
▁einzu	-2678
▁hinzu	-2679
▁geschieht	-2680
trä	-2681
▁poten	-2682
▁gesamte	-2683
▁schneller	-2684
▁dein	-2685
ichtet	-2686
▁vereinigten	-2687
▁entwicklungs	-2688
ktive	-2689
▁nennt	-2690
deshalb	-2691
▁machten	-2692
▁ök	-2693
rist	-2694
▁ähnlich	-2695
▁maschine	-2696
gru	-2697
▁ga	-2698
▁app	-2699
▁prak	-2700
▁einzelne	-2701
▁geschrieben	-2702
endung	-2703
ftware	-2704
▁identi	-2705
▁fortschr	-2706
ib	-2707
▁000	-2708
▁tod	-2709
▁stre	-2710
▁moder	-2711
ratie	-2712
▁goog	-2713
ologen	-2714
▁firma	-2715
▁schmer	-2716
▁erkennt	-2717
▁ergebnis	-2718
▁wind	-2719
wasser	-2720
▁online	-2721
▁tragen	-2722
▁anstatt	-2723
▁durchschnitt	-2724
wür	-2725
▁oper	-2726
▁erschein	-2727
▁erwachsen	-2728
feld	-2729
ister	-2730
ätzen	-2731
▁experimen	-2732
▁mitgefühl	-2733
fre	-2734
fern	-2735
ummer	-2736
▁urspr	-2737
▁entscheidungen	-2738
kur	-2739
isse	-2740
tist	-2741
▁europa	-2742
▁verurs	-2743
▁sc	-2744
istan	-2745
▁diag	-2746
▁krei	-2747
▁benutz	-2748
▁wichtige	-2749
schu	-2750
▁finde	-2751
▁gutes	-2752
▁studie	-2753
▁zuerst	-2754
▁fantast	-2755
▁vertrauen	-2756
okay	-2757
▁exp	-2758
▁rede	-2759
▁gebur	-2760
▁monat	-2761
▁rechts	-2762
▁ansehen	-2763
▁auswirk	-2764
▁dachten	-2765
▁oberfläche	-2766
▁nachrichten	-2767
chan	-2768
glie	-2769
ösen	-2770
schung	-2771
uellen	-2772
▁druck	-2773
▁einge	-2774
▁sonne	-2775
▁regeln	-2776
▁herauszufinden	-2777
bin	-2778
▁bot	-2779
igens	-2780
üssel	-2781
▁städte	-2782
▁beziehung	-2783
▁gesprochen	-2784
gl	-2785
▁nahe	-2786
▁kompli	-2787
tim	-2788
mpfen	-2789
▁vorbei	-2790
▁begannen	-2791
▁interessante	-2792
▁aufmerksamkeit	-2793
imp	-2794
▁ta	-2795
▁sign	-2796
▁jahrz	-2797
indungen	-2798
▁schulen	-2799
▁wichtiger	-2800
▁&	-2801
▁hig	-2802
tikel	-2803
ussen	-2804
▁fühl	-2805
▁produkt	-2806
▁la	-2807
isst	-2808
▁abzu	-2809
▁karte	-2810
▁einzelnen	-2811
wand	-2812
indest	-2813
stehen	-2814
▁verlassen	-2815
ählt	-2816
▁ans	-2817
essour	-2818
▁großer	-2819
schw	-2820
▁gelegen	-2821
▁gruppen	-2822
50	-2823
▁90	-2824
▁hy	-2825
▁my	-2826
uchs	-2827
▁199	-2828
▁ord	-2829
▁falls	-2830
▁seiten	-2831
▁beobachten	-2832
wissenschaft	-2833
ds	-2834
fik	-2835
▁et	-2836
seit	-2837
▁gek	-2838
▁lauf	-2839
▁prote	-2840
▁schla	-2841
▁vergessen	-2842
▁akt	-2843
▁bewegt	-2844
▁speziel	-2845
▁passierte	-2846
▁gearbeitet	-2847
▁bewusstsein	-2848
pen	-2849
ragt	-2850
▁effe	-2851
▁meter	-2852
▁offensichtlich	-2853
ina	-2854
üss	-2855
hand	-2856
stru	-2857
▁dorf	-2858
▁nachhal	-2859
▁bedeuten	-2860
ons	-2861
▁pe	-2862
obil	-2863
jeder	-2864
▁bestimmt	-2865
▁reaktion	-2866
▁kontrolle	-2867
ll	-2868
nete	-2869
statt	-2870
▁heim	-2871
essern	-2872
▁sahen	-2873
▁bemerken	-2874
▁verständ	-2875
▁ermöglich	-2876
▁bevölkerung	-2877
▁/	-2878
wel	-2879
▁ra	-2880
▁san	-2881
▁ziv	-2882
▁sitzen	-2883
zte	-2884
bild	-2885
flik	-2886
ätze	-2887
schlag	-2888
▁grenzen	-2889
▁versuchte	-2890
lex	-2891
atte	-2892
recht	-2893
▁großes	-2894
▁sozialen	-2895
▁see	-2896
▁begr	-2897
ath	-2898
hnung	-2899
eltsam	-2900
▁konzept	-2901
▁hoffnung	-2902
▁gleichzeitig	-2903
ry	-2904
▁hü	-2905
inge	-2906
produ	-2907
schul	-2908
tiger	-2909
▁bald	-2910
▁bestimmten	-2911
▁manche	-2912
▁monaten	-2913
▁experiment	-2914
▁innovation	-2915
ose	-2916
▁af	-2917
▁sh	-2918
zies	-2919
▁baum	-2920
▁neun	-2921
uchten	-2922
werfen	-2923
▁sorgen	-2924
▁positiv	-2925
▁vortrag	-2926
ba	-2927
nt	-2928
geh	-2929
▁16	-2930
▁arme	-2931
amerik	-2932
▁zweiten	-2933
▁anschauen	-2934
seh	-2935
rech	-2936
setzt	-2937
stein	-2938
▁fisch	-2939
▁taten	-2940
▁ressour	-2941
▁dien	-2942
▁deine	-2943
▁himmel	-2944
gibt	-2945
schluss	-2946
▁google	-2947
▁universität	-2948
az	-2949
▁jap	-2950
alles	-2951
▁spaß	-2952
essere	-2953
▁natür	-2954
▁ständig	-2955
▁menschheit	-2956
▁—	-2957
ith	-2958
▁as	-2959
▁hiv	-2960
▁redu	-2961
altung	-2962
▁arbeits	-2963
▁geschehen	-2964
▁verlieren	-2965
tler	-2966
orien	-2967
▁häuf	-2968
▁wörter	-2969
▁zugang	-2970
▁wussten	-2971
öff	-2972
▁14	-2973
auch	-2974
lern	-2975
▁orte	-2976
▁präsen	-2977
▁nachbar	-2978
▁gewinnen	-2979
windigkeit	-2980
zur	-2981
eines	-2982
herap	-2983
rauch	-2984
▁möglichen	-2985
▁richtigen	-2986
▁zumindest	-2987
deten	-2988
ielle	-2989
mmern	-2990
orfen	-2991
quenz	-2992
▁bilden	-2993
ban	-2994
blich	-2995
stern	-2996
▁wann	-2997
▁zufäl	-2998
▁personen	-2999
itär	-3000
sion	-3001
igner	-3002
▁rund	-3003
▁verfol	-3004
▁seltsam	-3005
▁software	-3006
▁hab	-3007
schir	-3008
▁freu	-3009
▁gerät	-3010
▁schei	-3011
▁arbeitete	-3012
▁ton	-3013
▁webs	-3014
▁feuer	-3015
▁orten	-3016
▁stamm	-3017
▁kannst	-3018
win	-3019
ssen	-3020
▁dro	-3021
masch	-3022
sagen	-3023
▁bleibt	-3024
▁bessere	-3025
▁demokratie	-3026
ief	-3027
immer	-3028
inder	-3029
▁gala	-3030
▁sohn	-3031
▁gebiet	-3032
▁spezies	-3033
▁telefon	-3034
▁heutzutage	-3035
sum	-3036
▁lag	-3037
orben	-3038
eitung	-3039
▁geheim	-3040
▁erzählt	-3041
▁produzieren	-3042
lam	-3043
onie	-3044
▁bat	-3045
▁kern	-3046
gleich	-3047
▁angef	-3048
▁schreck	-3049
rab	-3050
▁echte	-3051
▁höher	-3052
▁aussieht	-3053
▁verbessern	-3054
▁trau	-3055
sweise	-3056
▁spezi	-3057
zeichnet	-3058
▁schüler	-3059
sh	-3060
öh	-3061
▁♫	-3062
kop	-3063
▁vol	-3064
tiver	-3065
ütter	-3066
nehmer	-3067
▁dahin	-3068
▁terror	-3069
▁mot	-3070
etzen	-3071
weder	-3072
▁galax	-3073
▁näher	-3074
▁train	-3075
par	-3076
▁studien	-3077
▁tausende	-3078
fa	-3079
▁ind	-3080
raten	-3081
mann	-3082
netz	-3083
ühne	-3084
▁deta	-3085
▁armut	-3086
▁ebene	-3087
▁zivil	-3088
▁voller	-3089
▁nachricht	-3090
▁«	-3091
dah	-3092
ull	-3093
öst	-3094
▁ad	-3095
eisen	-3096
ferenz	-3097
▁außen	-3098
▁ernähr	-3099
▁landes	-3100
▁konflik	-3101
▁wirklichkeit	-3102
▁vergangenheit	-3103
iter	-3104
twas	-3105
räfte	-3106
▁uner	-3107
▁denkt	-3108
▁arbeitet	-3109
ama	-3110
ächen	-3111
▁nenne	-3112
▁tagen	-3113
▁befinden	-3114
▁gesamten	-3115
▁sekunden	-3116
▁beispiele	-3117
▁kr	-3118
plan	-3119
▁uhr	-3120
inken	-3121
▁unmöglich	-3122
▁verbesser	-3123
▁entscheidung	-3124
rise	-3125
▁car	-3126
▁kür	-3127
▁winz	-3128
▁führte	-3129
▁erzeugen	-3130
▁gebracht	-3131
▁sprachen	-3132
▁17	-3133
ograph	-3134
sionen	-3135
treten	-3136
▁behau	-3137
▁biolog	-3138
▁nachzudenken	-3139
ct	-3140
▁sto	-3141
holen	-3142
▁keiner	-3143
menschen	-3144
▁äu	-3145
abel	-3146
wann	-3147
▁bri	-3148
ulation	-3149
▁erlaubt	-3150
▁trotzdem	-3151
▁wü	-3152
größ	-3153
▁haut	-3154
▁kaum	-3155
▁traf	-3156
▁region	-3157
▁erfahren	-3158
▁entdecken	-3159
▁großartige	-3160
nur	-3161
▁ant	-3162
teile	-3163
▁alte	-3164
▁linie	-3165
▁altern	-3166
▁frieden	-3167
▁bakterien	-3168
genie	-3169
▁firmen	-3170
▁aufgrund	-3171
▁unabhäng	-3172
▁vorstell	-3173
▁krankheiten	-3174
▁kommunikation	-3175
bi	-3176
fs	-3177
ox	-3178
rad	-3179
öpf	-3180
ball	-3181
iker	-3182
mals	-3183
▁grü	-3184
▁log	-3185
▁wün	-3186
press	-3187
ativen	-3188
▁objekt	-3189
▁dadurch	-3190
▁solchen	-3191
▁antworten	-3192
äte	-3193
ühle	-3194
▁mäch	-3195
▁hände	-3196
▁präsi	-3197
▁kombin	-3198
▁handeln	-3199
▁sammeln	-3200
grün	-3201
▁john	-3202
▁chines	-3203
▁verste	-3204
▁theorie	-3205
▁bestimmte	-3206
▁zusammenh	-3207
▁amerikanischen	-3208
ps	-3209
stes	-3210
zimmer	-3211
▁englisch	-3212
licherweise	-3213
▁70	-3214
abil	-3215
ital	-3216
▁bus	-3217
twend	-3218
▁berg	-3219
▁worte	-3220
▁dritte	-3221
▁leidenschaft	-3222
oli	-3223
tro	-3224
▁ker	-3225
▁pil	-3226
▁süd	-3227
werke	-3228
▁ansch	-3229
peratur	-3230
▁auswirkungen	-3231
ix	-3232
ghan	-3233
igar	-3234
gebracht	-3235
▁profess	-3236
▁gekommen	-3237
▁verbinden	-3238
stä	-3239
▁flü	-3240
▁runter	-3241
▁normalerweise	-3242
▁mer	-3243
▁höch	-3244
▁quad	-3245
▁gespr	-3246
▁warten	-3247
▁ergebnisse	-3248
mäß	-3249
pla	-3250
falt	-3251
▁and	-3252
▁zun	-3253
▁stol	-3254
tierte	-3255
anische	-3256
erstoff	-3257
▁gefäng	-3258
▁million	-3259
▁verbrei	-3260
▁ressourcen	-3261
lan	-3262
mod	-3263
▁th	-3264
ützt	-3265
seite	-3266
▁deut	-3267
▁zeug	-3268
▁hilft	-3269
izieren	-3270
ssystem	-3271
tischer	-3272
▁bienen	-3273
▁sowohl	-3274
▁spielt	-3275
▁entschieden	-3276
▁baby	-3277
▁heil	-3278
▁sand	-3279
▁ereig	-3280
▁trans	-3281
▁gefragt	-3282
▁übrigens	-3283
▁amerikaner	-3284
▁fü	-3285
lose	-3286
altet	-3287
iegel	-3288
inter	-3289
▁hirn	-3290
isation	-3291
▁riesige	-3292
▁verstand	-3293
▁charakter	-3294
▁diejenigen	-3295
ums	-3296
bert	-3297
chsel	-3298
izien	-3299
änomen	-3300
▁erwei	-3301
▁kohlen	-3302
▁sodass	-3303
▁arbeite	-3304
▁hundert	-3305
▁fotograf	-3306
▁verstanden	-3307
▁untersuchen	-3308
lige	-3309
stag	-3310
▁för	-3311
reche	-3312
▁anti	-3313
▁höhe	-3314
▁verd	-3315
ichter	-3316
▁innen	-3317
▁leisten	-3318
▁»	-3319
haf	-3320
hil	-3321
ils	-3322
oma	-3323
▁las	-3324
volle	-3325
▁fluss	-3326
▁fotos	-3327
▁poliz	-3328
▁messen	-3329
▁irgendwo	-3330
▁national	-3331
eite	-3332
geht	-3333
▁hum	-3334
eitet	-3335
▁hält	-3336
▁brust	-3337
▁afghan	-3338
▁strate	-3339
ingungen	-3340
▁notwend	-3341
▁einander	-3342
▁entdeckt	-3343
▁gestellt	-3344
▁kollegen	-3345
▁ermöglicht	-3346
▁13	-3347
nungen	-3348
rochen	-3349
▁läuft	-3350
ierende	-3351
▁ordnung	-3352
▁institution	-3353
▁dür	-3354
ossen	-3355
▁park	-3356
antwor	-3357
▁retten	-3358
▁wohn	-3359
▁berüh	-3360
▁bezug	-3361
▁enorm	-3362
▁zeigte	-3363
▁methode	-3364
▁außerhalb	-3365
mel	-3366
bald	-3367
aktiv	-3368
daher	-3369
üllen	-3370
▁fein	-3371
▁frem	-3372
▁lust	-3373
ometer	-3374
teilen	-3375
▁kampf	-3376
▁sinne	-3377
▁chance	-3378
▁gründen	-3379
▁systeme	-3380
▁schützen	-3381
▁unterschei	-3382
▁herausfinden	-3383
▁21	-3384
▁ku	-3385
▁fund	-3386
ierter	-3387
laufen	-3388
mitteln	-3389
▁jahres	-3390
▁nieder	-3391
▁handelt	-3392
▁geschaffen	-3393
▁regierungen	-3394
abr	-3395
hält	-3396
samm	-3397
▁denk	-3398
assung	-3399
▁hörte	-3400
trieben	-3401
▁geburt	-3402
▁medikamen	-3403
▁grundlegen	-3404
▁architektur	-3405
▁organisation	-3406
leg	-3407
rate	-3408
▁kol	-3409
▁zwe	-3410
▁lebt	-3411
▁belie	-3412
▁gewöhn	-3413
▁ingenie	-3414
▁freiheit	-3415
▁herstellen	-3416
oss	-3417
▁ausw	-3418
▁cool	-3419
▁unver	-3420
▁früher	-3421
zunehmen	-3422
▁statist	-3423
▁verdien	-3424
▁welcher	-3425
▁befindet	-3426
▁bestehen	-3427
▁erzählte	-3428
▁globalen	-3429
ek	-3430
▁eigent	-3431
▁entweder	-3432
▁verständnis	-3433
▁trei	-3434
mension	-3435
ständig	-3436
arbeiter	-3437
▁herunter	-3438
▁phänomen	-3439
▁krankenhaus	-3440
rt	-3441
rig	-3442
buch	-3443
arten	-3444
▁könig	-3445
▁liebl	-3446
▁motiv	-3447
▁flugzeug	-3448
hi	-3449
ürf	-3450
ante	-3451
▁erfahr	-3452
▁nahrung	-3453
▁interesse	-3454
ies	-3455
ynam	-3456
asche	-3457
räsen	-3458
▁hart	-3459
▁nerv	-3460
▁geräu	-3461
▁mittler	-3462
▁partner	-3463
▁schlimm	-3464
▁einzigen	-3465
▁wundersch	-3466
▁unterstütz	-3467
▁unterstützen	-3468
wart	-3469
▁blo	-3470
▁rom	-3471
▁gele	-3472
gebaut	-3473
greifen	-3474
▁bisher	-3475
▁spiele	-3476
▁schmerz	-3477
▁einkommen	-3478
▁getroffen	-3479
▁maschinen	-3480
▁schlüssel	-3481
oph	-3482
frika	-3483
genau	-3484
▁büro	-3485
▁läch	-3486
ktoren	-3487
schirm	-3488
▁bühne	-3489
▁wesen	-3490
schiede	-3491
▁meeres	-3492
▁201	-3493
▁kop	-3494
▁ausl	-3495
stoffe	-3496
barkeit	-3497
▁verkaufen	-3498
▁klin	-3499
▁betrie	-3500
▁artikel	-3501
▁öffentlichen	-3502
orn	-3503
▁gründe	-3504
▁selben	-3505
ow	-3506
ton	-3507
vie	-3508
▁umf	-3509
▁wol	-3510
organ	-3511
rifft	-3512
stück	-3513
äuser	-3514
▁name	-3515
▁vari	-3516
iellen	-3517
stände	-3518
wandel	-3519
▁suche	-3520
▁ebenso	-3521
▁betrachtet	-3522
hnen	-3523
mehr	-3524
▁bege	-3525
astrop	-3526
▁farbe	-3527
▁gehirns	-3528
▁schwarz	-3529
▁erwarten	-3530
ulti	-3531
scher	-3532
▁arzt	-3533
▁inse	-3534
passen	-3535
▁dauer	-3536
▁punkte	-3537
▁verhin	-3538
▁mehrere	-3539
▁position	-3540
▁zeitpunkt	-3541
▁behandlung	-3542
hy	-3543
cks	-3544
pfl	-3545
urg	-3546
▁of	-3547
▁wa	-3548
nein	-3549
▁mark	-3550
▁kreis	-3551
▁drogen	-3552
▁klasse	-3553
▁erleben	-3554
üll	-3555
takt	-3556
▁muse	-3557
selben	-3558
▁traum	-3559
▁finger	-3560
▁ursprün	-3561
▁dasselbe	-3562
▁netzwerk	-3563
▁außergewöhn	-3564
ed	-3565
ande	-3566
ihre	-3567
schte	-3568
liegen	-3569
▁armen	-3570
sichtig	-3571
▁herzen	-3572
▁ehrlich	-3573
▁erinnere	-3574
bli	-3575
eid	-3576
jem	-3577
sage	-3578
laden	-3579
riere	-3580
▁setz	-3581
▁stei	-3582
▁ökon	-3583
▁desto	-3584
▁stunde	-3585
▁geschah	-3586
▁ebenfalls	-3587
pag	-3588
▁km	-3589
wick	-3590
itann	-3591
▁absch	-3592
▁beweg	-3593
ulieren	-3594
gefunden	-3595
▁lösungen	-3596
▁untersuch	-3597
▁wichtigste	-3598
gere	-3599
eisch	-3600
▁gewe	-3601
▁laut	-3602
▁tisch	-3603
▁kamera	-3604
▁rechte	-3605
▁spricht	-3606
▁erfunden	-3607
▁wunderbar	-3608
rier	-3609
stik	-3610
stre	-3611
önen	-3612
▁fen	-3613
▁ball	-3614
▁mars	-3615
▁guter	-3616
erweise	-3617
▁fangen	-3618
▁militär	-3619
▁schicken	-3620
▁gefängnis	-3621
▁beziehungen	-3622
▁jahrhunderts	-3623
▁unglaubliche	-3624
rän	-3625
▁pop	-3626
ahmen	-3627
▁kenne	-3628
spielen	-3629
▁behaup	-3630
▁sobald	-3631
möglichen	-3632
maß	-3633
ron	-3634
ehme	-3635
▁dok	-3636
▁gil	-3637
▁mär	-3638
▁sim	-3639
▁wenige	-3640
▁erfahrungen	-3641
äst	-3642
afft	-3643
ffer	-3644
stimm	-3645
ielten	-3646
▁instr	-3647
▁indust	-3648
▁nahmen	-3649
▁risiko	-3650
▁selten	-3651
▁heutigen	-3652
öse	-3653
ahlt	-3654
loss	-3655
▁kal	-3656
alist	-3657
indust	-3658
▁gewal	-3659
▁titel	-3660
zusagen	-3661
▁fühlte	-3662
▁kontin	-3663
▁schönheit	-3664
▁198	-3665
ittel	-3666
▁grad	-3667
▁high	-3668
▁lond	-3669
▁fällt	-3670
▁mobil	-3671
ahrungs	-3672
▁öffnen	-3673
▁gedacht	-3674
▁verrückt	-3675
geschichte	-3676
▁behandeln	-3677
frastruktur	-3678
▁veränderungen	-3679
pu	-3680
▁500	-3681
wärts	-3682
▁fallen	-3683
▁schutz	-3684
industrie	-3685
▁einfachen	-3686
vel	-3687
gaben	-3688
maßen	-3689
schutz	-3690
▁niedr	-3691
▁äußer	-3692
▁lachen	-3693
▁sommer	-3694
▁sozial	-3695
▁zeiten	-3696
fil	-3697
ids	-3698
ket	-3699
▁1,	-3700
gest	-3701
▁säu	-3702
dings	-3703
▁hung	-3704
▁wege	-3705
untern	-3706
▁abend	-3707
▁spitze	-3708
itannien	-3709
▁stimmen	-3710
▁klimawandel	-3711
gut	-3712
▁arg	-3713
▁ign	-3714
▁gehe	-3715
▁standard	-3716
▁erstaunlich	-3717
zü	-3718
▁bu	-3719
bahn	-3720
üllt	-3721
▁bio	-3722
▁tru	-3723
▁auge	-3724
▁ahnung	-3725
▁aussch	-3726
▁globale	-3727
▁jemandem	-3728
alisierung	-3729
▁folgendes	-3730
wen	-3731
text	-3732
vier	-3733
▁echt	-3734
▁hört	-3735
▁vorh	-3736
raucht	-3737
▁liste	-3738
▁optim	-3739
drücken	-3740
▁abhäng	-3741
▁ganzes	-3742
▁worten	-3743
prü	-3744
▁lo	-3745
fach	-3746
gien	-3747
iete	-3748
bewer	-3749
▁trag	-3750
jemand	-3751
ochter	-3752
tation	-3753
▁angeb	-3754
▁ignor	-3755
brechen	-3756
▁bedürf	-3757
▁ausdruck	-3758
▁hunderte	-3759
▁begeister	-3760
▁eigenschaften	-3761
lu	-3762
forn	-3763
eller	-3764
iegen	-3765
istor	-3766
ühlen	-3767
▁dopp	-3768
▁jene	-3769
können	-3770
▁schie	-3771
▁sowie	-3772
aliforn	-3773
▁gewinn	-3774
▁massen	-3775
▁schaut	-3776
▁rechten	-3777
gor	-3778
mil	-3779
letz	-3780
ogel	-3781
▁ach	-3782
tausen	-3783
entlich	-3784
▁freude	-3785
▁gering	-3786
▁lernte	-3787
▁wählen	-3788
▁zustand	-3789
wa	-3790
keln	-3791
▁pal	-3792
▁pau	-3793
stadt	-3794
ühren	-3795
▁nütz	-3796
▁weib	-3797
▁komme	-3798
▁ärzte	-3799
alismus	-3800
▁london	-3801
▁tieren	-3802
zwischen	-3803
britannien	-3804
▁angefangen	-3805
▁mut	-3806
ktionen	-3807
▁erstes	-3808
▁wandel	-3809
▁eigenes	-3810
▁schrift	-3811
▁beantwor	-3812
▁landwirtschaft	-3813
bol	-3814
hle	-3815
▁kla	-3816
reise	-3817
unsch	-3818
▁einsch	-3819
▁frühen	-3820
▁fällen	-3821
▁verfüg	-3822
▁dritten	-3823
▁spreche	-3824
▁projekte	-3825
▁sauerstoff	-3826
▁verbringen	-3827
▁überraschen	-3828
▁kontrollieren	-3829
tu	-3830
ild	-3831
▁ep	-3832
ourn	-3833
▁syn	-3834
gress	-3835
▁gang	-3836
▁japan	-3837
▁proje	-3838
▁spekt	-3839
▁tolle	-3840
frieden	-3841
haltung	-3842
▁farben	-3843
▁trifft	-3844
▁fenster	-3845
▁polizei	-3846
▁produkte	-3847
▁verfügung	-3848
▁materialien	-3849
ms	-3850
mmun	-3851
ährt	-3852
▁ban	-3853
▁tem	-3854
auern	-3855
▁inte	-3856
▁merk	-3857
▁seines	-3858
▁tochter	-3859
▁biologie	-3860
▁freunden	-3861
▁repräsen	-3862
▁existiert	-3863
▁aufgenommen	-3864
▁verantwortung	-3865
▁ei	-3866
anda	-3867
othe	-3868
damit	-3869
örung	-3870
▁aufw	-3871
irgend	-3872
▁ansatz	-3873
▁schlag	-3874
▁bestand	-3875
▁konzentrieren	-3876
▁halb	-3877
▁nähe	-3878
▁heran	-3879
▁mechan	-3880
▁vertei	-3881
▁entfern	-3882
▁erzeugt	-3883
▁größere	-3884
▁kämpfen	-3885
▁verhält	-3886
▁begonnen	-3887
▁gegangen	-3888
▁entstehen	-3889
▁fortschritt	-3890
losen	-3891
▁beit	-3892
▁steu	-3893
▁wald	-3894
▁stolz	-3895
entwick	-3896
▁häufig	-3897
▁jugend	-3898
▁schwei	-3899
▁waffen	-3900
▁westen	-3901
▁geschle	-3902
▁knochen	-3903
▁nahrungs	-3904
▁nächstes	-3905
▁infrastruktur	-3906
itu	-3907
mpf	-3908
▁300	-3909
isser	-3910
tigung	-3911
▁motor	-3912
▁neuer	-3913
▁zelle	-3914
setzung	-3915
▁vermut	-3916
▁entlang	-3917
▁schluss	-3918
▁designer	-3919
▁größeren	-3920
▁bemerkens	-3921
vid	-3922
▁24	-3923
noch	-3924
hilfe	-3925
jedes	-3926
mögen	-3927
▁bäume	-3928
▁werte	-3929
▁reicht	-3930
▁auseinander	-3931
▁gelegenheit	-3932
▁herzustellen	-3933
arch	-3934
gier	-3935
jahr	-3936
oper	-3937
wahr	-3938
üsse	-3939
▁rot	-3940
hause	-3941
tiges	-3942
▁atmo	-3943
▁osten	-3944
▁wohin	-3945
▁besuch	-3946
▁männern	-3947
▁einzigar	-3948
abt	-3949
bed	-3950
ool	-3951
▁it	-3952
ickt	-3953
heben	-3954
mente	-3955
▁darf	-3956
▁gehir	-3957
▁legen	-3958
vention	-3959
▁beteil	-3960
▁schöne	-3961
▁endlich	-3962
▁brauchte	-3963
▁geschafft	-3964
▁gesundheits	-3965
▁wichtigsten	-3966
ana	-3967
bis	-3968
rael	-3969
▁bal	-3970
▁jün	-3971
frage	-3972
krieg	-3973
▁wett	-3974
▁nummer	-3975
▁riesigen	-3976
far	-3977
▁gilt	-3978
▁iran	-3979
▁ließ	-3980
lieben	-3981
wiesen	-3982
▁fühlt	-3983
▁islam	-3984
▁version	-3985
▁werkzeuge	-3986
ami	-3987
tät	-3988
▁gu	-3989
▁nö	-3990
ckte	-3991
künf	-3992
ement	-3993
▁erhö	-3994
▁habt	-3995
▁tanz	-3996
ennung	-3997
formen	-3998
proble	-3999
▁betre	-4000
▁dunkel	-4001
sätzlich	-4002
▁beeinflusst	-4003
amm	-4004
stau	-4005
üben	-4006
▁del	-4007
▁fett	-4008
orgung	-4009
▁industrie	-4010
▁großbritannien	-4011
ächt	-4012
ttern	-4013
▁arab	-4014
▁blog	-4015
▁face	-4016
▁glas	-4017
ierungs	-4018
▁dorthin	-4019
▁genutzt	-4020
▁industr	-4021
▁kreativität	-4022
19	-4023
cy	-4024
asi	-4025
gro	-4026
pfel	-4027
stab	-4028
▁zit	-4029
unser	-4030
▁kauf	-4031
▁seien	-4032
manchmal	-4033
▁klassen	-4034
▁kompliz	-4035
▁konstru	-4036
alisieren	-4037
▁erlauben	-4038
▁entschied	-4039
▁x	-4040
hei	-4041
book	-4042
enze	-4043
▁neg	-4044
bruch	-4045
fisch	-4046
krebs	-4047
meter	-4048
▁brot	-4049
▁prot	-4050
▁nehme	-4051
▁rücken	-4052
minister	-4053
▁letztes	-4054
▁unsicht	-4055
▁elektron	-4056
▁gefangen	-4057
▁karriere	-4058
▁neuronen	-4059
▁einfacher	-4060
technologie	-4061
▁bud	-4062
folge	-4063
ilien	-4064
tiere	-4065
▁atom	-4066
▁wieso	-4067
osystem	-4068
▁langen	-4069
zubringen	-4070
▁produziert	-4071
▁afghanistan	-4072
▁beeinflussen	-4073
▁geschwindigkeit	-4074
bank	-4075
älte	-4076
▁ten	-4077
markt	-4078
▁fran	-4079
▁loch	-4080
ration	-4081
bereich	-4082
▁plastik	-4083
▁verletz	-4084
▁überras	-4085
▁stellten	-4086
▁weiterhin	-4087
geschlossen	-4088
▁unterschiede	-4089
▁hom	-4090
zlich	-4091
bieren	-4092
▁kennt	-4093
▁typen	-4094
▁privat	-4095
zeichnen	-4096
▁depress	-4097
▁jahrzeh	-4098
▁deutlich	-4099
▁reagieren	-4100
▁zusammenhang	-4101
up	-4102
ende	-4103
ttet	-4104
▁fok	-4105
neten	-4106
▁leid	-4107
▁eröff	-4108
▁sogen	-4109
▁kostet	-4110
▁begriff	-4111
▁außerdem	-4112
▁entsteht	-4113
▁geschäfts	-4114
▁temperatur	-4115
▁ermöglichen	-4116
▁komplexität	-4117
hör	-4118
kan	-4119
zäh	-4120
▁ag	-4121
leun	-4122
▁amp	-4123
▁che	-4124
▁tum	-4125
fälle	-4126
ichts	-4127
gorith	-4128
recher	-4129
▁töten	-4130
spieler	-4131
▁karten	-4132
▁philos	-4133
spektive	-4134
▁verrück	-4135
▁vielfalt	-4136
▁werkzeug	-4137
▁erstellen	-4138
gri	-4139
ppt	-4140
▁ken	-4141
▁mex	-4142
▁zäh	-4143
▁holz	-4144
▁them	-4145
tember	-4146
▁beruf	-4147
▁fühle	-4148
▁virus	-4149
stellte	-4150
tisches	-4151
▁ändert	-4152
▁fernsehen	-4153
▁tim	-4154
▁wal	-4155
▁mass	-4156
▁rech	-4157
▁satz	-4158
▁autor	-4159
▁hielt	-4160
▁vertrau	-4161
▁zeichen	-4162
dimension	-4163
▁effizien	-4164
▁verbindungen	-4165
▁197	-4166
▁end	-4167
▁russ	-4168
▁halte	-4169
▁israel	-4170
▁kunden	-4171
▁reisen	-4172
▁dagegen	-4173
▁einsatz	-4174
▁zuhause	-4175
▁verkauft	-4176
▁botschaft	-4177
▁kilometer	-4178
▁produktion	-4179
▁investieren	-4180
ark	-4181
rah	-4182
▁hey	-4183
▁sub	-4184
▁spür	-4185
▁wein	-4186
▁handy	-4187
▁opfer	-4188
▁klingt	-4189
▁passen	-4190
verständ	-4191
▁gefühle	-4192
▁zentrum	-4193
▁aufgaben	-4194
▁studieren	-4195
▁ökosystem	-4196
▁existieren	-4197
▁politische	-4198
▁unterstützung	-4199
uder	-4200
▁wär	-4201
▁port	-4202
▁temp	-4203
manche	-4204
mutter	-4205
nissen	-4206
▁gaben	-4207
▁todes	-4208
jährigen	-4209
▁fernseh	-4210
▁gemeinde	-4211
20	-4212
nie	-4213
gern	-4214
will	-4215
▁imp	-4216
▁band	-4217
▁klass	-4218
▁ameisen	-4219
▁materie	-4220
▁großteil	-4221
▁erforschen	-4222
▁verursacht	-4223
▁hintergrund	-4224
▁medikamente	-4225
gabe	-4226
iden	-4227
ufen	-4228
▁cam	-4229
▁erl	-4230
▁not	-4231
▁fach	-4232
heorie	-4233
umente	-4234
▁entspr	-4235
▁konsum	-4236
▁kontakt	-4237
▁sekunde	-4238
▁gewonnen	-4239
▁religion	-4240
▁politischen	-4241
eben	-4242
kele	-4243
osau	-4244
otyp	-4245
▁dün	-4246
dingt	-4247
▁anru	-4248
▁bill	-4249
digung	-4250
vollen	-4251
▁akzep	-4252
▁stoff	-4253
▁zentr	-4254
herapie	-4255
▁result	-4256
▁vorber	-4257
▁demokra	-4258
▁schafft	-4259
▁verkauf	-4260
▁zufällig	-4261
▁lebensmittel	-4262
▁gesellschaften	-4263
▁fo	-4264
ente	-4265
▁asp	-4266
akten	-4267
igung	-4268
ragen	-4269
▁bras	-4270
▁hall	-4271
▁mond	-4272
wohner	-4273
▁klang	-4274
▁roten	-4275
jährige	-4276
▁kurzem	-4277
▁leider	-4278
▁weiteres	-4279
▁ausbildung	-4280
▁übertragen	-4281
▁entwicklungsl	-4282
apt	-4283
oge	-4284
ote	-4285
▁196	-4286
schlä	-4287
▁2000	-4288
ations	-4289
werden	-4290
▁dynam	-4291
▁vogel	-4292
erstens	-4293
▁tausend	-4294
▁dieselbe	-4295
▁insekten	-4296
▁behandelt	-4297
▁benötigen	-4298
▁beschreiben	-4299
▁kommunizieren	-4300
▁herausgefunden	-4301
how	-4302
▁yo	-4303
itzt	-4304
▁bom	-4305
▁saß	-4306
außer	-4307
impan	-4308
▁umzu	-4309
gramme	-4310
▁davor	-4311
▁genom	-4312
isieren	-4313
▁wunsch	-4314
maschine	-4315
▁steigen	-4316
▁städten	-4317
▁schwarze	-4318
▁gestalten	-4319
▁universums	-4320
▁wunderschön	-4321
▁zusammenarbeit	-4322
els	-4323
urm	-4324
üle	-4325
▁üb	-4326
eien	-4327
▁eth	-4328
▁red	-4329
▁web	-4330
ildet	-4331
liten	-4332
reibt	-4333
▁irak	-4334
▁erwäh	-4335
▁minde	-4336
▁weiss	-4337
teilung	-4338
▁drittel	-4339
▁wiederum	-4340
▁unbedingt	-4341
ille	-4342
lekt	-4343
ling	-4344
ober	-4345
▁con	-4346
▁ehe	-4347
▁kir	-4348
leute	-4349
▁dreh	-4350
▁roman	-4351
▁solch	-4352
änglich	-4353
▁linken	-4354
▁diskuss	-4355
▁betrifft	-4356
▁qualität	-4357
alifornien	-4358
▁atmosphäre	-4359
▁vollkommen	-4360
get	-4361
kor	-4362
unt	-4363
holt	-4364
iell	-4365
lege	-4366
halte	-4367
platz	-4368
▁koll	-4369
▁müll	-4370
zusehen	-4371
▁umgehen	-4372
▁benötigt	-4373
▁überzeugt	-4374
▁bedingungen	-4375
zy	-4376
sse	-4377
fest	-4378
▁chir	-4379
▁gold	-4380
gruppe	-4381
selbst	-4382
▁begeg	-4383
▁leist	-4384
fiziert	-4385
▁berühm	-4386
▁lautet	-4387
programm	-4388
▁relativ	-4389
▁stecken	-4390
▁bezahlen	-4391
▁sicherlich	-4392
▁intelligenz	-4393
by	-4394
abe	-4395
fter	-4396
mutz	-4397
▁jobs	-4398
fragen	-4399
▁basis	-4400
▁sitzt	-4401
steller	-4402
tierten	-4403
▁drehen	-4404
▁alleine	-4405
▁buchstä	-4406
▁facebook	-4407
▁soldaten	-4408
▁vermutlich	-4409
va	-4410
ames	-4411
digt	-4412
frist	-4413
teles	-4414
tiker	-4415
werte	-4416
▁bloß	-4417
▁golf	-4418
▁lief	-4419
▁dreht	-4420
▁furch	-4421
▁journ	-4422
▁wirst	-4423
schrift	-4424
zeichen	-4425
▁selber	-4426
▁erklärt	-4427
▁objekte	-4428
▁spieler	-4429
▁wahrneh	-4430
▁konferenz	-4431
▁verdienen	-4432
▁verbreitet	-4433
▁veröffentlicht	-4434
ada	-4435
ong	-4436
unk	-4437
bewe	-4438
▁dom	-4439
▁mel	-4440
▁rat	-4441
▁fabr	-4442
▁hund	-4443
▁stil	-4444
istenz	-4445
▁schäd	-4446
▁starb	-4447
▁stein	-4448
▁hinweg	-4449
▁normal	-4450
▁stress	-4451
richtung	-4452
▁falsche	-4453
▁neugier	-4454
▁modernen	-4455
▁entwerfen	-4456
▁fundament	-4457
▁sozusagen	-4458
▁beschäftigt	-4459
▁durchgeführt	-4460
band	-4461
nern	-4462
macht	-4463
stelle	-4464
▁affen	-4465
▁solar	-4466
▁berech	-4467
schlagen	-4468
▁kontext	-4469
▁besitzen	-4470
▁verfolgen	-4471
▁entwickelten	-4472
▁organisationen	-4473
▁tw	-4474
anne	-4475
ford	-4476
▁sal	-4477
träge	-4478
▁feld	-4479
▁gefäl	-4480
▁masse	-4481
▁dienst	-4482
▁verkehr	-4483
▁besseren	-4484
▁augenblick	-4485
▁bildschirm	-4486
▁unternehmer	-4487
sb	-4488
met	-4489
▁ed	-4490
amin	-4491
angt	-4492
▁bank	-4493
fangen	-4494
wirken	-4495
▁babys	-4496
▁einst	-4497
▁genie	-4498
▁laufe	-4499
▁automa	-4500
▁bitten	-4501
▁diagno	-4502
▁integr	-4503
▁zukünf	-4504
▁anderem	-4505
chtigkeit	-4506
ungskraft	-4507
▁effektiv	-4508
▁eindruck	-4509
▁milliarde	-4510
▁interaktion	-4511
▁gä	-4512
▁ki	-4513
ichen	-4514
▁getr	-4515
▁szen	-4516
▁hohen	-4517
▁niger	-4518
▁religi	-4519
▁sterne	-4520
▁bildern	-4521
▁mitglie	-4522
▁bildungs	-4523
▁weiteren	-4524
▁identität	-4525
▁natürliche	-4526
uz	-4527
ttel	-4528
▁emp	-4529
▁sil	-4530
▁tex	-4531
schule	-4532
welche	-4533
▁radio	-4534
▁zusch	-4535
▁geräte	-4536
▁schlau	-4537
▁themen	-4538
▁erinnert	-4539
▁erwartet	-4540
▁intervie	-4541
▁buchstäblich	-4542
dio	-4543
▁fei	-4544
ätsel	-4545
▁auss	-4546
lionen	-4547
▁beine	-4548
▁gross	-4549
geladen	-4550
gesehen	-4551
ächtnis	-4552
▁meilen	-4553
▁symbol	-4554
▁testen	-4555
alisiert	-4556
▁fragten	-4557
▁reichen	-4558
▁gegensei	-4559
▁schimpan	-4560
▁gegenteil	-4561
▁schließen	-4562
▁überzeugen	-4563
▁amerikanische	-4564
▁ol	-4565
test	-4566
▁naja	-4567
▁prim	-4568
chseln	-4569
▁sport	-4570
▁lieber	-4571
▁werfen	-4572
▁geführt	-4573
▁gewissen	-4574
▁leistung	-4575
▁katastrop	-4576
▁problemen	-4577
▁irgendwann	-4578
nimmt	-4579
▁bett	-4580
▁chris	-4581
▁liter	-4582
▁metap	-4583
▁multi	-4584
▁satel	-4585
▁mitten	-4586
▁kümmern	-4587
▁zurückzu	-4588
▁beschleun	-4589
▁lieblings	-4590
▁schlimmer	-4591
▁interessanter	-4592
rup	-4593
ingu	-4594
orgt	-4595
sinn	-4596
▁daß	-4597
▁usw	-4598
▁ecke	-4599
▁getö	-4600
▁hohe	-4601
▁angel	-4602
▁austr	-4603
▁bewer	-4604
▁franz	-4605
▁kaffe	-4606
▁schlie	-4607
▁stabil	-4608
▁vision	-4609
▁perfekt	-4610
▁bestimmen	-4611
▁präsident	-4612
▁gefährlich	-4613
▁überrascht	-4614
▁kohlenstoff	-4615
▁interagieren	-4616
ged	-4617
lück	-4618
▁20.	-4619
▁400	-4620
▁cha	-4621
▁ruh	-4622
▁sam	-4623
zität	-4624
▁aids	-4625
▁dick	-4626
▁null	-4627
zeiten	-4628
▁bauern	-4629
▁museum	-4630
▁sauber	-4631
▁geschen	-4632
▁gewicht	-4633
▁gelangen	-4634
▁vorhanden	-4635
ex	-4636
fir	-4637
lös	-4638
sal	-4639
omie	-4640
wood	-4641
▁klei	-4642
▁colle	-4643
▁extra	-4644
▁erster	-4645
▁europä	-4646
▁histor	-4647
▁wächst	-4648
▁fleisch	-4649
▁führung	-4650
▁einsetzen	-4651
▁persönlich	-4652
▁hoffentlich	-4653
eng	-4654
frau	-4655
▁fle	-4656
▁prü	-4657
▁ehem	-4658
achtung	-4659
▁steckt	-4660
▁täglich	-4661
▁kindheit	-4662
▁korallen	-4663
▁teilchen	-4664
▁wettbewer	-4665
▁verhaltens	-4666
▁wunderbare	-4667
rü	-4668
deu	-4669
ole	-4670
pre	-4671
tert	-4672
ößen	-4673
▁150	-4674
▁hyp	-4675
▁tue	-4676
tigte	-4677
▁city	-4678
▁rand	-4679
▁text	-4680
▁virt	-4681
gesell	-4682
▁hängt	-4683
▁laden	-4684
▁analys	-4685
▁bedroh	-4686
▁restau	-4687
gendetwas	-4688
▁galaxien	-4689
▁scheinen	-4690
unternehmen	-4691
mir	-4692
▁mc	-4693
terie	-4694
▁fragt	-4695
▁stift	-4696
▁haufen	-4697
▁rahmen	-4698
zweitens	-4699
▁begrenz	-4700
▁gesetze	-4701
▁modelle	-4702
▁erinnerung	-4703
▁strukturen	-4704
▁hauptsächlich	-4705
arf	-4706
▁ac	-4707
ramm	-4708
▁mos	-4709
▁orig	-4710
▁jungs	-4711
▁total	-4712
▁weder	-4713
▁gehabt	-4714
▁glaubt	-4715
▁mütter	-4716
▁nerven	-4717
▁schiff	-4718
▁verbracht	-4719
▁verhindern	-4720
▁möglicherweise	-4721
let	-4722
adem	-4723
klus	-4724
▁kno	-4725
▁sow	-4726
hafte	-4727
hingt	-4728
▁astr	-4729
▁drama	-4730
▁setzt	-4731
▁bruder	-4732
▁steuern	-4733
▁verzwei	-4734
▁zunächst	-4735
▁irgendetwas	-4736
▁wesentlichen	-4737
▁verantwortlich	-4738
lev	-4739
▁deb	-4740
▁mem	-4741
▁frank	-4742
hington	-4743
quenzen	-4744
▁dürfen	-4745
▁liefer	-4746
▁gewisse	-4747
▁algorith	-4748
▁meistens	-4749
▁zunehmen	-4750
▁aktivität	-4751
▁begeistert	-4752
▁mindestens	-4753
▁verwandeln	-4754
▁vollständig	-4755
▁öffentlichkeit	-4756
arm	-4757
ink	-4758
geln	-4759
▁stimm	-4760
itionen	-4761
▁heimat	-4762
▁norden	-4763
▁videos	-4764
osaurier	-4765
▁getötet	-4766
▁nochmal	-4767
▁angesehen	-4768
wn	-4769
dit	-4770
▁35	-4771
esch	-4772
jede	-4773
▁ven	-4774
▁bekä	-4775
▁wild	-4776
▁zell	-4777
ändert	-4778
▁filme	-4779
▁kurze	-4780
▁könnt	-4781
▁voran	-4782
▁ziele	-4783
▁gewebe	-4784
▁willen	-4785
▁zimmer	-4786
▁erzähle	-4787
blichkeit	-4788
▁praktisch	-4789
▁versuchten	-4790
▁letztendlich	-4791
▁institutionen	-4792
▁interessieren	-4793
ara	-4794
org	-4795
▁vö	-4796
▁nor	-4797
geber	-4798
▁ment	-4799
kehren	-4800
▁david	-4801
▁holen	-4802
▁trend	-4803
meister	-4804
▁gefahr	-4805
▁händen	-4806
▁rätsel	-4807
▁elektro	-4808
richtungen	-4809
▁philosoph	-4810
▁landschaft	-4811
▁verschwinden	-4812
kr	-4813
lü	-4814
hel	-4815
ieß	-4816
rag	-4817
uni	-4818
▁hu	-4819
▁kra	-4820
▁tal	-4821
▁eure	-4822
▁post	-4823
▁sucht	-4824
▁intens	-4825
▁schaff	-4826
▁steuer	-4827
▁bemerkt	-4828
▁vorteil	-4829
▁washington	-4830
▁vergleichen	-4831
gyp	-4832
ieh	-4833
▁il	-4834
▁rä	-4835
läss	-4836
äden	-4837
▁sep	-4838
▁aufs	-4839
▁mund	-4840
fische	-4841
▁teuer	-4842
gewicht	-4843
▁grenze	-4844
▁schönen	-4845
▁spiegel	-4846
▁forscher	-4847
▁eingesetzt	-4848
▁öffentliche	-4849
ac	-4850
ym	-4851
dort	-4852
pekt	-4853
▁fig	-4854
▁hor	-4855
▁ref	-4856
▁woh	-4857
▁wäh	-4858
fügen	-4859
ktiven	-4860
▁flüss	-4861
▁kamer	-4862
▁bieten	-4863
▁erhält	-4864
▁überle	-4865
stellten	-4866
▁einiger	-4867
▁gedanke	-4868
▁morgens	-4869
▁patient	-4870
▁aufhören	-4871
▁gewisser	-4872
▁kalifornien	-4873
po	-4874
pft	-4875
dige	-4876
idem	-4877
mail	-4878
usion	-4879
zelle	-4880
▁cent	-4881
▁volk	-4882
▁brenn	-4883
▁folge	-4884
▁lernt	-4885
▁dauert	-4886
▁minute	-4887
▁weißen	-4888
besonder	-4889
▁element	-4890
ologische	-4891
▁normalen	-4892
▁allerdings	-4893
▁arbeiteten	-4894
▁beantworten	-4895
▁unterscheiden	-4896
izi	-4897
pol	-4898
▁1.	-4899
fahrt	-4900
▁brei	-4901
▁maus	-4902
▁sitz	-4903
gemein	-4904
zuerst	-4905
agement	-4906
▁mission	-4907
▁welchen	-4908
▁entworfen	-4909
▁restauran	-4910
▁september	-4911
ane	-4912
▁jo	-4913
▁ox	-4914
▁seh	-4915
seits	-4916
▁fiel	-4917
isiert	-4918
▁demon	-4919
▁unend	-4920
bewesen	-4921
gegeben	-4922
▁deinen	-4923
▁nannte	-4924
▁gehirne	-4925
▁schnitt	-4926
▁wenigen	-4927
▁experten	-4928
▁gespräch	-4929
▁nationen	-4930
▁erkenntnis	-4931
▁hergestellt	-4932
kn	-4933
kä	-4934
ash	-4935
frei	-4936
lieb	-4937
vide	-4938
üste	-4939
▁col	-4940
▁nan	-4941
krank	-4942
unken	-4943
▁dran	-4944
▁impf	-4945
▁pfer	-4946
zeugen	-4947
▁tiefe	-4948
▁beweis	-4949
▁hoffen	-4950
fizieren	-4951
▁bekamen	-4952
▁england	-4953
▁erfinden	-4954
▁gehalten	-4955
▁schwester	-4956
▁zeitalter	-4957
▁geschlecht	-4958
▁unterschiedlich	-4959
yr	-4960
eff	-4961
ori	-4962
spl	-4963
▁nu	-4964
wegs	-4965
▁lan	-4966
▁aufst	-4967
▁konse	-4968
▁somit	-4969
▁wahre	-4970
flächen	-4971
sprache	-4972
▁riesen	-4973
▁basiert	-4974
▁quadrat	-4975
▁schaute	-4976
▁twitter	-4977
▁mögliche	-4978
för	-4979
▁les	-4980
trieb	-4981
▁enth	-4982
▁musli	-4983
führung	-4984
▁häuser	-4985
▁ließen	-4986
▁meiste	-4987
▁zucker	-4988
▁college	-4989
▁dennoch	-4990
▁moleküle	-4991
▁schlagen	-4992
prä	-4993
oben	-4994
omit	-4995
tial	-4996
auber	-4997
besch	-4998
gerät	-4999
pagne	-5000
▁mess	-5001
gesetz	-5002
▁domin	-5003
▁schne	-5004
▁echten	-5005
▁kräfte	-5006
▁müsste	-5007
▁schien	-5008
▁stärker	-5009
▁ungewöhn	-5010
▁geheimnis	-5011
▁schwimmen	-5012
bas	-5013
dia	-5014
mon	-5015
uar	-5016
sver	-5017
▁klu	-5018
▁kna	-5019
ologe	-5020
▁intu	-5021
▁nutzt	-5022
▁toile	-5023
▁trägt	-5024
ordnung	-5025
▁10.000	-5026
▁fehlen	-5027
▁lustig	-5028
wissenschaftler	-5029
ns	-5030
cis	-5031
tex	-5032
wor	-5033
▁hi	-5034
flug	-5035
kann	-5036
aptop	-5037
kreis	-5038
schau	-5039
▁boot	-5040
atoren	-5041
▁block	-5042
▁disku	-5043
▁schlä	-5044
systeme	-5045
▁korrup	-5046
▁laptop	-5047
▁wellen	-5048
▁gehören	-5049
▁inneren	-5050
gewachsen	-5051
▁deswegen	-5052
▁aufregend	-5053
▁gegensatz	-5054
▁entdeckung	-5055
▁forschungs	-5056
▁satelliten	-5057
▁dinosaurier	-5058
▁experimente	-5059
▁perspektive	-5060
▁schimpansen	-5061
wahrscheinlich	-5062
use	-5063
vir	-5064
anen	-5065
herr	-5066
hört	-5067
serv	-5068
▁ech	-5069
▁gas	-5070
▁tab	-5071
▁zog	-5072
▁zut	-5073
fluss	-5074
▁kogn	-5075
▁umge	-5076
derung	-5077
▁symme	-5078
istisch	-5079
▁entsch	-5080
▁starke	-5081
außerdem	-5082
▁brauche	-5083
▁gestern	-5084
▁verschl	-5085
ologischen	-5086
▁brauchten	-5087
▁verbreiten	-5088
dh	-5089
▁0	-5090
yse	-5091
orge	-5092
▁dur	-5093
ischt	-5094
▁grös	-5095
▁gäbe	-5096
kosten	-5097
uliert	-5098
▁erleb	-5099
▁still	-5100
▁erlebt	-5101
▁garten	-5102
▁grafik	-5103
▁kooper	-5104
▁vieler	-5105
bewegung	-5106
▁gelesen	-5107
▁genauer	-5108
▁respekt	-5109
▁erkannte	-5110
▁ungleich	-5111
▁zufrieden	-5112
▁entspricht	-5113
▁entstanden	-5114
▁erscheinen	-5115
,5	-5116
asa	-5117
dru	-5118
eut	-5119
üte	-5120
iven	-5121
▁bra	-5122
ängst	-5123
▁reag	-5124
▁ägyp	-5125
▁insel	-5126
▁lebte	-5127
▁fische	-5128
▁beinhal	-5129
▁körpers	-5130
▁normale	-5131
▁verbrau	-5132
▁überprü	-5133
▁interpre	-5134
▁konflikt	-5135
▁mittleren	-5136
▁organismen	-5137
▁entwickelte	-5138
gas	-5139
res	-5140
▁ev	-5141
akte	-5142
▁21.	-5143
▁bie	-5144
denkt	-5145
ierer	-5146
▁anim	-5147
▁elef	-5148
▁gras	-5149
iertes	-5150
swesen	-5151
▁musst	-5152
▁radik	-5153
schland	-5154
▁beinah	-5155
▁drüben	-5156
▁kurzen	-5157
▁planet	-5158
▁bezahlt	-5159
▁kriegen	-5160
▁brachten	-5161
stellungen	-5162
▁gemeinden	-5163
▁schwarzen	-5164
▁wichtigen	-5165
▁schlechten	-5166
2-	-5167
dy	-5168
lehr	-5169
karte	-5170
komme	-5171
▁lied	-5172
▁roll	-5173
▁vern	-5174
▁passt	-5175
▁repar	-5176
▁zählen	-5177
▁buchsta	-5178
▁viertel	-5179
▁worüber	-5180
fähigkeit	-5181
▁abhängig	-5182
▁hinsicht	-5183
▁methoden	-5184
▁interview	-5185
▁fantastisch	-5186
▁internationalen	-5187
amt	-5188
lad	-5189
▁ba	-5190
kurr	-5191
asste	-5192
phone	-5193
▁dach	-5194
▁dumm	-5195
▁stat	-5196
▁süda	-5197
▁unge	-5198
fallen	-5199
modell	-5200
riften	-5201
▁zweck	-5202
ständen	-5203
▁abstra	-5204
▁ausgeb	-5205
▁träume	-5206
▁einheit	-5207
▁elektri	-5208
▁moderne	-5209
▁starten	-5210
▁aufbauen	-5211
▁kürzlich	-5212
▁lebewesen	-5213
▁politiker	-5214
▁definieren	-5215
▁zugänglich	-5216
▁generationen	-5217
ep	-5218
kopf	-5219
ular	-5220
▁abs	-5221
obwohl	-5222
▁krise	-5223
▁verpf	-5224
▁dutzen	-5225
▁furcht	-5226
▁helden	-5227
▁brasilien	-5228
▁professor	-5229
▁individuen	-5230
▁verbrachte	-5231
▁erwachsenen	-5232
▁wahrnehmung	-5233
▁veröffentlich	-5234
nü	-5235
▁$	-5236
rid	-5237
til	-5238
uhr	-5239
▁tu	-5240
mand	-5241
part	-5242
▁anb	-5243
▁tor	-5244
dient	-5245
enken	-5246
▁frie	-5247
▁jähr	-5248
gewand	-5249
▁viren	-5250
▁weile	-5251
alisten	-5252
stimmen	-5253
▁aspekt	-5254
▁auftau	-5255
▁linien	-5256
▁schock	-5257
▁stammt	-5258
endungen	-5259
ographie	-5260
▁fördern	-5261
▁anwenden	-5262
▁elemente	-5263
▁gefahren	-5264
▁geändert	-5265
▁jahrzehn	-5266
▁abschluss	-5267
▁zerstören	-5268
▁bewegungen	-5269
▁reduzieren	-5270
inkt	-5271
äuse	-5272
▁feu	-5273
▁wik	-5274
mäßig	-5275
▁fuhr	-5276
▁stad	-5277
rechte	-5278
▁folgt	-5279
▁fängt	-5280
▁halbe	-5281
▁hotel	-5282
▁milch	-5283
▁times	-5284
▁vorzu	-5285
▁astron	-5286
▁ausmaß	-5287
▁dunkle	-5288
▁fakten	-5289
▁verlie	-5290
▁wetter	-5291
▁kapital	-5292
▁wechsel	-5293
▁behalten	-5294
▁entgegen	-5295
▁ersetzen	-5296
▁prototyp	-5297
▁gestorben	-5298
▁irgendein	-5299
▁verfügbar	-5300
▁beschlossen	-5301
üge	-5302
▁45	-5303
hyth	-5304
ohnt	-5305
rale	-5306
stat	-5307
ühlt	-5308
▁ermu	-5309
▁isol	-5310
kinder	-5311
olitik	-5312
▁wobei	-5313
▁wuchs	-5314
projekt	-5315
▁streit	-5316
zusetzen	-5317
▁theater	-5318
▁beweisen	-5319
▁komplexe	-5320
▁weltraum	-5321
▁schlechter	-5322
▁internationale	-5323
tä	-5324
▁erm	-5325
leist	-5326
passt	-5327
▁kerl	-5328
spruch	-5329
▁wagen	-5330
▁besitz	-5331
▁wander	-5332
▁details	-5333
▁install	-5334
▁konkurr	-5335
▁spielte	-5336
▁nachbarn	-5337
▁nützlich	-5338
▁allgemein	-5339
▁netzwerke	-5340
▁verbindet	-5341
▁entsprechen	-5342
▁natürlichen	-5343
▁erstaunliche	-5344
▁traditionellen	-5345
▁schwierigkeiten	-5346
30	-5347
ühen	-5348
▁ill	-5349
▁wow	-5350
▁stau	-5351
▁zuzu	-5352
aturen	-5353
gehend	-5354
▁blind	-5355
▁neuro	-5356
▁paten	-5357
gruppen	-5358
zentrum	-5359
▁dauern	-5360
▁doktor	-5361
▁sparen	-5362
issionen	-5363
▁ansicht	-5364
▁geistes	-5365
▁maßstab	-5366
▁unglück	-5367
▁zerstört	-5368
▁beschloss	-5369
▁beschäftigen	-5370
ian	-5371
mma	-5372
urf	-5373
utt	-5374
eins	-5375
rige	-5376
öpfe	-5377
fähig	-5378
inger	-5379
▁code	-5380
▁drin	-5381
▁lich	-5382
schrän	-5383
▁behin	-5384
▁übrig	-5385
▁eindeu	-5386
▁nachts	-5387
▁school	-5388
▁beweise	-5389
▁italien	-5390
▁schaden	-5391
▁website	-5392
▁überein	-5393
▁annehmen	-5394
▁beschrän	-5395
▁besondere	-5396
▁entdeckte	-5397
▁erklärung	-5398
möglichkeiten	-5399
▁zivilisation	-5400
ey	-5401
sc	-5402
200	-5403
dopp	-5404
klen	-5405
male	-5406
pern	-5407
▁roh	-5408
▁rote	-5409
▁blieb	-5410
▁nötig	-5411
umenten	-5412
▁größen	-5413
▁heißen	-5414
▁lebten	-5415
▁wolken	-5416
▁francis	-5417
▁umgeben	-5418
mensionen	-5419
▁emotionen	-5420
▁erscheint	-5421
▁wesentlich	-5422
▁elektrizität	-5423
▁medizinische	-5424
com	-5425
ehm	-5426
kri	-5427
mei	-5428
ube	-5429
vin	-5430
äne	-5431
▁cy	-5432
ippe	-5433
skop	-5434
sser	-5435
ufel	-5436
▁fru	-5437
▁off	-5438
bares	-5439
trotz	-5440
▁live	-5441
▁verab	-5442
▁anführ	-5443
▁chemik	-5444
▁erwart	-5445
▁inhalt	-5446
▁pflanz	-5447
▁freundin	-5448
▁zeichnen	-5449
▁aufgebaut	-5450
▁wohlstand	-5451
▁darstellen	-5452
▁verhältnis	-5453
▁stattdessen	-5454
▁grundlegende	-5455
vis	-5456
ügt	-5457
▁ah	-5458
ganz	-5459
▁bon	-5460
chris	-5461
wagen	-5462
chnung	-5463
üchern	-5464
nachdem	-5465
▁setzte	-5466
▁steigt	-5467
▁zusätz	-5468
▁beinahe	-5469
▁gefällt	-5470
▁sequenz	-5471
▁werbung	-5472
forschung	-5473
▁arbeiter	-5474
eigentlich	-5475
▁digitalen	-5476
▁intellekt	-5477
▁operation	-5478
▁vorfahren	-5479
▁beobachtet	-5480
▁vermitteln	-5481
ld	-5482
uß	-5483
akt	-5484
▁ve	-5485
mord	-5486
olly	-5487
▁sum	-5488
▁atem	-5489
▁quasi	-5490
niemand	-5491
▁anteil	-5492
▁tiefer	-5493
▁umfeld	-5494
▁fischer	-5495
▁gebeten	-5496
▁hindern	-5497
▁spannen	-5498
▁aufnehmen	-5499
zig	-5500
eise	-5501
ones	-5502
ähnt	-5503
▁erg	-5504
▁mas	-5505
linge	-5506
tzeit	-5507
▁witz	-5508
wenden	-5509
▁toten	-5510
▁vorne	-5511
▁weiße	-5512
▁zitat	-5513
itieren	-5514
▁französ	-5515
▁langwei	-5516
▁mächtig	-5517
▁verdopp	-5518
istischen	-5519
▁schatten	-5520
▁transpar	-5521
▁vertraut	-5522
▁bereichen	-5523
▁geschickt	-5524
▁großmutter	-5525
▁allgemeinen	-5526
▁feststellen	-5527
▁schrecklich	-5528
▁situationen	-5529
see	-5530
▁99	-5531
aria	-5532
▁got	-5533
aller	-5534
öpfen	-5535
▁gemü	-5536
▁kosm	-5537
▁spir	-5538
▁wurz	-5539
anders	-5540
kultur	-5541
tismus	-5542
▁bibli	-5543
▁feind	-5544
▁fälle	-5545
▁konfr	-5546
▁lasst	-5547
amerika	-5548
▁christ	-5549
▁herein	-5550
▁junger	-5551
▁kaffee	-5552
▁willst	-5553
▁müssten	-5554
▁solcher	-5555
▁kulturen	-5556
▁schlafen	-5557
▁notwendig	-5558
▁interessen	-5559
▁korruption	-5560
int	-5561
tan	-5562
zun	-5563
eits	-5564
sehr	-5565
▁inn	-5566
jeden	-5567
▁baut	-5568
▁obje	-5569
▁teen	-5570
▁fähig	-5571
▁meist	-5572
▁platt	-5573
▁weißt	-5574
▁durchs	-5575
▁enorme	-5576
▁lehren	-5577
▁quelle	-5578
▁singen	-5579
ktivität	-5580
▁erwähnt	-5581
▁seitdem	-5582
verhalten	-5583
▁schätzen	-5584
versorgung	-5585
▁kontinent	-5586
▁langfrist	-5587
▁transform	-5588
▁diskussion	-5589
▁medikament	-5590
▁mitarbeiter	-5591
▁persönlichen	-5592
dium	-5593
iten	-5594
nahm	-5595
gewal	-5596
lager	-5597
▁rief	-5598
design	-5599
▁anrei	-5600
▁bestä	-5601
▁kohle	-5602
▁kreuz	-5603
▁pingu	-5604
▁stuhl	-5605
▁world	-5606
▁ausgel	-5607
▁erlaub	-5608
▁schuld	-5609
▁signal	-5610
▁verwir	-5611
funktion	-5612
publikum	-5613
▁auswahl	-5614
▁richard	-5615
▁vergröß	-5616
isationen	-5617
▁aufnahme	-5618
▁strategie	-5619
▁aufzubauen	-5620
▁buchstaben	-5621
▁definition	-5622
▁westlichen	-5623
▁deutschland	-5624
▁persönliche	-5625
hu	-5626
fig	-5627
kat	-5628
▁ew	-5629
alog	-5630
igte	-5631
klär	-5632
vard	-5633
▁pak	-5634
▁ros	-5635
▁süß	-5636
ausen	-5637
etwas	-5638
keine	-5639
staat	-5640
▁haar	-5641
▁rake	-5642
fahrer	-5643
▁enden	-5644
▁stock	-5645
▁unbek	-5646
▁woher	-5647
▁effekt	-5648
▁freien	-5649
▁grünen	-5650
▁schlaf	-5651
▁verblü	-5652
▁ökonom	-5653
istische	-5654
▁hierher	-5655
▁schreib	-5656
▁folgende	-5657
▁verteilt	-5658
▁inspiriert	-5659
▁vorhersagen	-5660
reie	-5661
sind	-5662
ulpt	-5663
▁tom	-5664
weile	-5665
▁bele	-5666
▁hilf	-5667
▁phot	-5668
▁zahn	-5669
▁gehol	-5670
▁süden	-5671
▁langer	-5672
▁mexiko	-5673
▁molekül	-5674
▁student	-5675
▁besuchen	-5676
▁erstellt	-5677
▁lebenser	-5678
▁betroffen	-5679
▁untersucht	-5680
▁gegenseitig	-5681
hö	-5682
läu	-5683
heim	-5684
ston	-5685
ugel	-5686
ember	-5687
linie	-5688
preis	-5689
viert	-5690
▁hind	-5691
▁prop	-5692
kelett	-5693
▁anerk	-5694
▁gehör	-5695
▁start	-5696
▁zieht	-5697
gründet	-5698
▁blauen	-5699
▁ergibt	-5700
▁handel	-5701
▁treten	-5702
pflanzen	-5703
qualität	-5704
▁besitzt	-5705
▁lokalen	-5706
▁bereiche	-5707
▁diagramm	-5708
▁entstand	-5709
▁gefallen	-5710
▁gespielt	-5711
▁transpor	-5712
▁anwendung	-5713
▁vermeiden	-5714
▁beinhaltet	-5715
▁unabhängig	-5716
▁unterstützt	-5717
▁erinnerungen	-5718
wissenschaften	-5719
pha	-5720
reif	-5721
rick	-5722
▁brü	-5723
▁top	-5724
▁wäl	-5725
ancen	-5726
mmert	-5727
riffe	-5728
tritt	-5729
▁brut	-5730
▁fehl	-5731
▁heiß	-5732
▁male	-5733
▁initi	-5734
▁lager	-5735
▁stufe	-5736
▁tests	-5737
▁tumor	-5738
▁vögel	-5739
diglich	-5740
▁gelöst	-5741
▁heisst	-5742
▁hinten	-5743
▁zauber	-5744
▁berührt	-5745
▁verhand	-5746
verbrauch	-5747
▁anderson	-5748
▁besessen	-5749
▁existenz	-5750
▁geräusch	-5751
▁mehrheit	-5752
▁tausenden	-5753
▁verbessert	-5754
zz	-5755
dab	-5756
ines	-5757
itel	-5758
▁att	-5759
▁zen	-5760
ckten	-5761
▁open	-5762
▁spät	-5763
fernen	-5764
reisen	-5765
wechsel	-5766
▁diesel	-5767
▁gegend	-5768
▁kannte	-5769
▁kriegs	-5770
▁stärke	-5771
▁teufel	-5772
▁harvard	-5773
▁niedrig	-5774
▁standen	-5775
▁verlust	-5776
▁welchem	-5777
▁kreieren	-5778
▁versteht	-5779
▁australien	-5780
▁schwieriger	-5781
▁faszinierend	-5782
▁wirtschaftliche	-5783
app	-5784
bio	-5785
ühe	-5786
▁sl	-5787
hrop	-5788
star	-5789
▁air	-5790
barer	-5791
othek	-5792
zieht	-5793
▁entz	-5794
bilder	-5795
bücher	-5796
lernen	-5797
▁gemäl	-5798
▁kapit	-5799
▁seele	-5800
▁wisst	-5801
▁befrei	-5802
▁chemie	-5803
▁kochen	-5804
▁mittag	-5805
▁modern	-5806
▁rechen	-5807
▁soviel	-5808
sprozess	-5809
▁erkrank	-5810
▁wissens	-5811
▁kongress	-5812
▁betrachte	-5813
▁potential	-5814
▁widerstand	-5815
▁menschlicher	-5816
▁afrikanischen	-5817
kton	-5818
▁etc	-5819
acher	-5820
boden	-5821
▁droh	-5822
▁eier	-5823
▁kurs	-5824
▁seid	-5825
ichern	-5826
iziert	-5827
sicher	-5828
äusern	-5829
▁anstr	-5830
▁manip	-5831
▁bauten	-5832
▁herren	-5833
▁rollen	-5834
▁sonder	-5835
▁tonnen	-5836
▁verknü	-5837
▁freiwill	-5838
▁entfernen	-5839
▁leistungs	-5840
▁überrasch	-5841
▁überwinden	-5842
gesellschaft	-5843
▁architekten	-5844
▁unterrichten	-5845
vo	-5846
ram	-5847
beim	-5848
berg	-5849
inst	-5850
komm	-5851
norm	-5852
▁flu	-5853
ehren	-5854
kette	-5855
utube	-5856
fassen	-5857
▁blatt	-5858
▁grüne	-5859
▁kenia	-5860
▁rhyth	-5861
einhalb	-5862
ließend	-5863
▁belieb	-5864
▁billig	-5865
bevölker	-5866
▁galaxie	-5867
▁liefern	-5868
▁lächeln	-5869
▁äußerst	-5870
▁echtzeit	-5871
▁verstehe	-5872
▁lediglich	-5873
▁wirkliche	-5874
▁überlegen	-5875
▁instrument	-5876
▁übernehmen	-5877
verständlich	-5878
▁geschlossen	-5879
▁wirtschafts	-5880
täu	-5881
▁bä	-5882
beln	-5883
kung	-5884
mart	-5885
ores	-5886
▁dat	-5887
artet	-5888
iveau	-5889
mater	-5890
räume	-5891
sätze	-5892
▁halt	-5893
▁kate	-5894
▁real	-5895
artige	-5896
damals	-5897
frauen	-5898
▁meinte	-5899
▁winter	-5900
▁aussage	-5901
▁erhöhen	-5902
▁risiken	-5903
losigkeit	-5904
▁digitale	-5905
▁entschul	-5906
▁kognitiv	-5907
▁erfindung	-5908
▁verlangen	-5909
▁aktivitäten	-5910
▁bedürfnisse	-5911
▁kombination	-5912
erne	-5913
sich	-5914
▁anh	-5915
▁gre	-5916
▁jan	-5917
ammen	-5918
biert	-5919
nungs	-5920
weite	-5921
▁bund	-5922
▁hell	-5923
▁nett	-5924
andere	-5925
leider	-5926
lösung	-5927
▁bauch	-5928
▁beloh	-5929
▁fährt	-5930
▁human	-5931
▁hyper	-5932
▁pfund	-5933
▁weihn	-5934
fliegen	-5935
problem	-5936
reibung	-5937
▁blumen	-5938
▁epidem	-5939
▁gelebt	-5940
▁george	-5941
▁malaria	-5942
▁zuhören	-5943
▁eingesch	-5944
▁vergewal	-5945
▁wertvoll	-5946
▁gegründet	-5947
▁grundlage	-5948
▁beschrieben	-5949
▁kompliziert	-5950
ci	-5951
ago	-5952
ird	-5953
ire	-5954
ise	-5955
leb	-5956
rel	-5957
▁11.	-5958
▁rum	-5959
anger	-5960
dabei	-5961
kontr	-5962
▁aspe	-5963
▁grie	-5964
▁wahn	-5965
karten	-5966
▁baute	-5967
▁stehe	-5968
▁wofür	-5969
ittlich	-5970
▁besagt	-5971
▁brücke	-5972
▁fabrik	-5973
▁mangel	-5974
▁senden	-5975
▁vorder	-5976
▁absicht	-5977
▁erhielt	-5978
▁fahrrad	-5979
▁momente	-5980
▁youtube	-5981
besondere	-5982
▁einstein	-5983
▁spektrum	-5984
▁ähnliche	-5985
▁berichten	-5986
▁dieselben	-5987
▁eindeutig	-5988
▁angenommen	-5989
▁erwachsene	-5990
▁veränderte	-5991
▁zusammenzu	-5992
▁großartigen	-5993
bür	-5994
del	-5995
ley	-5996
rett	-5997
▁bur	-5998
lesen	-5999
▁höre	-6000
▁länd	-6001
haften	-6002
zeigen	-6003
▁blaue	-6004
▁damen	-6005
▁folie	-6006
▁hunde	-6007
▁relev	-6008
▁gewiss	-6009
tausende	-6010
▁derzeit	-6011
▁perfekte	-6012
▁bekannten	-6013
▁gebraucht	-6014
bevölkerung	-6015
▁chemikalien	-6016
oo	-6017
adel	-6018
bern	-6019
comp	-6020
eile	-6021
üche	-6022
▁anp	-6023
▁gig	-6024
▁sur	-6025
amour	-6026
behör	-6027
ehung	-6028
menge	-6029
wesen	-6030
▁lieb	-6031
drückt	-6032
▁brief	-6033
▁drauf	-6034
▁stahl	-6035
▁versp	-6036
ografie	-6037
▁akadem	-6038
▁austau	-6039
▁darwin	-6040
▁mengen	-6041
▁überqu	-6042
material	-6043
▁glaubte	-6044
▁quanten	-6045
▁trocken	-6046
▁unteren	-6047
probieren	-6048
▁ereignis	-6049
▁positive	-6050
▁einfaches	-6051
▁kostenlos	-6052
▁transport	-6053
▁fasziniert	-6054
▁geburtstag	-6055
▁vorzustellen	-6056
▁funktionierte	-6057
ipe	-6058
oth	-6059
▁gö	-6060
asie	-6061
azon	-6062
gert	-6063
komp	-6064
video	-6065
ätter	-6066
▁eink	-6067
▁kühl	-6068
▁lebe	-6069
▁nasa	-6070
achter	-6071
bilden	-6072
gesamt	-6073
ischem	-6074
kungen	-6075
▁parad	-6076
stoffen	-6077
▁bietet	-6078
▁fingen	-6079
▁kirche	-6080
▁lungen	-6081
▁vieles	-6082
▁zufall	-6083
▁afrikas	-6084
▁komment	-6085
▁meister	-6086
▁verstär	-6087
▁zeitung	-6088
▁führungs	-6089
▁komponen	-6090
▁leichter	-6091
▁pakistan	-6092
▁schritte	-6093
▁francisco	-6094
▁südafrika	-6095
▁akzeptieren	-6096
oc	-6097
beg	-6098
tze	-6099
alte	-6100
esie	-6101
förm	-6102
ktes	-6103
spar	-6104
zial	-6105
▁pra	-6106
ender	-6107
▁ausb	-6108
▁juli	-6109
▁tour	-6110
stechn	-6111
▁kabel	-6112
▁küste	-6113
▁nukle	-6114
▁sowas	-6115
▁zwang	-6116
erseits	-6117
prozess	-6118
systems	-6119
▁bedarf	-6120
▁führer	-6121
▁gesamt	-6122
▁gottes	-6123
▁konzep	-6124
▁krimin	-6125
▁leiten	-6126
▁konfron	-6127
▁lektion	-6128
▁übersch	-6129
▁metapher	-6130
▁erweitern	-6131
▁gemeinsame	-6132
▁speziellen	-6133
▁automatisch	-6134
▁dargestellt	-6135
▁sicherheits	-6136
▁statistiken	-6137
▁überraschend	-6138
▁interessantes	-6139
tal	-6140
önt	-6141
▁mr	-6142
ging	-6143
ogar	-6144
▁19.	-6145
▁hem	-6146
▁täu	-6147
zesse	-6148
▁kons	-6149
▁skla	-6150
▁stir	-6151
tigten	-6152
tionen	-6153
▁wüste	-6154
sterben	-6155
örungen	-6156
▁origin	-6157
▁ration	-6158
▁schätz	-6159
▁manchen	-6160
▁nervenz	-6161
▁signale	-6162
▁solange	-6163
▁trinken	-6164
▁wirkung	-6165
▁besseres	-6166
▁dahinter	-6167
▁erlebnis	-6168
▁verbrechen	-6169
▁einstellung	-6170
▁gemeinsamen	-6171
▁aufgewachsen	-6172
▁gerechtigkeit	-6173
▁beispielsweise	-6174
aul	-6175
▁sä	-6176
▁ul	-6177
fang	-6178
▁höl	-6179
sogar	-6180
▁koch	-6181
▁nähr	-6182
bstoff	-6183
dienst	-6184
nommen	-6185
unkten	-6186
▁jener	-6187
▁räume	-6188
itation	-6189
lischen	-6190
▁aufbau	-6191
▁ausger	-6192
▁innere	-6193
▁löcher	-6194
▁market	-6195
▁ozeane	-6196
▁skulpt	-6197
▁völker	-6198
chnungen	-6199
gelassen	-6200
▁ansieht	-6201
▁einiges	-6202
▁zeigten	-6203
▁zweifel	-6204
▁darunter	-6205
▁lebendig	-6206
▁springen	-6207
produktion	-6208
▁gegenwart	-6209
▁verwandelt	-6210
▁terrorismus	-6211
▁präsentation	-6212
ael	-6213
cyc	-6214
ech	-6215
ruh	-6216
▁wh	-6217
icro	-6218
▁abh	-6219
▁pan	-6220
metho	-6221
seine	-6222
▁ener	-6223
▁froh	-6224
▁moch	-6225
▁seht	-6226
▁show	-6227
danach	-6228
muster	-6229
▁erdbe	-6230
▁korre	-6231
▁samen	-6232
▁sympt	-6233
richtet	-6234
▁aktion	-6235
▁amazon	-6236
▁landen	-6237
▁realen	-6238
▁unfall	-6239
▁bekomme	-6240
▁dauerte	-6241
▁enthält	-6242
▁falschen	-6243
▁unmittel	-6244
▁unsicher	-6245
▁vorteile	-6246
▁weiterer	-6247
▁elefanten	-6248
▁zuschauer	-6249
▁bezeichnen	-6250
▁gedächtnis	-6251
▁menschliches	-6252
▁organisieren	-6253
▁grundsätzlich	-6254
▁unglaublichen	-6255
geschwindigkeit	-6256
neu	-6257
▁ip	-6258
▁ri	-6259
▁com	-6260
▁pat	-6261
artig	-6262
dreht	-6263
offen	-6264
▁dipl	-6265
▁farb	-6266
▁flex	-6267
▁kart	-6268
▁stür	-6269
punkte	-6270
quelle	-6271
recken	-6272
▁gelie	-6273
▁immun	-6274
▁phase	-6275
▁trick	-6276
▁achten	-6277
▁anfing	-6278
▁geschw	-6279
▁hielten	-6280
▁nigeria	-6281
▁treiben	-6282
▁veranst	-6283
▁verring	-6284
▁zweimal	-6285
▁geholfen	-6286
▁russland	-6287
▁webseite	-6288
▁wechseln	-6289
▁behaupten	-6290
▁beobachte	-6291
▁folgenden	-6292
▁literatur	-6293
stattdessen	-6294
▁profession	-6295
▁alternative	-6296
▁durchführen	-6297
▁stammzellen	-6298
▁unterhaltung	-6299
col	-6300
abor	-6301
smod	-6302
▁600	-6303
▁pen	-6304
▁wüs	-6305
ahnen	-6306
icken	-6307
▁erhe	-6308
▁nase	-6309
▁repu	-6310
dollar	-6311
kräfte	-6312
licken	-6313
▁hilfs	-6314
▁teles	-6315
dlichen	-6316
▁alltag	-6317
▁iphone	-6318
▁kanada	-6319
▁lokale	-6320
▁rennen	-6321
leistung	-6322
▁gewählt	-6323
▁kapitel	-6324
▁anführer	-6325
▁beeindru	-6326
▁bemerkte	-6327
leistungen	-6328
▁betrieben	-6329
▁gebrochen	-6330
▁beibringen	-6331
▁moralische	-6332
▁fortschritte	-6333
▁irgendjemand	-6334
▁untersuchung	-6335
eis	-6336
kla	-6337
sob	-6338
tun	-6339
äft	-6340
iche	-6341
wald	-6342
▁geg	-6343
▁ums	-6344
drück	-6345
erung	-6346
utern	-6347
▁2008	-6348
▁chic	-6349
▁sorg	-6350
mensch	-6351
reiche	-6352
▁atmen	-6353
▁letzt	-6354
▁abfall	-6355
▁jeweil	-6356
▁pflege	-6357
deswegen	-6358
▁drücken	-6359
▁erkannt	-6360
▁führten	-6361
▁verlang	-6362
▁billionen	-6363
▁scheinbar	-6364
▁schicksal	-6365
▁teilweise	-6366
▁unterricht	-6367
▁ausstellung	-6368
▁darstellung	-6369
▁jahrzehnten	-6370
▁medizinischen	-6371
fi	-6372
hrt	-6373
män	-6374
uls	-6375
▁gt	-6376
▁lt	-6377
film	-6378
▁leg	-6379
▁nar	-6380
gener	-6381
▁böse	-6382
▁lass	-6383
bungen	-6384
gerung	-6385
winkel	-6386
▁james	-6387
▁misch	-6388
▁noten	-6389
▁spann	-6390
▁wovon	-6391
bewusst	-6392
gedacht	-6393
▁ausgew	-6394
▁grosse	-6395
▁hinauf	-6396
▁tanzen	-6397
▁vertre	-6398
▁welten	-6399
▁worauf	-6400
▁gebiete	-6401
▁gekauft	-6402
▁merkwür	-6403
▁nutzung	-6404
▁weshalb	-6405
arbeitung	-6406
▁anschein	-6407
▁geschenk	-6408
▁teenager	-6409
▁einschrän	-6410
▁geräusche	-6411
▁jahrzehnt	-6412
▁komplexen	-6413
enk	-6414
kul	-6415
ymp	-6416
▁23	-6417
azin	-6418
nütz	-6419
tive	-6420
▁gal	-6421
▁okt	-6422
krise	-6423
ttung	-6424
ügend	-6425
dieren	-6426
ührung	-6427
▁asien	-6428
▁dreie	-6429
▁günst	-6430
▁horiz	-6431
▁ohren	-6432
▁rufen	-6433
▁umher	-6434
tierung	-6435
▁bundes	-6436
▁heilen	-6437
▁hunger	-6438
▁merken	-6439
▁strand	-6440
▁wirken	-6441
isierung	-6442
▁glamour	-6443
▁tatsäch	-6444
▁offenbar	-6445
▁physikal	-6446
▁resultat	-6447
▁sichtbar	-6448
▁betreiben	-6449
▁enthalten	-6450
▁versteckt	-6451
▁antwortete	-6452
▁prinzipien	-6453
▁sogenannte	-6454
▁nachgedacht	-6455
▁innovationen	-6456
▁verschwunden	-6457
▁vorstellungen	-6458
za	-6459
bom	-6460
pri	-6461
▁75	-6462
▁rö	-6463
ohne	-6464
phen	-6465
zenz	-6466
zten	-6467
▁ath	-6468
glück	-6469
ordin	-6470
soren	-6471
▁verz	-6472
bringt	-6473
sobald	-6474
stücke	-6475
testen	-6476
▁schme	-6477
mitglie	-6478
standen	-6479
▁anhand	-6480
▁grippe	-6481
▁presse	-6482
▁spüren	-6483
▁trafen	-6484
ollywood	-6485
▁quellen	-6486
▁sternen	-6487
schneiden	-6488
▁anschaut	-6489
▁hinunter	-6490
▁aufnahmen	-6491
▁langsamer	-6492
▁restaurant	-6493
▁öffentlich	-6494
▁gemeinschaften	-6495
▁nachhaltigkeit	-6496
▁ap	-6497
▁py	-6498
oxid	-6499
schi	-6500
tend	-6501
zipl	-6502
öser	-6503
▁bla	-6504
lösen	-6505
ünden	-6506
ipedia	-6507
ktiver	-6508
mechan	-6509
▁armee	-6510
▁beute	-6511
▁gehei	-6512
▁stern	-6513
fassung	-6514
griffen	-6515
▁flücht	-6516
▁golden	-6517
▁märkte	-6518
▁schlei	-6519
gegangen	-6520
gleichen	-6521
▁chancen	-6522
▁einzeln	-6523
▁erneuer	-6524
▁fremden	-6525
▁gemälde	-6526
▁spenden	-6527
▁starben	-6528
▁kampagne	-6529
▁regionen	-6530
▁derselben	-6531
▁ernährung	-6532
▁gesichter	-6533
▁ingenieur	-6534
▁arabischen	-6535
▁verglichen	-6536
▁weltweiten	-6537
car	-6538
kap	-6539
urz	-6540
▁27	-6541
▁zü	-6542
drei	-6543
▁dns	-6544
▁dör	-6545
▁ost	-6546
▁tur	-6547
anche	-6548
andid	-6549
kehrt	-6550
samen	-6551
▁expl	-6552
▁älte	-6553
inhalb	-6554
▁kurve	-6555
▁lügen	-6556
▁verda	-6557
▁woran	-6558
rüstung	-6559
spiegel	-6560
▁berück	-6561
▁bezahl	-6562
▁fokuss	-6563
▁schnee	-6564
▁tiefen	-6565
computer	-6566
interess	-6567
▁aufgere	-6568
▁debatte	-6569
▁unerwar	-6570
▁versamm	-6571
▁wieviel	-6572
schriften	-6573
▁genügend	-6574
▁republik	-6575
▁schreibt	-6576
▁umfassen	-6577
▁bedeutete	-6578
▁darstellt	-6579
▁marketing	-6580
▁irgendeine	-6581
▁wettbewerb	-6582
▁inspirieren	-6583
▁konzentriert	-6584
▁klassenzimmer	-6585
eg	-6586
sl	-6587
yl	-6588
pos	-6589
brid	-6590
dank	-6591
ison	-6592
leib	-6593
stür	-6594
▁gps	-6595
hlung	-6596
üssen	-6597
▁1000	-6598
▁bezü	-6599
▁dire	-6600
▁quer	-6601
▁ruhe	-6602
▁span	-6603
▁trug	-6604
▁wach	-6605
ueller	-6606
wieder	-6607
▁angem	-6608
▁chaos	-6609
▁fokus	-6610
▁magie	-6611
▁treib	-6612
▁verur	-6613
aufnahme	-6614
bekommen	-6615
vermögen	-6616
▁chicago	-6617
▁grossen	-6618
▁musiker	-6619
▁schlacht	-6620
ussendlich	-6621
▁bezüglich	-6622
▁ausgesetzt	-6623
▁eingeladen	-6624
▁ereignisse	-6625
▁wenigstens	-6626
▁wundervoll	-6627
▁chinesische	-6628
▁informations	-6629
its	-6630
ney	-6631
obi	-6632
▁mü	-6633
here	-6634
holz	-6635
uche	-6636
urop	-6637
▁lad	-6638
▁pho	-6639
darum	-6640
lasst	-6641
letzt	-6642
onent	-6643
onien	-6644
stamm	-6645
▁hieß	-6646
▁kalt	-6647
▁paul	-6648
freund	-6649
leiten	-6650
▁phant	-6651
artigen	-6652
▁detail	-6653
▁faktor	-6654
▁fläche	-6655
▁gesamm	-6656
▁annahme	-6657
▁konserv	-6658
▁letzter	-6659
▁stoppen	-6660
▁streben	-6661
▁argument	-6662
▁kleidung	-6663
▁mikroben	-6664
▁versagen	-6665
▁computern	-6666
▁scheitern	-6667
▁spielzeug	-6668
▁versorgen	-6669
▁entfernung	-6670
sterblichkeit	-6671
xi	-6672
bet	-6673
cin	-6674
hof	-6675
rot	-6676
▁dü	-6677
sozi	-6678
stei	-6679
▁ann	-6680
▁eli	-6681
▁stä	-6682
athie	-6683
eidet	-6684
etten	-6685
stero	-6686
▁alex	-6687
▁bang	-6688
▁stan	-6689
▁weis	-6690
legend	-6691
pflanz	-6692
▁1.000	-6693
▁erwär	-6694
▁micro	-6695
▁ausser	-6696
▁bedien	-6697
▁handys	-6698
▁hörten	-6699
▁kindes	-6700
▁100.000	-6701
▁angeles	-6702
▁angesch	-6703
▁besorgt	-6704
▁charles	-6705
▁dokumen	-6706
▁überwäl	-6707
▁wahnsinn	-6708
▁basierend	-6709
▁beteiligt	-6710
▁regierungs	-6711
▁wahrnehmen	-6712
▁kontrolliert	-6713
▁überraschung	-6714
▁veröffentlichen	-6715
fot	-6716
▁2.	-6717
▁ke	-6718
fung	-6719
kind	-6720
king	-6721
utet	-6722
▁cen	-6723
▁sar	-6724
bitte	-6725
plant	-6726
weich	-6727
ünder	-6728
▁fürs	-6729
▁mini	-6730
▁sing	-6731
geschn	-6732
riffen	-6733
werken	-6734
werten	-6735
▁erfol	-6736
▁fehlt	-6737
▁sorge	-6738
mutzung	-6739
wartung	-6740
▁boston	-6741
▁planen	-6742
▁stücke	-6743
▁suchte	-6744
▁beenden	-6745
▁chirurg	-6746
▁doppelt	-6747
▁dringen	-6748
▁ergeben	-6749
▁offenen	-6750
▁erweiter	-6751
▁genießen	-6752
▁proteine	-6753
▁mitnehmen	-6754
▁programme	-6755
▁unterwegs	-6756
▁hinzufügen	-6757
▁jahrzehnte	-6758
▁langweilig	-6759
▁sichtweise	-6760
▁university	-6761
▁verblüffen	-6762
▁dimensionen	-6763
▁elektrische	-6764
▁grundlegend	-6765
▁inspiration	-6766
▁psychologie	-6767
▁sonnenlicht	-6768
▁voneinander	-6769
▁wiederholen	-6770
▁wunderbaren	-6771
▁fantastische	-6772
▁hinterlassen	-6773
▁22	-6774
klar	-6775
▁hüh	-6776
▁wem	-6777
gangs	-6778
gespr	-6779
halts	-6780
ismen	-6781
▁akte	-6782
▁half	-6783
▁jüng	-6784
▁mode	-6785
▁raub	-6786
▁schm	-6787
handel	-6788
manden	-6789
▁draht	-6790
▁paris	-6791
▁säuge	-6792
▁dienen	-6793
▁feiern	-6794
▁flügel	-6795
▁gelang	-6796
▁hängen	-6797
▁schalt	-6798
▁status	-6799
schaffen	-6800
▁angriff	-6801
▁traurig	-6802
▁batterie	-6803
▁bewirken	-6804
▁schauten	-6805
▁schweden	-6806
▁untersch	-6807
▁verliert	-6808
▁zeitraum	-6809
▁aufgeregt	-6810
▁spezielle	-6811
▁umzugehen	-6812
▁verfahren	-6813
▁wikipedia	-6814
▁bezeichnet	-6815
▁frankreich	-6816
▁instrumente	-6817
▁verbreitung	-6818
▁vorbereitet	-6819
▁entdeckungen	-6820
▁konsequenzen	-6821
▁dreidimension	-6822
ehl	-6823
▁eu	-6824
▁zy	-6825
ehrt	-6826
kore	-6827
lass	-6828
tien	-6829
▁250	-6830
▁abt	-6831
▁can	-6832
▁imm	-6833
▁ruf	-6834
▁wid	-6835
euert	-6836
gebäu	-6837
illen	-6838
läuft	-6839
these	-6840
ässer	-6841
▁bahn	-6842
▁hing	-6843
▁sper	-6844
mittag	-6845
zahlen	-6846
▁eisen	-6847
▁higgs	-6848
▁impro	-6849
▁liber	-6850
▁scien	-6851
▁wirkt	-6852
station	-6853
▁angeht	-6854
▁astero	-6855
▁deiner	-6856
▁erneut	-6857
▁futter	-6858
▁pollen	-6859
designer	-6860
▁dunklen	-6861
▁gezogen	-6862
▁skelett	-6863
▁älteren	-6864
▁bekannte	-6865
▁speziell	-6866
▁wünschte	-6867
▁definiert	-6868
▁niemanden	-6869
schließlich	-6870
▁beeindruck	-6871
▁depression	-6872
▁zerstörung	-6873
▁algorithmen	-6874
▁biologische	-6875
▁eigentliche	-6876
▁ursprünglich	-6877
ica	-6878
ics	-6879
sti	-6880
xis	-6881
kein	-6882
mack	-6883
▁box	-6884
▁pre	-6885
▁ärm	-6886
anter	-6887
führt	-6888
▁ethn	-6889
▁glüh	-6890
▁beton	-6891
▁kämpf	-6892
▁misst	-6893
▁warte	-6894
anstatt	-6895
▁abente	-6896
▁beherr	-6897
▁einzus	-6898
▁oberen	-6899
▁schach	-6900
▁winzig	-6901
stimmung	-6902
zunächst	-6903
zusammen	-6904
▁aspekte	-6905
▁flächen	-6906
▁gedicht	-6907
▁kameras	-6908
▁ausgeben	-6909
▁bedenken	-6910
▁begegnen	-6911
▁ernähren	-6912
▁momentan	-6913
▁verdient	-6914
▁afrikaner	-6915
▁anzusehen	-6916
▁potenzial	-6917
▁reduziert	-6918
▁wichtiges	-6919
▁richtungen	-6920
▁zusammenge	-6921
▁änderungen	-6922
▁herstellung	-6923
▁persönlichkeit	-6924
▁außergewöhnlich	-6925
bu	-6926
kür	-6927
ots	-6928
pus	-6929
tru	-6930
dach	-6931
obel	-6932
rang	-6933
same	-6934
sour	-6935
städ	-6936
▁194	-6937
▁erb	-6938
▁jer	-6939
▁tin	-6940
erzäh	-6941
küste	-6942
nchen	-6943
▁bord	-6944
▁ghan	-6945
▁infe	-6946
▁tele	-6947
findet	-6948
geräte	-6949
rieren	-6950
sachen	-6951
schiff	-6952
▁löwen	-6953
▁teams	-6954
▁unvor	-6955
▁zähne	-6956
politik	-6957
treffen	-6958
zwungen	-6959
▁lächer	-6960
▁machst	-6961
▁dichter	-6962
▁anpassen	-6963
▁erdbeben	-6964
▁erfüllen	-6965
▁gesichts	-6966
▁horizont	-6967
▁leuchten	-6968
▁schulter	-6969
▁begreifen	-6970
▁mikroskop	-6971
▁verrückte	-6972
▁zunehmend	-6973
▁brustkrebs	-6974
▁eingeführt	-6975
▁technischen	-6976
▁vergangenen	-6977
▁interessanten	-6978
▁nachbarschaft	-6979
▁programmieren	-6980
10	-6981
bus	-6982
ory	-6983
ruf	-6984
tin	-6985
une	-6986
derm	-6987
mpft	-6988
üter	-6989
▁ank	-6990
▁ära	-6991
unruh	-6992
▁juni	-6993
▁rock	-6994
▁schä	-6995
linien	-6996
▁alpha	-6997
▁angen	-6998
▁berge	-6999
▁decke	-7000
▁garan	-7001
▁kateg	-7002
▁knapp	-7003
▁obama	-7004
▁olymp	-7005
ttausen	-7006
▁dichte	-7007
▁eingeb	-7008
▁erhöht	-7009
▁explos	-7010
▁gemüse	-7011
▁global	-7012
▁island	-7013
▁kaufte	-7014
▁metall	-7015
▁niveau	-7016
▁schuhe	-7017
▁nannten	-7018
▁schicht	-7019
▁träumen	-7020
▁anhalten	-7021
▁gegenden	-7022
▁gelassen	-7023
▁intensiv	-7024
▁bekämpfen	-7025
▁geschäfte	-7026
▁genetische	-7027
▁ingenieure	-7028
▁verursachen	-7029
▁insbesondere	-7030
▁bemerkenswert	-7031
ota	-7032
züg	-7033
back	-7034
deut	-7035
iner	-7036
oler	-7037
team	-7038
ward	-7039
▁lam	-7040
▁mad	-7041
nügen	-7042
schwe	-7043
wieso	-7044
▁2010	-7045
▁kore	-7046
▁leer	-7047
▁legt	-7048
▁meth	-7049
▁rönt	-7050
▁sech	-7051
gebiet	-7052
stimmt	-7053
▁kongo	-7054
▁steve	-7055
▁worum	-7056
mittelt	-7057
▁ausges	-7058
▁falten	-7059
▁höchst	-7060
▁höhere	-7061
▁neigen	-7062
▁rezept	-7063
▁street	-7064
▁vorhin	-7065
▁beunruh	-7066
▁gericht	-7067
▁krieges	-7068
▁schönes	-7069
▁starken	-7070
▁verlauf	-7071
maschinen	-7072
▁berühren	-7073
▁erfassen	-7074
▁gebäuden	-7075
▁mehreren	-7076
▁männchen	-7077
▁nationale	-7078
zeichnungen	-7079
▁kulturelle	-7080
▁schwierige	-7081
▁lebenserwartung	-7082
ump	-7083
nutz	-7084
omas	-7085
ülle	-7086
▁cir	-7087
▁cle	-7088
▁hai	-7089
▁kuh	-7090
▁ras	-7091
▁rek	-7092
dafür	-7093
elang	-7094
mails	-7095
vater	-7096
▁biom	-7097
▁mama	-7098
▁simp	-7099
führer	-7100
graben	-7101
▁alltä	-7102
▁anruf	-7103
▁auton	-7104
▁besei	-7105
▁cyber	-7106
▁hallo	-7107
▁karik	-7108
▁level	-7109
ichtete	-7110
schicht	-7111
▁analog	-7112
▁verwen	-7113
▁michael	-7114
▁taschen	-7115
▁exponent	-7116
▁glaubten	-7117
▁verschie	-7118
▁vorwärts	-7119
▁angelegen	-7120
▁hoffnungs	-7121
▁indischen	-7122
▁kreativen	-7123
▁vergnügen	-7124
▁weltkrieg	-7125
schnittlich	-7126
▁bibliothek	-7127
▁dunkelheit	-7128
▁ländlichen	-7129
▁beigebracht	-7130
▁entscheidend	-7131
ai	-7132
hat	-7133
hre	-7134
▁vi	-7135
betr	-7136
ette	-7137
ftig	-7138
soft	-7139
▁kün	-7140
▁mak	-7141
▁mig	-7142
▁sms	-7143
auten	-7144
eiter	-7145
firma	-7146
grenz	-7147
kunst	-7148
ratet	-7149
reift	-7150
▁dist	-7151
▁myth	-7152
▁pazi	-7153
▁stim	-7154
leiter	-7155
messer	-7156
ährung	-7157
▁ghana	-7158
▁heben	-7159
▁humor	-7160
▁malen	-7161
▁nahen	-7162
▁subst	-7163
schläge	-7164
sproble	-7165
staaten	-7166
▁alters	-7167
▁center	-7168
▁enttäu	-7169
▁geruch	-7170
▁reihen	-7171
▁schild	-7172
▁wahlen	-7173
ierenden	-7174
▁koordin	-7175
▁mittels	-7176
▁mobilte	-7177
▁negativ	-7178
▁chinesen	-7179
▁krankenh	-7180
▁lebenden	-7181
▁problems	-7182
▁seltsame	-7183
▁ursprung	-7184
ungssystem	-7185
▁erforscht	-7186
▁ernsthaft	-7187
▁wachstums	-7188
gehensweise	-7189
▁interaktiv	-7190
▁eigenschaft	-7191
▁erwartungen	-7192
▁neuigkeiten	-7193
▁bevölkerungs	-7194
▁grundlegenden	-7195
▁weiterentwick	-7196
hai	-7197
ime	-7198
irk	-7199
tic	-7200
vat	-7201
ärm	-7202
dazu	-7203
iens	-7204
mark	-7205
okol	-7206
▁mio	-7207
atein	-7208
bevor	-7209
vileg	-7210
▁grav	-7211
andern	-7212
eilung	-7213
wellen	-7214
▁griff	-7215
▁haiti	-7216
▁hitze	-7217
▁polio	-7218
▁recyc	-7219
▁zweit	-7220
fischen	-7221
gemacht	-7222
mädchen	-7223
▁latein	-7224
▁schlug	-7225
▁soweit	-7226
gefallen	-7227
▁benutze	-7228
▁brechen	-7229
▁dankbar	-7230
▁general	-7231
▁schwere	-7232
▁erklärte	-7233
▁getrennt	-7234
▁reagiert	-7235
▁ausmachen	-7236
▁bedrohung	-7237
▁berechnen	-7238
▁nachhaltig	-7239
▁vorsichtig	-7240
▁elektrischen	-7241
▁konfrontiert	-7242
arr	-7243
eme	-7244
ham	-7245
ike	-7246
anal	-7247
denz	-7248
osex	-7249
▁don	-7250
iness	-7251
▁besa	-7252
▁glet	-7253
▁mosk	-7254
▁präz	-7255
▁visu	-7256
drehen	-7257
▁beruh	-7258
▁bibel	-7259
▁dicht	-7260
▁flexi	-7261
▁hoher	-7262
▁meere	-7263
▁prior	-7264
▁urban	-7265
▁deinem	-7266
▁hypoth	-7267
▁liebte	-7268
▁proben	-7269
▁reflek	-7270
▁vierte	-7271
▁weisen	-7272
sprecher	-7273
▁besucht	-7274
▁musikal	-7275
▁röntgen	-7276
▁stärken	-7277
▁besuchte	-7278
▁fahrzeug	-7279
▁kreative	-7280
▁zurückge	-7281
▁belohnung	-7282
▁denselben	-7283
▁projekten	-7284
▁besonderen	-7285
▁verwendung	-7286
▁zurückgehen	-7287
▁identifizieren	-7288
gin	-7289
arma	-7290
burg	-7291
ähen	-7292
▁cor	-7293
tteln	-7294
wirkt	-7295
▁2007	-7296
▁chip	-7297
▁dame	-7298
▁häss	-7299
▁lese	-7300
▁mart	-7301
▁ritu	-7302
innern	-7303
sprach	-7304
▁brill	-7305
▁enkel	-7306
▁frühe	-7307
▁kugel	-7308
▁offiz	-7309
▁ruhig	-7310
chester	-7311
mischen	-7312
▁bildet	-7313
▁kriege	-7314
▁nervös	-7315
▁recher	-7316
▁spirit	-7317
▁späten	-7318
▁therap	-7319
▁umwand	-7320
geschäft	-7321
▁blätter	-7322
▁geteilt	-7323
▁nirgend	-7324
▁spinnen	-7325
▁systema	-7326
▁ägypten	-7327
▁faktoren	-7328
▁physiker	-7329
▁theorien	-7330
▁vielmehr	-7331
▁weisheit	-7332
▁plattform	-7333
▁schmerzen	-7334
▁umständen	-7335
▁ignorieren	-7336
▁investiert	-7337
▁nationalen	-7338
▁schlechtes	-7339
▁wasserstoff	-7340
▁wundervolle	-7341
▁hunderttausen	-7342
bg	-7343
kw	-7344
ya	-7345
▁cm	-7346
agte	-7347
omat	-7348
stät	-7349
▁120	-7350
rufen	-7351
stete	-7352
stuhl	-7353
▁adam	-7354
▁risk	-7355
▁sele	-7356
▁stap	-7357
dliche	-7358
klasse	-7359
lehrer	-7360
melzen	-7361
schten	-7362
stisch	-7363
uchtet	-7364
▁autom	-7365
▁bedro	-7366
▁bemüh	-7367
▁brand	-7368
▁figur	-7369
▁front	-7370
▁könne	-7371
▁linke	-7372
▁stieg	-7373
▁ungeh	-7374
dringen	-7375
▁explod	-7376
▁gebrau	-7377
▁gipfel	-7378
▁jünger	-7379
▁kommer	-7380
▁medium	-7381
▁wenden	-7382
▁analyse	-7383
▁anstieg	-7384
▁dokument	-7385
▁erwähnen	-7386
▁privileg	-7387
▁studiert	-7388
▁training	-7389
▁vermögen	-7390
▁visuelle	-7391
geschlagen	-7392
▁empfinden	-7393
▁ähnliches	-7394
▁beschreibt	-7395
▁teilnehmer	-7396
▁präsidenten	-7397
▁terroristen	-7398
▁mathematiker	-7399
▁beeindruckend	-7400
▁einrichtungen	-7401
500	-7402
abl	-7403
bur	-7404
ele	-7405
ias	-7406
typ	-7407
arto	-7408
mern	-7409
ossi	-7410
zusp	-7411
▁ark	-7412
▁van	-7413
▁wut	-7414
eihen	-7415
liste	-7416
ohlen	-7417
▁chef	-7418
▁fair	-7419
▁knie	-7420
▁last	-7421
▁line	-7422
▁saal	-7423
▁stet	-7424
▁strö	-7425
fältig	-7426
körper	-7427
nichts	-7428
▁diabe	-7429
▁jenem	-7430
▁reser	-7431
▁wärme	-7432
anlagen	-7433
darüber	-7434
uchtung	-7435
▁aussah	-7436
▁hassen	-7437
▁leiter	-7438
▁marken	-7439
▁partei	-7440
▁schaue	-7441
▁studio	-7442
▁unterb	-7443
▁yorker	-7444
▁abgesch	-7445
▁bericht	-7446
▁gesetzt	-7447
▁wünsche	-7448
▁erfinder	-7449
▁nebenbei	-7450
▁riesiges	-7451
▁systemen	-7452
▁winzigen	-7453
▁zentrale	-7454
▁gespräche	-7455
▁gestartet	-7456
▁insgesamt	-7457
▁konflikte	-7458
▁politisch	-7459
▁weihnacht	-7460
▁dazwischen	-7461
▁englischen	-7462
▁reaktionen	-7463
▁anscheinend	-7464
▁einfachheit	-7465
▁glücklicher	-7466
▁oberflächen	-7467
▁organisiert	-7468
▁entschlossen	-7469
▁mittlerweile	-7470
dad	-7471
erf	-7472
hop	-7473
▁28	-7474
▁ug	-7475
fand	-7476
soll	-7477
sthe	-7478
▁ren	-7479
▁vag	-7480
arden	-7481
ckung	-7482
ächer	-7483
▁gerü	-7484
▁haie	-7485
▁horm	-7486
darauf	-7487
izient	-7488
▁angew	-7489
▁exakt	-7490
▁harte	-7491
▁küche	-7492
▁scham	-7493
▁serie	-7494
▁stich	-7495
▁womit	-7496
fordern	-7497
letzten	-7498
zustand	-7499
▁gewann	-7500
▁keines	-7501
▁offene	-7502
▁stirbt	-7503
▁theore	-7504
▁wartet	-7505
jähriger	-7506
▁betrieb	-7507
▁durchzu	-7508
▁science	-7509
▁tauchen	-7510
▁vorgang	-7511
plötzlich	-7512
▁gebieten	-7513
▁gründete	-7514
▁verfolgt	-7515
▁denkweise	-7516
▁effizienz	-7517
▁schwanger	-7518
▁vorschlag	-7519
▁population	-7520
▁übersetzen	-7521
▁genetischen	-7522
▁philosophie	-7523
normalerweise	-7524
▁biologischen	-7525
▁chinesischen	-7526
▁wunderschöne	-7527
▁gleichgewicht	-7528
▁verschiedener	-7529
dat	-7530
lag	-7531
ros	-7532
sun	-7533
uth	-7534
öch	-7535
▁36	-7536
emin	-7537
kurz	-7538
mich	-7539
stel	-7540
wort	-7541
züge	-7542
▁ego	-7543
▁hir	-7544
▁kab	-7545
▁lar	-7546
▁mün	-7547
▁nei	-7548
▁ört	-7549
exper	-7550
fache	-7551
▁1960	-7552
▁ehre	-7553
▁füße	-7554
▁läng	-7555
▁meet	-7556
▁türk	-7557
nummer	-7558
steine	-7559
waffen	-7560
▁anspr	-7561
▁carto	-7562
▁einbe	-7563
▁geome	-7564
▁klick	-7565
▁marke	-7566
▁valle	-7567
▁zählt	-7568
▁öfter	-7569
gerufen	-7570
isierte	-7571
▁chirur	-7572
▁filmen	-7573
▁höhlen	-7574
▁potent	-7575
▁wohlbe	-7576
▁wütend	-7577
erinnern	-7578
▁anstren	-7579
▁bevorzu	-7580
▁höheren	-7581
▁lernten	-7582
▁paralle	-7583
▁zerstör	-7584
▁aktuelle	-7585
▁hinblick	-7586
▁hindurch	-7587
heutzutage	-7588
▁wiederher	-7589
▁wiederver	-7590
ischerweise	-7591
▁schlimmste	-7592
▁unsichtbar	-7593
▁verstecken	-7594
▁analysieren	-7595
▁anwendungen	-7596
▁moralischen	-7597
▁sogenannten	-7598
▁transparenz	-7599
▁investitionen	-7600
▁traditionelle	-7601
--	-7602
jo	-7603
▁”	-7604
bir	-7605
bit	-7606
don	-7607
erz	-7608
ice	-7609
ied	-7610
van	-7611
wil	-7612
▁26	-7613
ckel	-7614
latz	-7615
park	-7616
strä	-7617
üren	-7618
▁hon	-7619
▁jur	-7620
▁sus	-7621
größe	-7622
reite	-7623
▁1990	-7624
▁bier	-7625
▁life	-7626
drücke	-7627
lefone	-7628
▁befür	-7629
▁brach	-7630
▁erhöh	-7631
▁leber	-7632
▁saßen	-7633
▁selbe	-7634
▁stärk	-7635
gebiete	-7636
richtig	-7637
sondern	-7638
theorie	-7639
▁daumen	-7640
▁echtes	-7641
▁fliegt	-7642
▁frustr	-7643
▁organe	-7644
aufgaben	-7645
stration	-7646
trotzdem	-7647
wirklich	-7648
▁angehen	-7649
▁ausgest	-7650
▁berühmt	-7651
▁diszipl	-7652
▁dutzend	-7653
▁jeweils	-7654
▁lichter	-7655
▁pflanze	-7656
▁protein	-7657
▁schokol	-7658
regierung	-7659
▁anstelle	-7660
▁ausnahme	-7661
▁diagnost	-7662
▁höchsten	-7663
▁kleinere	-7664
▁symptome	-7665
▁abenteuer	-7666
▁benutzten	-7667
▁chemische	-7668
▁infiziert	-7669
▁versicher	-7670
▁angemessen	-7671
▁motivation	-7672
▁organismus	-7673
▁reparieren	-7674
▁zurückkehren	-7675
▁universitäten	-7676
su	-7677
ägt	-7678
▁ky	-7679
herz	-7680
zehn	-7681
▁ass	-7682
▁blö	-7683
▁gän	-7684
▁ohr	-7685
dungs	-7686
knall	-7687
ormen	-7688
trags	-7689
▁bush	-7690
▁feed	-7691
▁mamm	-7692
▁trat	-7693
anlage	-7694
eltern	-7695
firmen	-7696
gänger	-7697
öffnet	-7698
▁achse	-7699
▁apple	-7700
▁katze	-7701
▁lehre	-7702
▁logik	-7703
▁tragö	-7704
▁beides	-7705
▁drehte	-7706
▁fahrer	-7707
▁kredit	-7708
▁stille	-7709
▁wälder	-7710
▁öffnet	-7711
▁gewöhnt	-7712
▁höchste	-7713
▁rechner	-7714
▁vernünf	-7715
innerhalb	-7716
▁eingehen	-7717
▁früheren	-7718
▁sinnvoll	-7719
▁ökonomen	-7720
alisierten	-7721
▁auftreten	-7722
▁neugierig	-7723
▁resultate	-7724
▁wiederhol	-7725
▁britischen	-7726
▁emotionale	-7727
▁funktionen	-7728
▁irgendeinem	-7729
▁katastrophe	-7730
aku	-7731
bab	-7732
kra	-7733
mat	-7734
erte	-7735
grad	-7736
wehr	-7737
▁big	-7738
▁fro	-7739
▁hoh	-7740
▁hüb	-7741
▁vul	-7742
anzig	-7743
euern	-7744
indem	-7745
selbe	-7746
▁2005	-7747
▁alko	-7748
▁jack	-7749
▁nano	-7750
▁sonn	-7751
▁umso	-7752
▁vorn	-7753
folgen	-7754
itiert	-7755
reicht	-7756
skraft	-7757
spanne	-7758
▁bösen	-7759
▁geeig	-7760
▁graus	-7761
▁missb	-7762
▁neutr	-7763
▁texas	-7764
▁wände	-7765
gebäude	-7766
quellen	-7767
▁anweis	-7768
▁atomen	-7769
▁ebenen	-7770
▁fliege	-7771
▁kaputt	-7772
▁muskel	-7773
▁tränen	-7774
▁verzer	-7775
▁ältere	-7776
mögliche	-7777
ologisch	-7778
zukommen	-7779
▁bedeckt	-7780
▁klavier	-7781
▁richten	-7782
▁stammen	-7783
▁verließ	-7784
▁weltall	-7785
▁zentral	-7786
alisierte	-7787
▁anbieten	-7788
▁ausgehen	-7789
▁fettleib	-7790
▁gemessen	-7791
▁gerettet	-7792
▁mitglied	-7793
▁schickte	-7794
▁wünschen	-7795
▁gesammelt	-7796
▁gezwungen	-7797
▁treibhaus	-7798
▁inzwischen	-7799
▁offensicht	-7800
▁regelmäßig	-7801
▁strategien	-7802
▁teilnehmen	-7803
▁weltbevölkerung	-7804
ikt	-7805
ses	-7806
▁0,	-7807
▁ät	-7808
ight	-7809
sper	-7810
tere	-7811
vort	-7812
▁kör	-7813
▁mac	-7814
endes	-7815
malen	-7816
▁konz	-7817
▁ther	-7818
ativer	-7819
▁breit	-7820
▁fossi	-7821
▁freie	-7822
▁gefol	-7823
▁jenen	-7824
▁sowje	-7825
▁talen	-7826
ogenese	-7827
steigen	-7828
treiben	-7829
▁assozi	-7830
▁belast	-7831
▁dialog	-7832
▁erzieh	-7833
▁frucht	-7834
▁füllen	-7835
▁mochte	-7836
▁anwesen	-7837
▁büchern	-7838
▁greifen	-7839
▁kreiert	-7840
▁schwach	-7841
▁symmetr	-7842
▁systems	-7843
▁vernetz	-7844
▁zwingen	-7845
▁ärmsten	-7846
setzungen	-7847
▁autismus	-7848
▁begrenzt	-7849
▁betracht	-7850
▁epidemie	-7851
▁eröffnet	-7852
▁fantasie	-7853
▁prozesse	-7854
▁speicher	-7855
▁stanford	-7856
▁abgesehen	-7857
▁höhepunkt	-7858
▁maßnahmen	-7859
▁microsoft	-7860
▁verpflich	-7861
▁gemeinnütz	-7862
▁menschlich	-7863
▁aufeinander	-7864
▁diskutieren	-7865
▁versprechen	-7866
▁irgendwelche	-7867
▁unternehmens	-7868
ii	-7869
▁)	-7870
ack	-7871
ati	-7872
bon	-7873
flu	-7874
har	-7875
hnt	-7876
mor	-7877
▁65	-7878
denk	-7879
lant	-7880
osen	-7881
strö	-7882
tika	-7883
▁arz	-7884
▁ast	-7885
▁dum	-7886
▁lux	-7887
▁tee	-7888
asien	-7889
dizin	-7890
ehmer	-7891
ffekt	-7892
gänge	-7893
äufer	-7894
ülern	-7895
▁2009	-7896
▁flog	-7897
▁gete	-7898
achung	-7899
archie	-7900
versen	-7901
▁bewäl	-7902
▁flach	-7903
▁illeg	-7904
▁konst	-7905
▁staub	-7906
▁szene	-7907
ologien	-7908
wichtig	-7909
▁authen	-7910
▁bomben	-7911
▁metern	-7912
▁paläst	-7913
▁preise	-7914
▁sprung	-7915
▁valley	-7916
▁verhei	-7917
▁überfl	-7918
derungen	-7919
▁alkohol	-7920
▁ausland	-7921
▁digital	-7922
▁flederm	-7923
▁geraten	-7924
▁muskeln	-7925
▁ursache	-7926
▁vermute	-7927
▁zurecht	-7928
▁änderte	-7929
▁ausgaben	-7930
▁gesunden	-7931
▁hingehen	-7932
▁jenseits	-7933
▁schießen	-7934
▁schwerer	-7935
▁sensoren	-7936
▁änderung	-7937
zentration	-7938
▁nachfrage	-7939
▁physische	-7940
▁positiven	-7941
▁visuellen	-7942
▁außerorden	-7943
▁besonderes	-7944
▁handlungen	-7945
▁mitglieder	-7946
▁physischen	-7947
▁schwestern	-7948
▁wiederholt	-7949
▁schauspieler	-7950
üd	-7951
aff	-7952
bie	-7953
ema	-7954
yto	-7955
blei	-7956
felt	-7957
hiop	-7958
phys	-7959
tech	-7960
▁gez	-7961
▁hob	-7962
▁jon	-7963
igend	-7964
▁befr	-7965
▁beur	-7966
▁ever	-7967
▁gelb	-7968
▁homo	-7969
ritten	-7970
speich	-7971
▁legte	-7972
▁orien	-7973
▁pferd	-7974
▁respe	-7975
▁titan	-7976
▁waffe	-7977
▁abends	-7978
▁budget	-7979
▁glücks	-7980
▁kandid	-7981
▁keinem	-7982
▁robert	-7983
▁sektor	-7984
▁tasche	-7985
▁erfolgs	-7986
▁fließen	-7987
▁lebende	-7988
▁arbeitsp	-7989
▁befassen	-7990
▁benutzte	-7991
▁pinguine	-7992
▁schweine	-7993
▁umstände	-7994
▁weibchen	-7995
▁beitragen	-7996
▁bewegungs	-7997
▁nachdenkt	-7998
▁ungeheuer	-7999
▁weibliche	-8000
ministerium	-8001
▁ausdrücken	-8002
▁kommerziel	-8003
▁treibstoff	-8004
▁verteilung	-8005
▁konsumenten	-8006
▁schlimmsten	-8007
▁festgestellt	-8008
▁hinsichtlich	-8009
▁komplizierter	-8010
▁repräsentiert	-8011
▁bemerkenswerte	-8012
übr	-8013
▁kg	-8014
bene	-8015
ietn	-8016
leit	-8017
sitz	-8018
stil	-8019
öten	-8020
ügel	-8021
▁bip	-8022
▁cap	-8023
appen	-8024
derte	-8025
iehen	-8026
▁anon	-8027
▁base	-8028
▁frag	-8029
▁nimm	-8030
▁wozu	-8031
decken	-8032
dioxid	-8033
steckt	-8034
stoßen	-8035
zenten	-8036
▁ausbr	-8037
▁dient	-8038
▁entsp	-8039
▁lagen	-8040
▁peter	-8041
▁stets	-8042
▁wohlt	-8043
gewandt	-8044
▁fließt	-8045
▁improv	-8046
▁inklus	-8047
▁januar	-8048
▁myster	-8049
▁praxis	-8050
sammlung	-8051
▁erstens	-8052
▁gesunde	-8053
▁großzüg	-8054
▁klingen	-8055
▁kontinu	-8056
▁lehrern	-8057
▁raketen	-8058
▁setzten	-8059
▁unschul	-8060
▁ausmacht	-8061
▁einziges	-8062
▁erlangen	-8063
▁gegenwär	-8064
▁geöffnet	-8065
▁liebling	-8066
▁privaten	-8067
▁toilette	-8068
▁verletzt	-8069
jedenfalls	-8070
▁fahrzeuge	-8071
▁toiletten	-8072
▁ausrüstung	-8073
▁prototypen	-8074
▁versorgung	-8075
▁einzigartig	-8076
▁unterhalten	-8077
▁zukünftigen	-8078
▁europäischen	-8079
▁schlussendlich	-8080
aa	-8081
fo	-8082
con	-8083
dis	-8084
gül	-8085
▁32	-8086
akul	-8087
bein	-8088
bend	-8089
gewe	-8090
ugen	-8091
vern	-8092
vice	-8093
üger	-8094
▁krä	-8095
▁leb	-8096
▁pum	-8097
▁ske	-8098
achel	-8099
deckt	-8100
lässt	-8101
äufig	-8102
▁harm	-8103
▁kilo	-8104
▁plus	-8105
▁zwöl	-8106
▁üben	-8107
fühlen	-8108
garten	-8109
inform	-8110
instit	-8111
mitten	-8112
strate	-8113
▁blase	-8114
▁circa	-8115
▁haare	-8116
▁invol	-8117
▁nadel	-8118
▁wasch	-8119
▁übung	-8120
smodell	-8121
▁doppel	-8122
▁klinik	-8123
▁nutzer	-8124
▁respek	-8125
▁verlor	-8126
▁wahren	-8127
▁werdet	-8128
übrigens	-8129
▁auftrag	-8130
▁designs	-8131
▁drucker	-8132
▁enormen	-8133
▁komprom	-8134
▁magazin	-8135
schließen	-8136
▁absolute	-8137
▁amerikas	-8138
▁bescheid	-8139
▁erkunden	-8140
▁geograph	-8141
▁hinweise	-8142
▁therapie	-8143
▁zweitens	-8144
unterricht	-8145
▁ansichten	-8146
▁letztlich	-8147
▁unterhalt	-8148
▁verteilen	-8149
▁weltweite	-8150
▁ähnlichen	-8151
krankheiten	-8152
▁allgemeine	-8153
▁ausgegeben	-8154
▁dramatisch	-8155
▁entdeckten	-8156
▁flüssigkeit	-8157
▁investition	-8158
▁komponenten	-8159
▁kulturellen	-8160
▁berechnungen	-8161
▁nervenzellen	-8162
▁ungleichheit	-8163
▁verbesserung	-8164
▁ausschließlich	-8165
bf	-8166
ats	-8167
lip	-8168
tit	-8169
▁hä	-8170
▁vo	-8171
fabr	-8172
klin	-8173
verl	-8174
weiß	-8175
▁195	-8176
▁aug	-8177
▁ham	-8178
▁leh	-8179
hafen	-8180
steht	-8181
weist	-8182
▁1980	-8183
▁mist	-8184
▁noti	-8185
▁pand	-8186
▁pein	-8187
▁qual	-8188
▁spur	-8189
▁zuge	-8190
lehnen	-8191
reitet	-8192
schild	-8193
sitzen	-8194
straße	-8195
▁altes	-8196
▁ehren	-8197
▁trink	-8198
▁tätig	-8199
▁ärger	-8200
konstru	-8201
version	-8202
▁befest	-8203
▁bekann	-8204
▁benzin	-8205
▁kontra	-8206
▁mannes	-8207
▁nahezu	-8208
▁tolles	-8209
▁uganda	-8210
▁umgang	-8211
▁werten	-8212
tisieren	-8213
▁anfängt	-8214
▁beträgt	-8215
▁ersetzt	-8216
▁kümmert	-8217
▁schwanz	-8218
▁schöner	-8219
▁urknall	-8220
▁wurzeln	-8221
▁befreien	-8222
▁behaupte	-8223
▁betreten	-8224
▁demonstr	-8225
▁diabetes	-8226
▁gebäudes	-8227
▁geworfen	-8228
▁schreibe	-8229
▁sozialer	-8230
▁vorträge	-8231
▁bedeutend	-8232
▁gleichung	-8233
▁selbstmord	-8234
▁standpunkt	-8235
▁wirklichen	-8236
▁blickwinkel	-8237
▁verarbeiten	-8238
▁verschwindet	-8239
ub	-8240
mom	-8241
nel	-8242
sex	-8243
öne	-8244
,000	-8245
gesp	-8246
pend	-8247
wich	-8248
ünde	-8249
▁700	-8250
▁dru	-8251
▁kul	-8252
▁por	-8253
heber	-8254
▁2006	-8255
▁nest	-8256
▁prob	-8257
▁schi	-8258
▁skal	-8259
▁stab	-8260
▁synt	-8261
bridge	-8262
effekt	-8263
person	-8264
wollen	-8265
ändler	-8266
▁apfel	-8267
▁behör	-8268
▁gedul	-8269
▁höhle	-8270
▁käfer	-8271
▁lokal	-8272
▁onkel	-8273
▁tritt	-8274
▁vietn	-8275
tragung	-8276
▁durfte	-8277
▁entwar	-8278
▁kuchen	-8279
▁oxford	-8280
▁ratten	-8281
▁thomas	-8282
▁weinen	-8283
▁bedroht	-8284
▁ehemann	-8285
▁entwurf	-8286
▁flasche	-8287
▁fußball	-8288
▁gelangt	-8289
▁gelehrt	-8290
▁heutige	-8291
▁inhalte	-8292
▁richter	-8293
▁bewahren	-8294
▁diagnose	-8295
▁illusion	-8296
▁konzepte	-8297
▁stiftung	-8298
▁aktuellen	-8299
▁betreffen	-8300
▁explosion	-8301
▁geschmack	-8302
▁gletscher	-8303
▁techniken	-8304
▁wiederauf	-8305
▁übersetzt	-8306
▁beschützen	-8307
▁entstehung	-8308
▁lebensraum	-8309
▁verbrennen	-8310
▁vorgestellt	-8311
▁afrikanische	-8312
▁komplizierte	-8313
▁privatsphäre	-8314
▁wohlbefinden	-8315
▁zurückkommen	-8316
▁entscheidende	-8317
▁globalisierung	-8318
▁schriftsteller	-8319
hh	-8320
hst	-8321
put	-8322
rew	-8323
way	-8324
wör	-8325
able	-8326
egal	-8327
feln	-8328
iefe	-8329
ival	-8330
okra	-8331
stoß	-8332
▁brä	-8333
▁lim	-8334
chron	-8335
eifen	-8336
romos	-8337
schon	-8338
spers	-8339
▁1950	-8340
▁elen	-8341
▁grau	-8342
▁klug	-8343
▁thun	-8344
▁zerb	-8345
gesund	-8346
heimer	-8347
lament	-8348
terien	-8349
ytocin	-8350
▁annäh	-8351
▁autob	-8352
▁flori	-8353
▁frühl	-8354
▁gesto	-8355
▁mathe	-8356
▁prima	-8357
▁rüber	-8358
▁spont	-8359
▁trage	-8360
brachte	-8361
gezogen	-8362
▁ballon	-8363
▁brauch	-8364
▁clever	-8365
▁kalten	-8366
▁konkre	-8367
▁moskit	-8368
▁profit	-8369
▁trends	-8370
▁umfang	-8371
▁vertik	-8372
▁wohltä	-8373
▁äthiop	-8374
erzähler	-8375
gekommen	-8376
▁angebot	-8377
▁punkten	-8378
▁rauchen	-8379
▁spitzen	-8380
▁wertsch	-8381
zeichnung	-8382
▁beachten	-8383
▁feedback	-8384
▁getestet	-8385
▁minister	-8386
▁schülern	-8387
▁erhielten	-8388
▁errichten	-8389
▁internets	-8390
▁komplexer	-8391
▁schweigen	-8392
▁vereinten	-8393
▁gegenstand	-8394
▁technische	-8395
▁umzusetzen	-8396
▁verringern	-8397
▁mechanismus	-8398
▁operationen	-8399
▁profitieren	-8400
▁auszudrücken	-8401
▁ungewöhnlich	-8402
pm	-8403
zo	-8404
kol	-8405
krä	-8406
rix	-8407
urr	-8408
▁tv	-8409
boot	-8410
früh	-8411
gelt	-8412
illi	-8413
lied	-8414
pper	-8415
▁800	-8416
▁rem	-8417
gehör	-8418
roren	-8419
uropa	-8420
▁king	-8421
▁löst	-8422
▁seil	-8423
▁tote	-8424
afrika	-8425
assten	-8426
mungen	-8427
sorgan	-8428
summen	-8429
undern	-8430
▁event	-8431
▁herab	-8432
▁knopf	-8433
▁polar	-8434
▁stick	-8435
▁umgeb	-8436
▁verpa	-8437
▁werbe	-8438
fleisch	-8439
wertung	-8440
▁beinen	-8441
▁blasen	-8442
▁bäumen	-8443
▁ehemal	-8444
▁eingef	-8445
▁fremde	-8446
▁köpfen	-8447
▁synthe	-8448
▁argumen	-8449
▁beschäd	-8450
▁empfind	-8451
▁liefert	-8452
▁protest	-8453
▁schmutz	-8454
▁schädel	-8455
▁urheber	-8456
▁aufstieg	-8457
▁berühmte	-8458
▁gebrauch	-8459
▁griechen	-8460
▁original	-8461
▁skulptur	-8462
▁spannend	-8463
▁austausch	-8464
▁bedürfnis	-8465
▁erfordert	-8466
▁schrieben	-8467
▁speichern	-8468
▁statistik	-8469
▁symmetrie	-8470
▁unterhalb	-8471
▁wohlhaben	-8472
geschichten	-8473
▁asteroiden	-8474
▁auswirkung	-8475
▁verbraucht	-8476
▁vermittelt	-8477
▁virtuellen	-8478
▁willkommen	-8479
▁zusätzlich	-8480
▁überprüfen	-8481
▁anerkennung	-8482
▁videospiele	-8483
▁katastrophen	-8484
▁abgeschlossen	-8485
▁durcheinander	-8486
18	-8487
anc	-8488
mär	-8489
ates	-8490
aust	-8491
baum	-8492
fünf	-8493
geld	-8494
unen	-8495
weit	-8496
zung	-8497
▁clo	-8498
▁jüd	-8499
▁sec	-8500
inson	-8501
virus	-8502
▁1970	-8503
▁2004	-8504
▁gand	-8505
▁mais	-8506
▁manh	-8507
andert	-8508
azität	-8509
deuten	-8510
fachen	-8511
moment	-8512
uelles	-8513
▁hölle	-8514
▁lasse	-8515
▁mauer	-8516
▁pause	-8517
▁zweie	-8518
▁ästhe	-8519
zugehen	-8520
▁20.000	-8521
▁bestäu	-8522
▁danken	-8523
▁dinger	-8524
▁empfeh	-8525
▁filter	-8526
▁obdach	-8527
▁pharma	-8528
▁schief	-8529
▁sprich	-8530
▁treibt	-8531
▁wirbel	-8532
reichend	-8533
schalten	-8534
ständige	-8535
▁beliebt	-8536
▁diesmal	-8537
▁glühbir	-8538
katastrop	-8539
ulationen	-8540
▁bedauern	-8541
▁benutzer	-8542
▁einblick	-8543
▁einziger	-8544
▁erschien	-8545
▁gebildet	-8546
▁gegessen	-8547
▁jährlich	-8548
▁schnelle	-8549
▁sexuelle	-8550
▁überlebt	-8551
▁erinnerte	-8552
▁gestaltet	-8553
▁schlagzei	-8554
▁zeitungen	-8555
geschnitten	-8556
▁angekommen	-8557
▁aussterben	-8558
▁konvention	-8559
▁künstliche	-8560
▁nachmittag	-8561
▁verwandten	-8562
▁zukünftige	-8563
▁kooperation	-8564
▁nachhaltige	-8565
▁verbrauchen	-8566
▁abhängigkeit	-8567
gu	-8568
ki	-8569
ov	-8570
yd	-8571
ams	-8572
het	-8573
hur	-8574
nei	-8575
syn	-8576
wol	-8577
▁95	-8578
enkt	-8579
espe	-8580
mith	-8581
orte	-8582
prin	-8583
tran	-8584
urer	-8585
▁gei	-8586
▁hyd	-8587
▁här	-8588
▁tel	-8589
reden	-8590
schel	-8591
srate	-8592
sters	-8593
ville	-8594
wohin	-8595
▁bron	-8596
▁lärm	-8597
▁mahl	-8598
▁penn	-8599
breite	-8600
jenige	-8601
krimin	-8602
ramide	-8603
spunkt	-8604
versch	-8605
▁5.000	-8606
▁carol	-8607
▁steig	-8608
▁tempo	-8609
hundert	-8610
wachsen	-8611
▁fuhren	-8612
▁katzen	-8613
▁ruanda	-8614
▁schall	-8615
▁spuren	-8616
probleme	-8617
▁blutgef	-8618
▁dynamik	-8619
▁erfüllt	-8620
▁fühlten	-8621
▁geburts	-8622
▁gewinnt	-8623
▁private	-8624
▁zweites	-8625
swachstum	-8626
▁amazonas	-8627
▁heiraten	-8628
▁angepasst	-8629
▁cambridge	-8630
▁einheiten	-8631
▁erziehung	-8632
▁flugzeuge	-8633
▁hollywood	-8634
▁inklusive	-8635
▁institute	-8636
▁parlament	-8637
▁vorkommen	-8638
▁gestaltung	-8639
▁gleichheit	-8640
▁ausgebildet	-8641
▁einzusetzen	-8642
▁nordamerika	-8643
▁zusätzliche	-8644
▁arbeitsplatz	-8645
▁industrielle	-8646
▁schreckliche	-8647
▁menschlichkeit	-8648
gno	-8649
gur	-8650
mot	-8651
uen	-8652
vas	-8653
anst	-8654
char	-8655
emie	-8656
fast	-8657
illa	-8658
prof	-8659
wäre	-8660
▁aqu	-8661
▁bob	-8662
▁non	-8663
▁oel	-8664
▁pin	-8665
jahre	-8666
molek	-8667
▁2001	-8668
▁flag	-8669
▁gast	-8670
▁hard	-8671
▁leit	-8672
▁papa	-8673
▁ulti	-8674
derten	-8675
genden	-8676
ingung	-8677
mengen	-8678
ogramm	-8679
ündung	-8680
▁gates	-8681
▁gigan	-8682
▁hügel	-8683
▁laser	-8684
▁magne	-8685
▁satur	-8686
▁schiz	-8687
▁sätze	-8688
▁ultra	-8689
▁wette	-8690
▁zogen	-8691
behörde	-8692
dadurch	-8693
verkehr	-8694
▁berufs	-8695
▁graben	-8696
▁knoten	-8697
▁leeren	-8698
▁lenken	-8699
▁option	-8700
▁pocken	-8701
▁reform	-8702
▁ultima	-8703
pedition	-8704
▁beitrag	-8705
▁hinweis	-8706
▁korrekt	-8707
▁landete	-8708
▁trennen	-8709
▁verwirr	-8710
ohnheiten	-8711
tisierung	-8712
▁biologen	-8713
▁energien	-8714
▁schlange	-8715
▁schließt	-8716
▁ausführen	-8717
▁erwärmung	-8718
▁flughafen	-8719
▁geblieben	-8720
▁intuition	-8721
▁orchester	-8722
▁schichten	-8723
▁tätigkeit	-8724
▁westliche	-8725
▁abendessen	-8726
▁angeschaut	-8727
▁elektronik	-8728
▁trainieren	-8729
▁angetrieben	-8730
▁kombinieren	-8731
▁schwierigen	-8732
▁stattfinden	-8733
▁intelligente	-8734
▁bürgermeister	-8735
▁produktivität	-8736
▁unterscheidet	-8737
▁wunderschönen	-8738
▁nahrungsmittel	-8739
▁‹	-8740
aps	-8741
sek	-8742
▁pc	-8743
naja	-8744
otto	-8745
quem	-8746
robo	-8747
▁lkw	-8748
▁lob	-8749
▁mah	-8750
▁nör	-8751
▁weh	-8752
elles	-8753
ftung	-8754
regel	-8755
strom	-8756
▁euer	-8757
▁gift	-8758
▁kond	-8759
▁tali	-8760
▁tode	-8761
kasten	-8762
lauben	-8763
ordnet	-8764
rechts	-8765
schaut	-8766
▁conne	-8767
▁derer	-8768
▁engag	-8769
▁kiste	-8770
▁nobel	-8771
▁sensi	-8772
▁smith	-8773
▁summe	-8774
▁unbeh	-8775
▁volle	-8776
▁werke	-8777
▁wirft	-8778
▁zwölf	-8779
▁übers	-8780
sonsten	-8781
tausend	-8782
technik	-8783
überall	-8784
▁50.000	-8785
▁bergen	-8786
▁gehalt	-8787
▁herbei	-8788
▁psychi	-8789
▁talent	-8790
▁tollen	-8791
wechseln	-8792
▁beendet	-8793
▁blicken	-8794
▁figuren	-8795
▁gefüllt	-8796
▁geredet	-8797
▁nutzten	-8798
▁oktober	-8799
▁regener	-8800
igerweise	-8801
▁beziehen	-8802
▁fabriken	-8803
▁gesünder	-8804
▁verliebt	-8805
▁weltbank	-8806
▁überzeug	-8807
temperatur	-8808
▁arbeitspl	-8809
▁hunderten	-8810
▁ansprechen	-8811
▁auftauchen	-8812
▁einstellen	-8813
▁engagement	-8814
▁religiösen	-8815
gemeinschaft	-8816
▁anzuschauen	-8817
▁schwerkraft	-8818
▁zeichnungen	-8819
▁kapitalismus	-8820
▁schreibtisch	-8821
▁international	-8822
▁sicherstellen	-8823
80	-8824
ye	-8825
yo	-8826
drü	-8827
mag	-8828
wäl	-8829
achs	-8830
alem	-8831
ardo	-8832
arzt	-8833
face	-8834
änen	-8835
ülen	-8836
▁amb	-8837
▁bay	-8838
▁hut	-8839
▁öst	-8840
bruar	-8841
mpfer	-8842
musik	-8843
tiven	-8844
uchte	-8845
ulare	-8846
ündet	-8847
▁amer	-8848
▁enzy	-8849
▁euro	-8850
▁kehr	-8851
▁mary	-8852
▁salz	-8853
▁skep	-8854
einmal	-8855
haufen	-8856
lässig	-8857
männer	-8858
schmer	-8859
vember	-8860
▁allzu	-8861
▁anste	-8862
▁begrü	-8863
▁erfre	-8864
▁green	-8865
▁jagen	-8866
▁köpfe	-8867
▁länge	-8868
▁party	-8869
▁power	-8870
▁probe	-8871
▁regul	-8872
▁verdr	-8873
▁verne	-8874
▁volks	-8875
▁welle	-8876
▁zuhör	-8877
stunden	-8878
timeter	-8879
tisiert	-8880
▁beglei	-8881
▁erfuhr	-8882
▁inseln	-8883
▁prakti	-8884
▁sinken	-8885
▁stämme	-8886
▁tricks	-8887
▁wüsten	-8888
forscher	-8889
versität	-8890
▁anthrop	-8891
▁autoren	-8892
▁florida	-8893
▁komisch	-8894
▁neulich	-8895
▁suchten	-8896
▁winzige	-8897
▁erledigt	-8898
▁institut	-8899
▁streiten	-8900
▁synchron	-8901
▁begriffen	-8902
▁definitiv	-8903
▁erledigen	-8904
▁erzählten	-8905
▁fortgesch	-8906
▁hilfreich	-8907
▁niedriger	-8908
▁probieren	-8909
▁regenwald	-8910
▁vielerlei	-8911
▁virtuelle	-8912
bedingungen	-8913
▁lächerlich	-8914
▁medikamenten	-8915
▁weitermachen	-8916
▁durchzuführen	-8917
▁ursprüngliche	-8918
ju	-8919
▁›	-8920
ani	-8921
din	-8922
gab	-8923
had	-8924
sag	-8925
▁33	-8926
groß	-8927
kern	-8928
last	-8929
lein	-8930
vert	-8931
zone	-8932
▁10-	-8933
block	-8934
diert	-8935
ppich	-8936
sorge	-8937
▁güte	-8938
▁klat	-8939
gelegt	-8940
gewebe	-8941
ichert	-8942
leiden	-8943
opamin	-8944
stande	-8945
wecken	-8946
▁chron	-8947
▁coole	-8948
▁kauft	-8949
dennoch	-8950
erkrank	-8951
sträger	-8952
zentren	-8953
zheimer	-8954
ziehung	-8955
▁ameise	-8956
▁befrie	-8957
▁brüder	-8958
▁echter	-8959
▁frisch	-8960
▁getrei	-8961
▁küsten	-8962
▁poster	-8963
▁reiste	-8964
▁senken	-8965
▁stoßen	-8966
▁vagina	-8967
erkennen	-8968
ichteten	-8969
wachstum	-8970
▁dreimal	-8971
▁fressen	-8972
▁kletter	-8973
▁kolonie	-8974
▁manhatt	-8975
▁pazifik	-8976
▁planung	-8977
▁tropfen	-8978
▁unangen	-8979
▁zwanzig	-8980
schreiben	-8981
▁ankommen	-8982
▁aufrecht	-8983
▁baseball	-8984
▁bewerten	-8985
▁erzielen	-8986
▁kopieren	-8987
▁reichtum	-8988
▁relevant	-8989
▁sammlung	-8990
▁sicherer	-8991
▁teleskop	-8992
▁tragödie	-8993
▁verdammt	-8994
▁verfügen	-8995
▁verlangt	-8996
▁widerspr	-8997
▁zugleich	-8998
gesundheit	-8999
▁anstellen	-9000
▁anzeichen	-9001
▁effizient	-9002
▁einwohner	-9003
▁fernseher	-9004
▁fischerei	-9005
▁großvater	-9006
▁irgendwas	-9007
▁kreislauf	-9008
▁mitteilen	-9009
▁unendlich	-9010
bewusstsein	-9011
▁ausgewählt	-9012
▁bandbreite	-9013
▁chemischen	-9014
▁elektronen	-9015
▁journalist	-9016
▁irgendeiner	-9017
▁individuelle	-9018
▁journalisten	-9019
▁kohlendioxid	-9020
▁optimistisch	-9021
▁stoffwechsel	-9022
▁wundervollen	-9023
▁lebensqualität	-9024
▁fortgeschritten	-9025
etw	-9026
ope	-9027
ops	-9028
stö	-9029
tzu	-9030
▁2,	-9031
▁85	-9032
dere	-9033
ftet	-9034
ilde	-9035
tain	-9036
ulen	-9037
älle	-9038
üten	-9039
▁dez	-9040
▁err	-9041
▁fix	-9042
beweg	-9043
dauer	-9044
eilen	-9045
figur	-9046
flung	-9047
große	-9048
korea	-9049
leger	-9050
pfern	-9051
werks	-9052
▁anre	-9053
▁hals	-9054
▁irre	-9055
▁just	-9056
▁kost	-9057
▁maße	-9058
fanden	-9059
ladung	-9060
ophren	-9061
uchsen	-9062
öpfung	-9063
▁appar	-9064
▁attra	-9065
▁etabl	-9066
▁falle	-9067
▁fried	-9068
▁füßen	-9069
▁grenz	-9070
▁heiße	-9071
▁liebt	-9072
▁lücke	-9073
▁raten	-9074
▁willi	-9075
assungs	-9076
geboren	-9077
genauso	-9078
grenzen	-9079
legenen	-9080
▁aufgeb	-9081
▁felsen	-9082
▁großem	-9083
▁halben	-9084
▁mandel	-9085
▁sensor	-9086
▁szenar	-9087
▁widmen	-9088
▁wohnen	-9089
▁ärzten	-9090
▁abstand	-9091
▁ausgang	-9092
▁distanz	-9093
▁februar	-9094
▁handels	-9095
▁rettung	-9096
▁studium	-9097
▁taliban	-9098
▁würdest	-9099
▁zugeben	-9100
▁bewohner	-9101
▁business	-9102
▁empathie	-9103
▁häufiger	-9104
▁mischung	-9105
▁schaffte	-9106
▁umsetzen	-9107
▁vortrags	-9108
▁alzheimer	-9109
▁anzugehen	-9110
▁architekt	-9111
▁englische	-9112
▁folgender	-9113
▁genetisch	-9114
▁perfekten	-9115
▁aufmerksam	-9116
▁einkommens	-9117
▁finanziert	-9118
▁geschlagen	-9119
▁gewöhnlich	-9120
▁verhindert	-9121
▁wörterbuch	-9122
▁abschließen	-9123
▁finanzieren	-9124
▁großartiger	-9125
▁großartiges	-9126
▁mittagessen	-9127
▁zweieinhalb	-9128
▁depressionen	-9129
▁freiwilligen	-9130
▁industriellen	-9131
▁konzentration	-9132
▁einschließlich	-9133
▁untersuchungen	-9134
oß	-9135
wä	-9136
▁‘	-9137
las	-9138
oft	-9139
ora	-9140
ray	-9141
uck	-9142
uel	-9143
umb	-9144
umt	-9145
ümm	-9146
▁dä	-9147
▁ye	-9148
▁zo	-9149
code	-9150
ffin	-9151
icon	-9152
ästh	-9153
▁bir	-9154
▁nav	-9155
▁äqu	-9156
achse	-9157
agent	-9158
auert	-9159
bogen	-9160
klang	-9161
liebe	-9162
ließt	-9163
teils	-9164
uster	-9165
▁appl	-9166
▁besp	-9167
▁krab	-9168
▁mill	-9169
▁prem	-9170
fällen	-9171
kommun	-9172
zierte	-9173
▁atlan	-9174
▁black	-9175
▁derek	-9176
▁kluft	-9177
▁koran	-9178
▁physi	-9179
▁reale	-9180
▁schen	-9181
▁smart	-9182
leitung	-9183
methode	-9184
verhält	-9185
viertel	-9186
▁antark	-9187
▁kompon	-9188
▁metaph	-9189
sichtigt	-9190
vielfalt	-9191
▁aggress	-9192
▁balance	-9193
▁detaill	-9194
▁erfasst	-9195
▁paradig	-9196
▁rechnen	-9197
▁wodurch	-9198
▁aufgeben	-9199
▁außerird	-9200
▁basieren	-9201
▁billiger	-9202
▁handlung	-9203
▁inmitten	-9204
▁intuitiv	-9205
▁liebsten	-9206
▁oxytocin	-9207
▁schienen	-9208
▁soziales	-9209
▁verboten	-9210
▁vielzahl	-9211
▁berühmten	-9212
▁geschützt	-9213
▁kreaturen	-9214
▁schwarzes	-9215
▁strahlung	-9216
▁störungen	-9217
▁täglichen	-9218
▁vereinbar	-9219
▁aktivieren	-9220
▁reichweite	-9221
▁simulation	-9222
▁supermarkt	-9223
▁überqueren	-9224
▁einrichtung	-9225
▁intelligent	-9226
▁mittelpunkt	-9227
▁schizophren	-9228
▁widerspruch	-9229
▁überzeugung	-9230
▁alternativen	-9231
▁bewusstseins	-9232
▁experimentel	-9233
▁fotografiert	-9234
▁erstaunlichen	-9235
▁kommunikations	-9236
glücklicherweise	-9237
kb	-9238
kö	-9239
bai	-9240
bem	-9241
osn	-9242
que	-9243
ric	-9244
sau	-9245
erei	-9246
idee	-9247
pers	-9248
äger	-9249
ähmt	-9250
▁mai	-9251
▁tas	-9252
▁tän	-9253
haber	-9254
ision	-9255
legal	-9256
rogen	-9257
ropie	-9258
spezi	-9259
sphor	-9260
▁foss	-9261
▁fröh	-9262
bellen	-9263
ckende	-9264
diesen	-9265
felder	-9266
gerade	-9267
länder	-9268
mische	-9269
ordnen	-9270
üllung	-9271
▁brook	-9272
▁bruch	-9273
▁dreck	-9274
▁liest	-9275
▁straf	-9276
mittler	-9277
▁binden	-9278
▁einzig	-9279
▁kurzer	-9280
▁küchen	-9281
▁lieder	-9282
▁martin	-9283
▁vorles	-9284
▁winkel	-9285
beispiel	-9286
effizien	-9287
freiheit	-9288
zumachen	-9289
ächtigen	-9290
▁beginne	-9291
▁bewirkt	-9292
▁einkauf	-9293
▁fischen	-9294
▁hierfür	-9295
▁königin	-9296
▁phantom	-9297
▁realist	-9298
▁töchter	-9299
▁verwirk	-9300
aktivität	-9301
▁andauern	-9302
▁bedienen	-9303
▁dezember	-9304
▁frühling	-9305
▁gewinner	-9306
▁herkunft	-9307
▁vielmals	-9308
▁übergang	-9309
allerdings	-9310
▁autorität	-9311
▁berichtet	-9312
▁dimension	-9313
▁täuschung	-9314
▁angesichts	-9315
▁effektiver	-9316
▁involviert	-9317
▁jedenfalls	-9318
▁konkurrenz	-9319
▁leistungen	-9320
▁überlassen	-9321
▁überwachen	-9322
▁gegenstände	-9323
▁stattfindet	-9324
▁angestellten	-9325
▁einzigartige	-9326
▁erkrankungen	-9327
▁finanziellen	-9328
▁präsentieren	-9329
▁sonnensystem	-9330
▁verzweiflung	-9331
▁individuellen	-9332
▁unabhängigkeit	-9333
lub	-9334
mut	-9335
pal	-9336
tum	-9337
zit	-9338
äck	-9339
▁sw	-9340
bell	-9341
etwa	-9342
pati	-9343
uste	-9344
uzin	-9345
ökon	-9346
▁biz	-9347
▁jag	-9348
▁out	-9349
▁ram	-9350
▁sir	-9351
▁soc	-9352
angel	-9353
board	-9354
chnet	-9355
kampf	-9356
nunft	-9357
obile	-9358
ogene	-9359
ohnen	-9360
smann	-9361
zeige	-9362
▁geni	-9363
▁ring	-9364
▁sexu	-9365
▁vene	-9366
tigend	-9367
ustern	-9368
▁endet	-9369
▁grand	-9370
▁kürze	-9371
▁mäuse	-9372
▁rauch	-9373
▁south	-9374
▁toler	-9375
▁väter	-9376
grammen	-9377
letztes	-9378
studien	-9379
willige	-9380
wirkung	-9381
▁breite	-9382
▁erfand	-9383
▁gelben	-9384
▁genaue	-9385
▁marsch	-9386
▁staats	-9387
fertigen	-9388
gegenwär	-9389
änderung	-9390
▁anreize	-9391
▁blinden	-9392
▁brücken	-9393
▁illegal	-9394
▁kannten	-9395
▁manager	-9396
▁motoren	-9397
▁solaren	-9398
▁wirksam	-9399
irtschaft	-9400
sprogramm	-9401
wirkungen	-9402
▁beobacht	-9403
▁blutgefä	-9404
▁größeres	-9405
▁herrscht	-9406
▁kompeten	-9407
▁objekten	-9408
▁startete	-9409
▁vernunft	-9410
amerikaner	-9411
revolution	-9412
▁angeboten	-9413
▁auswählen	-9414
▁bakterium	-9415
▁einnehmen	-9416
▁ermutigen	-9417
▁hypothese	-9418
▁rückwärts	-9419
▁schickten	-9420
▁spektakul	-9421
▁aufregende	-9422
▁bescheiden	-9423
▁optimismus	-9424
▁verdoppelt	-9425
▁beobachtete	-9426
▁erforschung	-9427
▁hilfsmittel	-9428
▁hindernisse	-9429
▁reihenfolge	-9430
▁verzweifelt	-9431
▁beschreibung	-9432
▁beschleunigen	-9433
▁gewissermaßen	-9434
▁sterblichkeit	-9435
▁sicherzustellen	-9436
fü	-9437
wk	-9438
bat	-9439
feh	-9440
ili	-9441
ish	-9442
▁..	-9443
▁29	-9444
▁3.	-9445
▁wi	-9446
bole	-9447
igem	-9448
ormt	-9449
▁adr	-9450
▁akk	-9451
▁bör	-9452
▁fik	-9453
▁gif	-9454
▁rea	-9455
▁vit	-9456
ergeb	-9457
läufe	-9458
somit	-9459
swert	-9460
▁2003	-9461
▁affe	-9462
▁agen	-9463
▁brem	-9464
▁brun	-9465
▁hipp	-9466
▁kalk	-9467
▁skiz	-9468
▁wale	-9469
bereit	-9470
iegeln	-9471
indern	-9472
ission	-9473
istent	-9474
ranten	-9475
würden	-9476
▁abgel	-9477
▁anfäl	-9478
▁blogs	-9479
▁ernte	-9480
▁genen	-9481
▁geprä	-9482
▁honig	-9483
▁media	-9484
▁mitzu	-9485
▁quali	-9486
▁redet	-9487
▁teure	-9488
▁unber	-9489
▁wende	-9490
fferenz	-9491
▁messer	-9492
▁progno	-9493
▁reiche	-9494
▁steine	-9495
▁tedtal	-9496
▁türkei	-9497
▁virgin	-9498
lizieren	-9499
schungen	-9500
▁antibio	-9501
▁blieben	-9502
▁brennen	-9503
▁effekte	-9504
▁radikal	-9505
▁strateg	-9506
▁wahrhaf	-9507
kontrolle	-9508
programme	-9509
▁annahmen	-9510
▁diplomat	-9511
▁erstaunt	-9512
▁geeignet	-9513
▁heiligen	-9514
▁hochzeit	-9515
▁primitiv	-9516
▁schwefel	-9517
▁ältesten	-9518
oberfläche	-9519
▁animation	-9520
▁impfstoff	-9521
▁manhattan	-9522
▁prozesses	-9523
▁schafften	-9524
▁selektion	-9525
▁beschaffen	-9526
▁klassische	-9527
▁management	-9528
▁merkwürdig	-9529
▁sorgfältig	-9530
▁stabilität	-9531
▁verrückten	-9532
▁verurteilt	-9533
▁ausreichend	-9534
▁erfindungen	-9535
▁städtischen	-9536
▁tiefgreifen	-9537
▁trinkwasser	-9538
▁voraussagen	-9539
▁darzustellen	-9540
▁diskussionen	-9541
▁verletzungen	-9542
▁aufzeichnungen	-9543
▁experimentieren	-9544
yle	-9545
öss	-9546
▁ue	-9547
ahme	-9548
deln	-9549
empf	-9550
fert	-9551
impf	-9552
orth	-9553
▁fla	-9554
▁jes	-9555
▁rut	-9556
▁sat	-9557
▁äuß	-9558
beide	-9559
verse	-9560
▁adop	-9561
▁chao	-9562
▁dünn	-9563
▁ipod	-9564
▁lein	-9565
▁quan	-9566
▁vieh	-9567
▁warm	-9568
▁watt	-9569
ieller	-9570
inseln	-9571
itiver	-9572
räumen	-9573
sektor	-9574
später	-9575
strahl	-9576
▁akust	-9577
▁atome	-9578
▁befol	-9579
▁bären	-9580
▁gehst	-9581
▁leder	-9582
▁leser	-9583
▁luxus	-9584
▁möbel	-9585
▁panik	-9586
▁proto	-9587
▁story	-9588
▁zigar	-9589
anthrop	-9590
klärung	-9591
schihad	-9592
▁anreiz	-9593
▁banken	-9594
▁buches	-9595
▁grauen	-9596
▁materi	-9597
▁poesie	-9598
▁prüfen	-9599
▁stufen	-9600
▁vulkan	-9601
gespräch	-9602
stheorie	-9603
▁ausländ	-9604
▁betonen	-9605
▁bewegte	-9606
▁gerecht	-9607
▁platten	-9608
▁züchten	-9609
▁anhänger	-9610
▁besitzer	-9611
▁eröffnen	-9612
▁geringer	-9613
▁kalorien	-9614
▁problema	-9615
▁rhythmus	-9616
▁spielten	-9617
▁steigern	-9618
▁gewachsen	-9619
▁nirgendwo	-9620
▁schneiden	-9621
▁studierte	-9622
▁umgekehrt	-9623
▁bewältigen	-9624
▁emissionen	-9625
▁glückliche	-9626
▁individuum	-9627
▁königreich	-9628
▁religionen	-9629
▁wahrschein	-9630
organisation	-9631
▁effizienter	-9632
▁faszinieren	-9633
kommunikation	-9634
▁beizubringen	-9635
▁unterrichtet	-9636
▁faszinierende	-9637
▁eingeschlossen	-9638
▁entschuldigung	-9639
▁transportieren	-9640
rö	-9641
▁’	-9642
gei	-9643
lyn	-9644
row	-9645
äle	-9646
drom	-9647
gase	-9648
gäng	-9649
iene	-9650
ilen	-9651
inos	-9652
itar	-9653
luft	-9654
null	-9655
stad	-9656
ulin	-9657
well	-9658
älen	-9659
▁1,5	-9660
▁bzw	-9661
▁cra	-9662
▁fbi	-9663
▁rio	-9664
ffung	-9665
irekt	-9666
▁dete	-9667
▁gefl	-9668
▁gore	-9669
▁iron	-9670
▁kreb	-9671
▁mühe	-9672
▁nied	-9673
▁reis	-9674
▁räum	-9675
▁tsun	-9676
altete	-9677
bergen	-9678
besitz	-9679
bomben	-9680
chselt	-9681
chtern	-9682
senden	-9683
weiten	-9684
▁beför	-9685
▁galer	-9686
▁greif	-9687
▁ständ	-9688
▁tötet	-9689
▁unaus	-9690
energie	-9691
gefasst	-9692
nehmern	-9693
zierten	-9694
▁archiv	-9695
▁erzähl	-9696
▁kontro	-9697
▁legten	-9698
▁neuron	-9699
▁räumen	-9700
▁spiels	-9701
▁termin	-9702
▁unklar	-9703
▁vollen	-9704
▁zutief	-9705
behalten	-9706
fikation	-9707
standard	-9708
▁ankommt	-9709
▁anrufen	-9710
▁antrieb	-9711
▁beängst	-9712
▁dopamin	-9713
▁drucken	-9714
▁gedreht	-9715
▁grösser	-9716
▁heilung	-9717
▁homosex	-9718
▁muslime	-9719
▁schlägt	-9720
▁tendenz	-9721
▁umfrage	-9722
▁vielfäl	-9723
▁vorbild	-9724
▁wandern	-9725
▁wüssten	-9726
ikationen	-9727
otherapie	-9728
verfahren	-9729
▁anliegen	-9730
▁dschihad	-9731
▁gesetzen	-9732
▁ignoranz	-9733
▁negative	-9734
▁nochmals	-9735
▁normales	-9736
▁norwegen	-9737
▁spannung	-9738
▁britische	-9739
▁deutschen	-9740
▁differenz	-9741
▁feuerwehr	-9742
▁gewaltige	-9743
▁kognitive	-9744
▁meinungen	-9745
▁männliche	-9746
▁verkaufte	-9747
▁akzeptiert	-9748
▁expedition	-9749
▁grundlagen	-9750
▁initiative	-9751
▁schokolade	-9752
▁umgebungen	-9753
▁vergrößern	-9754
▁algorithmus	-9755
▁anweisungen	-9756
▁beobachtung	-9757
▁eingestellt	-9758
▁ausgestorben	-9759
▁ausprobieren	-9760
▁eigentlichen	-9761
▁krankenschwe	-9762
▁solarenergie	-9763
▁fantastischen	-9764
▁mathematische	-9765
▁unglaubliches	-9766
▁wohltätigkeit	-9767
▁repräsentieren	-9768
▁ursprünglichen	-9769
cc	-9770
rb	-9771
uf	-9772
üb	-9773
ace	-9774
cer	-9775
ens	-9776
hät	-9777
ini	-9778
kal	-9779
now	-9780
pap	-9781
ral	-9782
sbe	-9783
yer	-9784
▁os	-9785
arth	-9786
itor	-9787
laut	-9788
phin	-9789
▁hub	-9790
▁kie	-9791
▁ski	-9792
acken	-9793
dacht	-9794
hallo	-9795
ieden	-9796
orter	-9797
spart	-9798
üchte	-9799
▁bohr	-9800
▁erbe	-9801
▁hass	-9802
▁lego	-9803
▁meme	-9804
ierbar	-9805
kriegs	-9806
steten	-9807
voller	-9808
ündete	-9809
▁2.000	-9810
▁befra	-9811
▁exter	-9812
▁femin	-9813
▁freue	-9814
▁glaub	-9815
▁leere	-9816
▁meint	-9817
▁tiger	-9818
blicken	-9819
ingenie	-9820
▁august	-9821
▁bestes	-9822
▁bestra	-9823
▁drüber	-9824
▁hacker	-9825
▁kreise	-9826
▁multip	-9827
▁saturn	-9828
▁sinnes	-9829
▁tempor	-9830
▁wortes	-9831
▁wähler	-9832
geworfen	-9833
isierten	-9834
▁breiten	-9835
▁sendung	-9836
▁sonntag	-9837
ungsweise	-9838
▁auftritt	-9839
▁behörden	-9840
▁bewiesen	-9841
▁draussen	-9842
▁dringend	-9843
▁freizeit	-9844
▁geleitet	-9845
▁getreide	-9846
▁mithilfe	-9847
▁schenken	-9848
▁verraten	-9849
▁zutiefst	-9850
▁aktiviert	-9851
▁auflösung	-9852
▁bedeutsam	-9853
▁berechnet	-9854
▁eingebaut	-9855
▁hinweisen	-9856
▁karikatur	-9857
▁komplette	-9858
▁offenheit	-9859
▁religiöse	-9860
▁auffassung	-9861
▁berechnung	-9862
▁biologisch	-9863
▁verpflicht	-9864
▁zentimeter	-9865
▁aufzunehmen	-9866
▁durchmesser	-9867
▁konsumieren	-9868
▁unterwasser	-9869
verschmutzung	-9870
▁jugendlichen	-9871
▁klimawandels	-9872
▁konstruktion	-9873
▁zehntausende	-9874
▁außerordentlich	-9875
▁hunderttausende	-9876
dex	-9877
häu	-9878
oha	-9879
sey	-9880
tts	-9881
▁55	-9882
▁ce	-9883
▁sm	-9884
▁wä	-9885
blog	-9886
darf	-9887
osis	-9888
show	-9889
swür	-9890
verk	-9891
wing	-9892
▁17.	-9893
▁hen	-9894
▁mis	-9895
▁rab	-9896
fällt	-9897
künst	-9898
loser	-9899
motor	-9900
otten	-9901
probe	-9902
sport	-9903
zusch	-9904
änzen	-9905
▁fels	-9906
▁käse	-9907
▁mani	-9908
▁pilz	-9909
▁poly	-9910
▁wall	-9911
becken	-9912
eschön	-9913
ordert	-9914
source	-9915
städte	-9916
tikeln	-9917
wander	-9918
▁bombe	-9919
▁endes	-9920
▁found	-9921
▁graph	-9922
▁höhen	-9923
▁seife	-9924
▁slums	-9925
▁sturm	-9926
▁verkl	-9927
▁wiegt	-9928
▁zwill	-9929
▁übert	-9930
aterial	-9931
wärmung	-9932
▁arznei	-9933
▁einges	-9934
▁felder	-9935
▁lauter	-9936
▁wurzel	-9937
bereiten	-9938
getragen	-9939
produkte	-9940
reaktion	-9941
schafter	-9942
▁allerer	-9943
▁bezieht	-9944
▁gesucht	-9945
▁indiens	-9946
▁laptops	-9947
▁mischen	-9948
▁reicher	-9949
▁schätze	-9950
▁silicon	-9951
▁strecke	-9952
▁verteil	-9953
▁vietnam	-9954
▁zeitgen	-9955
erkennung	-9956
studenten	-9957
▁entropie	-9958
▁fürchten	-9959
▁gebunden	-9960
▁gleicher	-9961
▁globaler	-9962
▁halluzin	-9963
▁indische	-9964
▁personal	-9965
▁phosphor	-9966
▁schuldig	-9967
▁strahlen	-9968
▁typische	-9969
bewegungen	-9970
verstanden	-9971
▁ausgestat	-9972
▁benötigte	-9973
▁chirurgen	-9974
▁datenbank	-9975
▁disziplin	-9976
▁infektion	-9977
▁keinerlei	-9978
▁kritische	-9979
▁niemandem	-9980
▁produkten	-9981
▁standards	-9982
▁technisch	-9983
▁trainiert	-9984
▁verborgen	-9985
▁zentralen	-9986
▁durchgehen	-9987
▁festhalten	-9988
▁foundation	-9989
▁stickstoff	-9990
▁zueinander	-9991
▁durchlaufen	-9992
▁europäische	-9993
▁finanzielle	-9994
▁fokussieren	-9995
▁restaurants	-9996
▁verblüffend	-9997
▁verbraucher	-9998
▁erkenntnisse	-9999
▁vergewaltigt	-10000
▁arbeitsplätze	-10001
▁fotografieren	-10002
▁interaktionen	-10003
▁notwendigkeit	-10004
15	-10005
aw	-10006
ary	-10007
bor	-10008
cal	-10009
ino	-10010
ola	-10011
opf	-10012
yon	-10013
ßig	-10014
▁cl	-10015
▁mi	-10016
▁up	-10017
ches	-10018
erkt	-10019
kurs	-10020
ppte	-10021
prim	-10022
▁18.	-10023
▁idi	-10024
▁law	-10025
▁lou	-10026
▁mau	-10027
▁mur	-10028
▁piz	-10029
▁wat	-10030
ellos	-10031
endig	-10032
günst	-10033
hoben	-10034
kamen	-10035
legte	-10036
ophen	-10037
opter	-10038
right	-10039
stock	-10040
öhnen	-10041
▁ausf	-10042
▁bast	-10043
▁cous	-10044
▁fang	-10045
▁gött	-10046
▁hero	-10047
▁hill	-10048
▁jose	-10049
▁kenn	-10050
▁prie	-10051
▁sche	-10052
▁song	-10053
fabrik	-10054
iegelt	-10055
ketten	-10056
könnte	-10057
▁absor	-10058
▁ausde	-10059
▁blitz	-10060
▁count	-10061
▁crick	-10062
▁erwer	-10063
▁kopie	-10064
▁krist	-10065
▁pilot	-10066
▁pläne	-10067
▁schar	-10068
▁teilt	-10069
▁ueber	-10070
▁wolke	-10071
medizin	-10072
ometern	-10073
setzten	-10074
▁babies	-10075
▁denkst	-10076
▁lincol	-10077
▁rakete	-10078
▁regist	-10079
ferenzen	-10080
probiert	-10081
schnitte	-10082
▁anschau	-10083
▁behaupt	-10084
▁direkte	-10085
▁drohnen	-10086
▁erleich	-10087
▁fluores	-10088
▁fürchte	-10089
▁gefolgt	-10090
▁gelingt	-10091
▁symbole	-10092
▁versagt	-10093
▁wohnung	-10094
▁öffnete	-10095
abschluss	-10096
aufnahmen	-10097
verstehen	-10098
▁analogie	-10099
▁anziehen	-10100
▁erwähnte	-10101
▁hervorra	-10102
▁lehrerin	-10103
▁primaten	-10104
▁rauschen	-10105
▁riesiger	-10106
▁schulden	-10107
landschaft	-10108
▁aufstehen	-10109
▁empfangen	-10110
▁gestohlen	-10111
▁herstellt	-10112
▁kleineren	-10113
▁negativen	-10114
▁repräsent	-10115
▁rollstuhl	-10116
▁anzunehmen	-10117
▁anzuwenden	-10118
▁beschränkt	-10119
▁beteiligen	-10120
▁investoren	-10121
▁kommentare	-10122
▁unterdrück	-10123
▁verstorben	-10124
▁beantwortet	-10125
▁beherrschen	-10126
▁emotionalen	-10127
▁geheimnisse	-10128
▁gewöhnliche	-10129
▁staatlichen	-10130
▁wichtigkeit	-10131
▁erfolgreiche	-10132
▁intervention	-10133
▁studierenden	-10134
▁unsicherheit	-10135
▁größenordnung	-10136
▁schrecklichen	-10137
▁tatsächlichen	-10138
▁fettleibigkeit	-10139
12	-10140
box	-10141
fle	-10142
gos	-10143
ilz	-10144
ipp	-10145
kil	-10146
ted	-10147
▁dv	-10148
eigt	-10149
schü	-10150
tein	-10151
trat	-10152
▁bün	-10153
▁fün	-10154
▁gib	-10155
▁gär	-10156
▁mum	-10157
▁squ	-10158
▁who	-10159
aster	-10160
erten	-10161
famil	-10162
istin	-10163
lafen	-10164
lings	-10165
masse	-10166
ullen	-10167
verei	-10168
woher	-10169
▁ford	-10170
▁funk	-10171
▁haup	-10172
▁long	-10173
▁nick	-10174
▁spar	-10175
▁zens	-10176
berech	-10177
früher	-10178
proben	-10179
regeln	-10180
region	-10181
umines	-10182
ätzung	-10183
üsseln	-10184
▁3.000	-10185
▁ablen	-10186
▁beizu	-10187
▁bewoh	-10188
▁bogen	-10189
▁freit	-10190
▁güter	-10191
▁haust	-10192
▁malte	-10193
▁minen	-10194
▁perio	-10195
ografen	-10196
roboter	-10197
schrank	-10198
▁anwalt	-10199
▁berlin	-10200
▁bewahr	-10201
▁brilli	-10202
▁derzei	-10203
▁ehrgei	-10204
▁fassen	-10205
▁flogen	-10206
▁gegner	-10207
▁herzin	-10208
▁impuls	-10209
▁kortex	-10210
▁merkte	-10211
▁methan	-10212
▁photos	-10213
▁sendet	-10214
▁vaters	-10215
gebildet	-10216
▁anzeige	-10217
▁branche	-10218
▁gewaltt	-10219
▁insulin	-10220
▁kleider	-10221
▁kollege	-10222
▁langleb	-10223
▁leichte	-10224
▁nuklear	-10225
▁sklaven	-10226
▁spanien	-10227
▁tiefsee	-10228
▁umfasst	-10229
▁verdeut	-10230
kreislauf	-10231
sichtigen	-10232
▁besserer	-10233
▁direktor	-10234
▁erlaubte	-10235
▁frequenz	-10236
▁gespeich	-10237
▁woanders	-10238
▁zerbrech	-10239
▁erlaubnis	-10240
▁erschwing	-10241
▁erweitert	-10242
▁kleinsten	-10243
▁typischen	-10244
▁verkörper	-10245
▁verletzen	-10246
▁zustimmen	-10247
▁brennstoff	-10248
▁kombiniert	-10249
▁kunststoff	-10250
▁eingeschrän	-10251
▁freiwillige	-10252
▁natürlicher	-10253
▁unsichtbare	-10254
▁verheiratet	-10255
▁wesentliche	-10256
▁beschäftigte	-10257
▁schlagzeilen	-10258
▁angelegenheit	-10259
▁programmierer	-10260
▁menschenrechte	-10261
▁zusammenfassen	-10262
fas	-10263
mik	-10264
spf	-10265
säu	-10266
tja	-10267
▁ib	-10268
ania	-10269
haut	-10270
kler	-10271
onds	-10272
reen	-10273
rien	-10274
wege	-10275
▁blu	-10276
▁cel	-10277
▁jim	-10278
▁ret	-10279
anner	-10280
diger	-10281
itäre	-10282
titel	-10283
▁farm	-10284
▁gumm	-10285
▁kühe	-10286
▁litt	-10287
▁melo	-10288
▁mont	-10289
▁radi	-10290
▁seel	-10291
▁süch	-10292
▁tast	-10293
▁warf	-10294
asiten	-10295
eitete	-10296
gefügt	-10297
ittens	-10298
nutzen	-10299
plätze	-10300
reißen	-10301
sprodu	-10302
ussten	-10303
ächter	-10304
▁desig	-10305
▁gefil	-10306
▁gelbe	-10307
▁inder	-10308
▁jenes	-10309
▁lande	-10310
▁lehrt	-10311
▁sorgt	-10312
analyse	-10313
einfach	-10314
produkt	-10315
ungslos	-10316
▁anlage	-10317
▁beutel	-10318
▁bricht	-10319
▁bringe	-10320
▁decken	-10321
▁dörfer	-10322
▁fasern	-10323
▁garage	-10324
▁gelegt	-10325
▁gerüst	-10326
▁landet	-10327
▁plätze	-10328
▁portra	-10329
▁wüsste	-10330
gesteuer	-10331
leuchten	-10332
▁abhängt	-10333
▁banglad	-10334
▁daneben	-10335
▁drinnen	-10336
▁goldene	-10337
▁konvers	-10338
▁lincoln	-10339
▁massive	-10340
▁stehlen	-10341
▁zuletzt	-10342
gewandelt	-10343
millionen	-10344
▁dutzende	-10345
▁friedens	-10346
▁getragen	-10347
▁jegliche	-10348
▁kollabor	-10349
▁kolonien	-10350
▁mächtige	-10351
▁neuesten	-10352
▁parallel	-10353
▁robotern	-10354
▁substanz	-10355
▁verschle	-10356
▁versehen	-10357
▁versorgt	-10358
▁angewandt	-10359
▁anspruchs	-10360
▁einfallen	-10361
▁einführen	-10362
▁jedermann	-10363
▁bedeutende	-10364
▁durchbruch	-10365
▁gewaltigen	-10366
▁großeltern	-10367
▁interviews	-10368
▁motivieren	-10369
▁nährstoffe	-10370
▁restlichen	-10371
▁verdoppeln	-10372
▁weiblichen	-10373
▁wohnzimmer	-10374
▁übernommen	-10375
▁gefährliche	-10376
▁islamischen	-10377
▁mitgebracht	-10378
▁traditionen	-10379
▁verbreitete	-10380
▁andererseits	-10381
▁beschleunigt	-10382
▁landschaften	-10383
▁elektronische	-10384
bc	-10385
199	-10386
kli	-10387
ova	-10388
▁eb	-10389
baut	-10390
fass	-10391
leid	-10392
rich	-10393
uung	-10394
zier	-10395
▁fak	-10396
▁max	-10397
laubt	-10398
ramme	-10399
sonst	-10400
usste	-10401
ynman	-10402
▁allm	-10403
▁anat	-10404
▁angi	-10405
▁biol	-10406
▁clin	-10407
▁hang	-10408
▁hebt	-10409
▁hekt	-10410
▁held	-10411
▁link	-10412
▁news	-10413
▁pest	-10414
▁rate	-10415
▁serv	-10416
▁unzu	-10417
anghai	-10418
fällig	-10419
hafter	-10420
indien	-10421
kamera	-10422
ummern	-10423
zisten	-10424
▁abrah	-10425
▁algen	-10426
▁ansah	-10427
▁arist	-10428
▁baten	-10429
▁buddh	-10430
▁eurer	-10431
▁fremd	-10432
▁hosen	-10433
▁jesus	-10434
▁leise	-10435
▁mexik	-10436
▁minus	-10437
▁müsst	-10438
▁ratte	-10439
▁schad	-10440
▁schub	-10441
▁sitze	-10442
▁stell	-10443
▁tafel	-10444
▁vorur	-10445
▁weite	-10446
bilität	-10447
digungs	-10448
kreisen	-10449
kriegen	-10450
könnten	-10451
▁autist	-10452
▁betrug	-10453
▁deprim	-10454
▁filmem	-10455
▁folgte	-10456
▁freuen	-10457
▁herbst	-10458
▁hühner	-10459
▁instin	-10460
▁kritik	-10461
▁matrix	-10462
▁minder	-10463
▁phasen	-10464
▁second	-10465
▁seiden	-10466
▁treppe	-10467
▁weizen	-10468
drittens	-10469
springen	-10470
ähnliche	-10471
▁abweich	-10472
▁anhören	-10473
▁chromos	-10474
▁gestalt	-10475
▁günstig	-10476
▁haltung	-10477
▁meeting	-10478
▁paradox	-10479
▁premier	-10480
▁stammes	-10481
▁teppich	-10482
▁unbesch	-10483
▁verzerr	-10484
▁wartete	-10485
▁widersp	-10486
berfläche	-10487
konferenz	-10488
▁anderswo	-10489
▁beschwer	-10490
▁erstmals	-10491
▁fossilen	-10492
▁hingegen	-10493
▁merkmale	-10494
▁neandert	-10495
▁schalter	-10496
▁computers	-10497
▁erreichte	-10498
▁führenden	-10499
▁getrieben	-10500
▁jederzeit	-10501
▁klinische	-10502
▁kommentar	-10503
▁komplexes	-10504
▁molekular	-10505
▁moralisch	-10506
▁rekonstru	-10507
▁schätzung	-10508
▁verknüpft	-10509
▁vertreten	-10510
übergreifen	-10511
▁existierte	-10512
▁integriert	-10513
▁kandidaten	-10514
▁männlichen	-10515
▁unbekannte	-10516
▁werkzeugen	-10517
▁allgegenwär	-10518
▁architekton	-10519
▁kollektiven	-10520
▁psychologen	-10521
▁unabhängige	-10522
▁verwendeten	-10523
▁vorschlagen	-10524
interessanter	-10525
▁entsprechend	-10526
▁programmiert	-10527
▁tatsächliche	-10528
offensichtlich	-10529
▁festzustellen	-10530
▁interpretieren	-10531
▁technologische	-10532
▁wirtschaftlich	-10533
▁einschränkungen	-10534
eb	-10535
ux	-10536
atr	-10537
fuß	-10538
ika	-10539
mie	-10540
oni	-10541
rea	-10542
zel	-10543
ähe	-10544
übt	-10545
▁37	-10546
▁ig	-10547
aben	-10548
fine	-10549
hung	-10550
iole	-10551
kömm	-10552
lebt	-10553
meer	-10554
meid	-10555
stär	-10556
such	-10557
ütze	-10558
▁bit	-10559
▁gay	-10560
▁lud	-10561
▁ran	-10562
▁tar	-10563
▁äng	-10564
ansas	-10565
blatt	-10566
eland	-10567
griff	-10568
reten	-10569
ucken	-10570
uther	-10571
ühnen	-10572
▁bell	-10573
▁jazz	-10574
▁leon	-10575
▁quot	-10576
▁rass	-10577
▁shak	-10578
▁zelt	-10579
▁zugr	-10580
binden	-10581
esseln	-10582
haftes	-10583
hängen	-10584
risten	-10585
sender	-10586
solche	-10587
stands	-10588
▁antik	-10589
▁aufbl	-10590
▁formt	-10591
▁hafen	-10592
▁ideal	-10593
▁liban	-10594
▁loszu	-10595
▁magen	-10596
▁miner	-10597
▁neuse	-10598
▁rande	-10599
▁risik	-10600
▁türen	-10601
▁zehen	-10602
▁zuver	-10603
abdruck	-10604
glauben	-10605
okratie	-10606
schulen	-10607
▁befand	-10608
▁bequem	-10609
▁formel	-10610
▁genome	-10611
▁halfen	-10612
▁korrig	-10613
▁magnet	-10614
▁patent	-10615
heimlich	-10616
methoden	-10617
▁agieren	-10618
▁anfangs	-10619
▁bislang	-10620
▁geformt	-10621
▁gewinne	-10622
▁gewohnt	-10623
▁indones	-10624
▁logisch	-10625
▁märkten	-10626
▁origami	-10627
▁präzise	-10628
▁riechen	-10629
▁sammelt	-10630
▁steuert	-10631
▁wörtern	-10632
▁arbeitsk	-10633
▁aufwuchs	-10634
▁drittens	-10635
▁durchaus	-10636
▁elektrom	-10637
▁forschen	-10638
▁parteien	-10639
▁physisch	-10640
▁projekts	-10641
▁zugrunde	-10642
emissionen	-10643
▁absichten	-10644
▁angesicht	-10645
▁bestätigt	-10646
▁innovativ	-10647
▁kapazität	-10648
▁motiviert	-10649
▁parkinson	-10650
▁schwellen	-10651
▁zeichnung	-10652
▁äthiopien	-10653
▁örtlichen	-10654
versprechen	-10655
wasserstoff	-10656
▁einbringen	-10657
▁erkrankung	-10658
▁fotografie	-10659
▁säugetiere	-10660
erkrankungen	-10661
stechnologie	-10662
▁atomenergie	-10663
▁ausprobiert	-10664
▁gravitation	-10665
▁integrieren	-10666
▁jugendliche	-10667
▁politischer	-10668
▁schmerzhaft	-10669
▁transparent	-10670
▁umgewandelt	-10671
▁unmittelbar	-10672
▁persönlicher	-10673
▁wahrgenommen	-10674
▁demokratische	-10675
▁intelligenten	-10676
▁krankenhäuser	-10677
▁transportiert	-10678
▁demokratischen	-10679
▁interpretation	-10680
▁transformation	-10681
▁verletzlichkeit	-10682
hs	-10683
mi	-10684
▁°	-10685
anw	-10686
gol	-10687
pel	-10688
pum	-10689
ura	-10690
▁42	-10691
▁7.	-10692
flie	-10693
konz	-10694
ness	-10695
▁bun	-10696
▁joe	-10697
▁led	-10698
▁nel	-10699
▁rap	-10700
▁ray	-10701
▁reh	-10702
▁wom	-10703
brett	-10704
digte	-10705
ießen	-10706
kamer	-10707
reckt	-10708
sucht	-10709
örder	-10710
öscht	-10711
▁2011	-10712
▁2050	-10713
▁ewig	-10714
▁flut	-10715
▁inne	-10716
▁isst	-10717
▁märz	-10718
▁pion	-10719
▁rosa	-10720
▁ruft	-10721
▁sach	-10722
▁snow	-10723
▁töne	-10724
faktor	-10725
jedoch	-10726
lachen	-10727
school	-10728
schrau	-10729
▁belei	-10730
▁cloud	-10731
▁eurem	-10732
▁klare	-10733
▁korea	-10734
▁tromm	-10735
▁unbew	-10736
branche	-10737
zession	-10738
▁akzept	-10739
▁county	-10740
▁gitter	-10741
▁halbes	-10742
▁liebes	-10743
▁packen	-10744
▁portug	-10745
▁raffin	-10746
▁raumes	-10747
▁riecht	-10748
▁teller	-10749
▁unsinn	-10750
▁urlaub	-10751
faktoren	-10752
frequenz	-10753
gebieten	-10754
gefahren	-10755
kampagne	-10756
künstler	-10757
software	-10758
streifen	-10759
zuhalten	-10760
ästhesie	-10761
▁beeintr	-10762
▁erheben	-10763
▁erstmal	-10764
▁gelände	-10765
▁hierbei	-10766
▁johnson	-10767
▁körpern	-10768
▁schufen	-10769
▁schwamm	-10770
▁spontan	-10771
▁weitaus	-10772
▁anfingen	-10773
▁auslösen	-10774
▁geflogen	-10775
▁gesunken	-10776
▁leinwand	-10777
▁radikale	-10778
▁schweren	-10779
▁sicheren	-10780
▁vermuten	-10781
▁vorgehen	-10782
▁wieviele	-10783
▁ansonsten	-10784
▁begleitet	-10785
▁berührung	-10786
▁beschrieb	-10787
▁schlangen	-10788
▁sklaverei	-10789
▁wachsende	-10790
▁zuzuhören	-10791
▁ausschnitt	-10792
▁beseitigen	-10793
▁betrachter	-10794
▁einfachste	-10795
▁einführung	-10796
▁elektroden	-10797
▁hersteller	-10798
▁polizisten	-10799
▁unheimlich	-10800
▁anwesenheit	-10801
▁beeindruckt	-10802
▁glücklichen	-10803
▁wettbewerbs	-10804
▁widerstands	-10805
▁wunderbares	-10806
amerikanische	-10807
▁ausgestattet	-10808
▁hausaufgaben	-10809
▁jahrhunderte	-10810
▁untereinander	-10811
▁verwirklichen	-10812
▁physikalischen	-10813
▁premierminister	-10814
ano	-10815
hlt	-10816
ozi	-10817
opft	-10818
otte	-10819
ruhe	-10820
ustr	-10821
wird	-10822
▁2,5	-10823
▁350	-10824
▁pul	-10825
▁tak	-10826
▁twe	-10827
agert	-10828
brach	-10829
iland	-10830
junge	-10831
noten	-10832
onach	-10833
opfen	-10834
oskop	-10835
ührte	-10836
üllte	-10837
▁benj	-10838
▁cola	-10839
▁dile	-10840
▁lock	-10841
▁panz	-10842
▁plat	-10843
▁treu	-10844
▁tsch	-10845
▁vaku	-10846
▁ärzt	-10847
brüche	-10848
dachte	-10849
eidung	-10850
ertigt	-10851
gender	-10852
grenze	-10853
hinter	-10854
itären	-10855
kreise	-10856
meiner	-10857
presse	-10858
rollen	-10859
schrei	-10860
stimme	-10861
terung	-10862
öglich	-10863
▁baumw	-10864
▁brian	-10865
▁detro	-10866
▁earth	-10867
▁einig	-10868
▁ethik	-10869
▁fügen	-10870
▁navig	-10871
▁pfeil	-10872
▁popul	-10873
▁rasch	-10874
▁runde	-10875
▁saudi	-10876
▁solle	-10877
▁texte	-10878
▁warst	-10879
▁zunge	-10880
bestand	-10881
bewegen	-10882
bleiben	-10883
flasche	-10884
rechung	-10885
▁30.000	-10886
▁absolv	-10887
▁auszur	-10888
▁balken	-10889
▁baumkr	-10890
▁befehl	-10891
▁ernten	-10892
▁griech	-10893
▁hauses	-10894
▁hektar	-10895
▁insekt	-10896
▁klaren	-10897
▁korrel	-10898
▁kurzes	-10899
▁kümmer	-10900
▁langes	-10901
▁nelson	-10902
▁pferde	-10903
▁provin	-10904
▁sahara	-10905
▁sterbe	-10906
▁teurer	-10907
▁trauma	-10908
▁untere	-10909
▁weiten	-10910
▁würfel	-10911
kontroll	-10912
netzwerk	-10913
schlägen	-10914
strecken	-10915
▁aktiven	-10916
▁bemühen	-10917
▁dörfern	-10918
▁gelähmt	-10919
▁gemeint	-10920
▁geprägt	-10921
▁heilige	-10922
▁mandela	-10923
▁mitleid	-10924
▁mitteln	-10925
▁teilten	-10926
▁vertrag	-10927
▁waschen	-10928
krankheit	-10929
leitungen	-10930
▁atlantik	-10931
▁bewunder	-10932
▁eigentum	-10933
▁gelaufen	-10934
▁gewaltig	-10935
▁gewalttä	-10936
▁globales	-10937
▁hardware	-10938
▁kliniken	-10939
▁peinlich	-10940
▁pyramide	-10941
▁rational	-10942
▁shanghai	-10943
▁strassen	-10944
▁verkehrs	-10945
▁verläuft	-10946
mitglieder	-10947
sicherheit	-10948
▁antarktis	-10949
▁automobil	-10950
▁erkannten	-10951
▁gestiegen	-10952
▁hinterher	-10953
▁kreativer	-10954
▁probanden	-10955
▁rückseite	-10956
▁umgesetzt	-10957
▁verleihen	-10958
geschrieben	-10959
▁chinesisch	-10960
▁freiwillig	-10961
▁generieren	-10962
▁kategorien	-10963
▁kompromiss	-10964
▁netzwerken	-10965
▁psychische	-10966
▁verschwand	-10967
▁antibiotika	-10968
▁aufgestellt	-10969
▁ausgedrückt	-10970
▁bestandteil	-10971
▁gespeichert	-10972
▁heimatstadt	-10973
▁konstruiert	-10974
▁naturschutz	-10975
▁verschieben	-10976
▁exponentiell	-10977
▁unsichtbaren	-10978
amerikanischen	-10979
gesellschaften	-10980
▁artenvielfalt	-10981
▁identifiziert	-10982
▁meeresspiegel	-10983
▁auszuprobieren	-10984
fé	-10985
▁q	-10986
cel	-10987
ces	-10988
cor	-10989
ila	-10990
ost	-10991
rus	-10992
the	-10993
val	-10994
wal	-10995
wan	-10996
▁kö	-10997
diag	-10998
ding	-10999
hoch	-11000
isen	-11001
kopp	-11002
saal	-11003
sand	-11004
zell	-11005
äser	-11006
▁agr	-11007
▁dän	-11008
▁jos	-11009
▁sho	-11010
▁sin	-11011
autos	-11012
blase	-11013
farbe	-11014
milli	-11015
ärzte	-11016
▁2012	-11017
▁fuer	-11018
▁hawa	-11019
▁matt	-11020
▁rick	-11021
▁seri	-11022
▁stig	-11023
▁tank	-11024
▁ufer	-11025
bienen	-11026
bricht	-11027
gelöst	-11028
griffe	-11029
ickelt	-11030
mpfung	-11031
sichts	-11032
weiter	-11033
üchtig	-11034
üttert	-11035
▁amate	-11036
▁analy	-11037
▁beten	-11038
▁betäu	-11039
▁blume	-11040
▁brown	-11041
▁erhol	-11042
▁ferne	-11043
▁hinab	-11044
▁hinge	-11045
▁mcdon	-11046
▁motto	-11047
▁nebel	-11048
▁north	-11049
▁pizza	-11050
▁sinkt	-11051
▁state	-11052
▁stere	-11053
▁stieß	-11054
büchern	-11055
schritt	-11056
örtlich	-11057
▁beiträ	-11058
▁blinde	-11059
▁briefe	-11060
▁frosch	-11061
▁lücken	-11062
▁newton	-11063
▁opfern	-11064
▁rettet	-11065
▁riesig	-11066
▁schafe	-11067
▁tempel	-11068
▁unterr	-11069
▁zuvers	-11070
basierte	-11071
fizierte	-11072
personen	-11073
steuropa	-11074
ungefähr	-11075
▁ausgabe	-11076
▁entschl	-11077
▁erlebte	-11078
▁fingern	-11079
▁genetik	-11080
▁geplant	-11081
▁hungers	-11082
▁oftmals	-11083
▁orangen	-11084
▁psychop	-11085
▁solches	-11086
▁stipend	-11087
▁unfälle	-11088
▁zusehen	-11089
▁zweiter	-11090
gerichtet	-11091
maßnahmen	-11092
ordnungen	-11093
schmerzen	-11094
stelligen	-11095
unterhalt	-11096
vertrauen	-11097
▁autobahn	-11098
▁behälter	-11099
▁betriebs	-11100
▁christen	-11101
▁handelte	-11102
▁haushalt	-11103
▁recherch	-11104
▁streifen	-11105
▁tauschen	-11106
▁versetzt	-11107
▁verwandt	-11108
▁wiederbe	-11109
▁angezogen	-11110
▁anpassung	-11111
▁aufhalten	-11112
▁ausgelöst	-11113
▁durchführ	-11114
▁eintreten	-11115
▁furchtbar	-11116
▁gefährdet	-11117
▁geometrie	-11118
▁kategorie	-11119
▁kollektiv	-11120
▁möglichst	-11121
▁schachtel	-11122
▁schütteln	-11123
▁seltsamen	-11124
▁wohnungen	-11125
unternehmer	-11126
▁analysiert	-11127
▁aufstellen	-11128
▁bestätigen	-11129
▁biolumines	-11130
▁eineinhalb	-11131
▁elektromag	-11132
▁entfernten	-11133
▁klinischen	-11134
▁kontinuier	-11135
▁perfektion	-11136
▁völkermord	-11137
▁wachsenden	-11138
▁überdenken	-11139
▁botschaften	-11140
▁erzählungen	-11141
▁geschlechts	-11142
▁unglücklich	-11143
▁veränderten	-11144
▁experimenten	-11145
▁langfristige	-11146
▁quadratmeter	-11147
▁republikaner	-11148
▁verpflichtet	-11149
organisationen	-11150
▁durchschnitts	-11151
▁gelegenheiten	-11152
▁interessierte	-11153
▁konzentrierte	-11154
▁schizophrenie	-11155
▁berücksichtigt	-11156
▁führungskräfte	-11157
ny	-11158
bez	-11159
bot	-11160
cam	-11161
hut	-11162
mas	-11163
▁cr	-11164
▁iq	-11165
apur	-11166
bett	-11167
brot	-11168
eilt	-11169
flos	-11170
hoff	-11171
kter	-11172
port	-11173
situ	-11174
▁dik	-11175
▁fit	-11176
▁kro	-11177
▁nag	-11178
ablen	-11179
david	-11180
ebene	-11181
perrt	-11182
psych	-11183
äusen	-11184
▁ekel	-11185
▁fuss	-11186
▁hong	-11187
▁kell	-11188
▁käme	-11189
▁maxi	-11190
▁müde	-11191
▁pend	-11192
▁prüf	-11193
▁riff	-11194
▁tans	-11195
dichte	-11196
endete	-11197
gewinn	-11198
keiner	-11199
menten	-11200
märkte	-11201
ortion	-11202
physik	-11203
tunion	-11204
▁ankam	-11205
▁begra	-11206
▁ecken	-11207
▁fange	-11208
▁gestr	-11209
▁heter	-11210
▁immen	-11211
▁jemen	-11212
▁kleid	-11213
▁model	-11214
▁nutze	-11215
▁obere	-11216
▁orbit	-11217
▁rasen	-11218
▁schil	-11219
▁skala	-11220
▁ungew	-11221
▁verfl	-11222
▁vergi	-11223
▁wollt	-11224
artikel	-11225
bezogen	-11226
igungen	-11227
tauchen	-11228
▁americ	-11229
▁comics	-11230
▁essens	-11231
▁feinde	-11232
▁flagge	-11233
▁hormon	-11234
▁ironie	-11235
▁mikrof	-11236
▁mythos	-11237
▁nieren	-11238
▁ozeans	-11239
▁redner	-11240
▁siehst	-11241
▁supern	-11242
▁winden	-11243
▁überre	-11244
gehalten	-11245
▁bananen	-11246
▁brasili	-11247
▁detroit	-11248
▁freitag	-11249
▁herumzu	-11250
▁häusern	-11251
▁löschen	-11252
▁prostat	-11253
▁rituale	-11254
▁sowieso	-11255
▁störung	-11256
▁tomaten	-11257
▁verblei	-11258
▁vereint	-11259
▁verschm	-11260
▁zugriff	-11261
▁abkommen	-11262
▁anspruch	-11263
▁astronom	-11264
▁erwischt	-11265
▁flaschen	-11266
▁gedichte	-11267
▁geglaubt	-11268
▁generell	-11269
▁gestoßen	-11270
▁kleinste	-11271
▁manifest	-11272
▁verwende	-11273
nullsummen	-11274
▁entkommen	-11275
▁eventuell	-11276
▁kommenden	-11277
▁mitfühlen	-11278
▁stärksten	-11279
▁verwandel	-11280
▁wenigsten	-11281
▁angewendet	-11282
▁anzufangen	-11283
▁beispielen	-11284
▁bestimmtes	-11285
▁garantiert	-11286
▁palästinen	-11287
▁raumschiff	-11288
▁unmögliche	-11289
▁wahrhaftig	-11290
▁zuversicht	-11291
▁ermöglichte	-11292
▁flüchtlinge	-11293
▁immunsystem	-11294
▁körperliche	-11295
▁künstlichen	-11296
▁olympischen	-11297
▁prioritäten	-11298
▁verschaffen	-11299
dimensionalen	-11300
▁arzneimittel	-11301
▁fundamentale	-11302
▁größtenteils	-11303
▁historischen	-11304
▁untersuchten	-11305
▁einzigartigen	-11306
▁entwicklungen	-11307
▁überzeugungen	-11308
▁bildungssystem	-11309
▁herausgestellt	-11310
▁verantwortungs	-11311
▁veröffentlichte	-11312
fu	-11313
hc	-11314
nö	-11315
▁♪	-11316
ado	-11317
höh	-11318
ürt	-11319
▁ut	-11320
alie	-11321
amie	-11322
fiel	-11323
folg	-11324
gets	-11325
muse	-11326
sstu	-11327
ttes	-11328
▁bös	-11329
▁elf	-11330
▁fox	-11331
▁mul	-11332
▁roy	-11333
▁val	-11334
front	-11335
gemäß	-11336
links	-11337
riert	-11338
splan	-11339
▁100-	-11340
▁beam	-11341
▁come	-11342
▁embr	-11343
▁mord	-11344
apital	-11345
grippe	-11346
haftet	-11347
halter	-11348
studie	-11349
wörter	-11350
zyklus	-11351
▁altru	-11352
▁befeh	-11353
▁chile	-11354
▁fahrt	-11355
▁gramm	-11356
▁kanal	-11357
▁kurse	-11358
▁rente	-11359
aufgabe	-11360
förmige	-11361
liziert	-11362
▁aufbew	-11363
▁beauft	-11364
▁denker	-11365
▁elegan	-11366
▁endgül	-11367
▁enthus	-11368
▁ersatz	-11369
▁gandhi	-11370
▁gewähr	-11371
▁geziel	-11372
▁howard	-11373
▁klänge	-11374
▁leidet	-11375
▁mentor	-11376
▁nutzte	-11377
▁profil	-11378
▁sender	-11379
▁square	-11380
▁toller	-11381
▁treffe	-11382
▁watson	-11383
beginnen	-11384
erzählen	-11385
icherung	-11386
▁anwälte	-11387
▁austral	-11388
▁begeben	-11389
▁cricket	-11390
▁drachen	-11391
▁experte	-11392
▁extreme	-11393
▁fiktion	-11394
▁gereist	-11395
▁gerufen	-11396
▁grausam	-11397
▁himmels	-11398
▁hungrig	-11399
▁meinten	-11400
▁nordpol	-11401
▁reprodu	-11402
▁robotik	-11403
▁rückmel	-11404
▁schweiz	-11405
▁tsunami	-11406
▁typisch	-11407
▁umsonst	-11408
▁vierten	-11409
▁vorherr	-11410
fizierten	-11411
irgendwie	-11412
patienten	-11413
rechungen	-11414
schreiten	-11415
spersonen	-11416
▁annähern	-11417
▁carolina	-11418
▁einladen	-11419
▁gelungen	-11420
▁gerichts	-11421
▁niedrige	-11422
▁november	-11423
▁schreien	-11424
▁vereinen	-11425
▁verwirrt	-11426
▁vorlesen	-11427
▁wörtlich	-11428
betrachten	-11429
▁alexander	-11430
▁bausteine	-11431
▁biosphäre	-11432
▁einladung	-11433
▁emotional	-11434
▁ergreifen	-11435
▁erschafft	-11436
▁erzählung	-11437
▁genannten	-11438
▁ignoriert	-11439
▁künstlern	-11440
▁markieren	-11441
▁niedrigen	-11442
▁ressource	-11443
▁schweizer	-11444
▁starteten	-11445
▁versetzen	-11446
▁zeichnete	-11447
▁überfluss	-11448
▁übersehen	-11449
verständnis	-11450
▁beurteilen	-11451
▁diskutiert	-11452
▁geographic	-11453
▁schlussfol	-11454
▁unvorstell	-11455
▁vergrößert	-11456
▁ökosysteme	-11457
▁überlebens	-11458
▁beleuchtung	-11459
▁entscheidet	-11460
▁ergebnissen	-11461
▁historische	-11462
▁irgendeinen	-11463
▁programmier	-11464
▁sowjetunion	-11465
▁spezifische	-11466
▁unbekannten	-11467
▁variationen	-11468
▁finanzierung	-11469
▁gewöhnlichen	-11470
▁herausstellt	-11471
▁manipulieren	-11472
▁öffentlicher	-11473
▁aufgezeichnet	-11474
▁demonstrieren	-11475
▁nebeneinander	-11476
▁treibhausgase	-11477
▁zufriedenheit	-11478
▁diagnostiziert	-11479
▁intellektuelle	-11480
▁mathematischen	-11481
▁geschäftsmodell	-11482
40	-11483
ae	-11484
ax	-11485
dä	-11486
jh	-11487
100	-11488
isa	-11489
low	-11490
ody	-11491
red	-11492
öre	-11493
▁ii	-11494
▁lä	-11495
atik	-11496
auto	-11497
dose	-11498
esst	-11499
ifik	-11500
kain	-11501
oche	-11502
ollt	-11503
rede	-11504
roph	-11505
sack	-11506
ätzt	-11507
öhne	-11508
ürzt	-11509
▁20-	-11510
▁anz	-11511
▁ess	-11512
▁hof	-11513
▁kas	-11514
▁läh	-11515
▁sky	-11516
▁tes	-11517
▁vin	-11518
kolle	-11519
labor	-11520
namen	-11521
onanz	-11522
reser	-11523
▁bekl	-11524
▁coca	-11525
▁data	-11526
▁down	-11527
▁note	-11528
▁rang	-11529
▁trop	-11530
ameter	-11531
anfall	-11532
drüsen	-11533
gentin	-11534
lichem	-11535
linder	-11536
oteles	-11537
rahmen	-11538
ättern	-11539
▁abbau	-11540
▁begab	-11541
▁bronx	-11542
▁erdöl	-11543
▁euren	-11544
▁gelei	-11545
▁jones	-11546
▁juden	-11547
▁jäger	-11548
▁lohnt	-11549
▁nette	-11550
▁parks	-11551
▁prost	-11552
▁resul	-11553
▁stirn	-11554
▁teils	-11555
▁tinte	-11556
▁traur	-11557
antwort	-11558
damerik	-11559
nutzung	-11560
tlichen	-11561
üchtern	-11562
▁anwend	-11563
▁chinas	-11564
▁fusion	-11565
▁prophe	-11566
▁redete	-11567
▁trugen	-11568
▁tunnel	-11569
▁umlauf	-11570
▁zweier	-11571
engungen	-11572
institut	-11573
▁200.000	-11574
▁benannt	-11575
▁erfolge	-11576
▁gefühlt	-11577
▁herkömm	-11578
▁mysteri	-11579
▁notfall	-11580
▁vernach	-11581
zuschauer	-11582
▁abwasser	-11583
▁befanden	-11584
▁benjamin	-11585
▁brooklyn	-11586
▁erlernen	-11587
▁ermutigt	-11588
▁gehirnen	-11589
▁isoliert	-11590
▁klettern	-11591
▁komische	-11592
▁kritiker	-11593
▁möchtest	-11594
▁priester	-11595
▁schweben	-11596
▁shakespe	-11597
▁stimmung	-11598
▁vorkommt	-11599
▁zukunfts	-11600
verbindung	-11601
▁aufweisen	-11602
▁ausnahmen	-11603
▁empfänger	-11604
▁forschern	-11605
▁gerichtet	-11606
▁herzinfar	-11607
▁jahrelang	-11608
▁mitmachen	-11609
▁produktiv	-11610
▁rezession	-11611
▁techniker	-11612
▁umwandeln	-11613
▁aktivisten	-11614
▁fallschirm	-11615
▁gezeichnet	-11616
▁grundstück	-11617
▁indonesien	-11618
▁innenstadt	-11619
▁kritischen	-11620
▁neuseeland	-11621
▁schauspiel	-11622
▁vorhersage	-11623
▁zeitspanne	-11624
technologien	-11625
▁angegriffen	-11626
▁anstrengung	-11627
▁erschaffung	-11628
▁forschungen	-11629
▁begeisterung	-11630
▁muslimischen	-11631
▁persönliches	-11632
▁systematisch	-11633
▁umweltschutz	-11634
▁demonstration	-11635
▁verschmutzung	-11636
▁verbesserungen	-11637
▁lebensunterhalt	-11638
ao	-11639
cra	-11640
ela	-11641
ita	-11642
ona	-11643
ors	-11644
set	-11645
▁44	-11646
▁48	-11647
▁72	-11648
▁cd	-11649
aida	-11650
dest	-11651
gene	-11652
haie	-11653
heil	-11654
iums	-11655
wett	-11656
ümer	-11657
▁30-	-11658
▁frö	-11659
▁pir	-11660
▁que	-11661
azine	-11662
bauer	-11663
genda	-11664
halle	-11665
kanal	-11666
lampe	-11667
ziell	-11668
▁1999	-11669
▁2002	-11670
▁2020	-11671
▁bern	-11672
▁brow	-11673
▁demü	-11674
▁eric	-11675
▁gall	-11676
▁guer	-11677
▁opti	-11678
▁pfad	-11679
▁rauf	-11680
▁rohr	-11681
▁sang	-11682
▁schö	-11683
▁sehn	-11684
▁seti	-11685
▁umar	-11686
acheln	-11687
bieten	-11688
farben	-11689
fehler	-11690
geheim	-11691
ielles	-11692
strafe	-11693
stätte	-11694
▁anten	-11695
▁dampf	-11696
▁engel	-11697
▁heira	-11698
▁kanad	-11699
▁notiz	-11700
▁seide	-11701
▁stopp	-11702
▁tauch	-11703
alteten	-11704
archite	-11705
digkeit	-11706
einheit	-11707
ination	-11708
kranken	-11709
platten	-11710
prinzip	-11711
rechner	-11712
schafts	-11713
spunkte	-11714
weichen	-11715
wiegend	-11716
wohnern	-11717
▁agenda	-11718
▁beruht	-11719
▁bewerk	-11720
▁bildes	-11721
▁drückt	-11722
▁erdgas	-11723
▁geschn	-11724
▁geträn	-11725
▁hawaii	-11726
▁leitet	-11727
▁lichts	-11728
▁liefen	-11729
▁linsen	-11730
▁master	-11731
▁reifen	-11732
▁stapel	-11733
▁strafe	-11734
▁tasman	-11735
▁teilte	-11736
▁tänzer	-11737
▁wohler	-11738
▁wärmer	-11739
▁zielen	-11740
strahlen	-11741
teilchen	-11742
▁ankunft	-11743
▁begehen	-11744
▁cartoon	-11745
▁connect	-11746
▁denkens	-11747
▁ehrgeiz	-11748
▁eingang	-11749
▁feynman	-11750
▁fordern	-11751
▁hypothe	-11752
▁klicken	-11753
▁konzert	-11754
▁mustern	-11755
▁niederl	-11756
▁pestizi	-11757
▁präsent	-11758
▁scheibe	-11759
▁schnapp	-11760
▁spender	-11761
▁station	-11762
▁streich	-11763
▁wildnis	-11764
▁william	-11765
▁wuchsen	-11766
▁zuhörer	-11767
▁zutaten	-11768
allererst	-11769
einkommen	-11770
ständigen	-11771
versuchen	-11772
wertungen	-11773
zeichnete	-11774
▁abnehmen	-11775
▁aussagen	-11776
▁begraben	-11777
▁beliebte	-11778
▁bereitet	-11779
▁errungen	-11780
▁gefroren	-11781
▁gewässer	-11782
▁glaubens	-11783
▁jüngeren	-11784
▁könntest	-11785
▁mcdonald	-11786
▁normaler	-11787
▁strecken	-11788
ergebnisse	-11789
lichkeiten	-11790
ografische	-11791
änderungen	-11792
▁abstrakte	-11793
▁einzelner	-11794
▁erfüllung	-11795
▁frühstück	-11796
▁südamerik	-11797
▁trainings	-11798
▁verhaftet	-11799
doberfläche	-11800
▁ausbreiten	-11801
▁charaktere	-11802
▁ernährungs	-11803
▁hierarchie	-11804
▁kilometern	-11805
▁kognitiven	-11806
▁kostenlose	-11807
▁lebensstil	-11808
▁regulieren	-11809
▁unangenehm	-11810
andererseits	-11811
letztendlich	-11812
▁absichtlich	-11813
▁erwachsener	-11814
▁kooperieren	-11815
▁kostengünst	-11816
▁vermächtnis	-11817
▁übersetzung	-11818
▁überwachung	-11819
informationen	-11820
▁gelegentlich	-11821
▁herausfanden	-11822
▁konstruieren	-11823
▁nervensystem	-11824
▁spezifischen	-11825
▁verschmelzen	-11826
▁beschäftigung	-11827
▁dokumentieren	-11828
▁erstaunliches	-11829
▁hervorbringen	-11830
▁wissenschafts	-11831
▁berücksichtigen	-11832
▁offensichtliche	-11833
60	-11834
70	-11835
lö	-11836
sä	-11837
▁(	-11838
ads	-11839
aks	-11840
day	-11841
log	-11842
mte	-11843
ows	-11844
tom	-11845
urt	-11846
ößt	-11847
▁bö	-11848
▁lü	-11849
aker	-11850
alls	-11851
ause	-11852
empl	-11853
gott	-11854
mten	-11855
neur	-11856
ummy	-11857
umpf	-11858
uzen	-11859
west	-11860
wies	-11861
ällt	-11862
▁192	-11863
▁aer	-11864
▁amy	-11865
▁gou	-11866
▁ibm	-11867
▁nad	-11868
▁ron	-11869
▁sav	-11870
abeth	-11871
agten	-11872
asser	-11873
attle	-11874
cking	-11875
denke	-11876
ering	-11877
feuer	-11878
fläch	-11879
herum	-11880
kennt	-11881
matik	-11882
mikro	-11883
reben	-11884
sechs	-11885
thalb	-11886
twick	-11887
üpfen	-11888
ützer	-11889
▁beat	-11890
▁darm	-11891
▁diät	-11892
▁fakt	-11893
▁irrt	-11894
▁jeff	-11895
▁jetz	-11896
▁kino	-11897
▁mega	-11898
▁para	-11899
▁puls	-11900
▁punk	-11901
▁renn	-11902
▁währ	-11903
ansatz	-11904
attung	-11905
behand	-11906
gehirn	-11907
iction	-11908
mäßige	-11909
papier	-11910
schuhe	-11911
sehbar	-11912
skrise	-11913
sparen	-11914
spitze	-11915
tliche	-11916
ularen	-11917
ydummy	-11918
zurück	-11919
ächern	-11920
ächtig	-11921
▁absur	-11922
▁alarm	-11923
▁berat	-11924
▁bonob	-11925
▁büros	-11926
▁dekor	-11927
▁dünne	-11928
▁elite	-11929
▁favor	-11930
▁fleck	-11931
▁gemäß	-11932
▁glied	-11933
▁harry	-11934
▁henry	-11935
▁kälte	-11936
▁meile	-11937
▁merkt	-11938
▁pilze	-11939
▁raums	-11940
▁reine	-11941
▁rekru	-11942
▁segel	-11943
▁synap	-11944
▁trieb	-11945
▁weich	-11946
eistern	-11947
mmunity	-11948
ordnete	-11949
pflanzt	-11950
syndrom	-11951
ähnlich	-11952
▁action	-11953
▁aktive	-11954
▁angere	-11955
▁autoun	-11956
▁bewaff	-11957
▁einher	-11958
▁götter	-11959
▁harten	-11960
▁helium	-11961
▁junges	-11962
▁kokain	-11963
▁krähen	-11964
▁monter	-11965
▁nähern	-11966
▁orange	-11967
▁perspe	-11968
▁regime	-11969
▁schrit	-11970
▁silber	-11971
▁ungere	-11972
▁vakuum	-11973
▁ähnelt	-11974
bewohner	-11975
derweise	-11976
stritten	-11977
▁beschul	-11978
▁bindung	-11979
▁durften	-11980
▁einheim	-11981
▁entwarf	-11982
▁redwood	-11983
▁saubere	-11984
▁schloss	-11985
▁währung	-11986
▁zurzeit	-11987
besonders	-11988
▁antreibt	-11989
▁argentin	-11990
▁ausgesch	-11991
▁irration	-11992
▁langzeit	-11993
▁markiert	-11994
▁meinungs	-11995
▁schieben	-11996
▁standort	-11997
▁ursachen	-11998
▁vergeben	-11999
▁verlegen	-12000
▁verlässt	-12001
▁virginia	-12002
▁ökologie	-12003
▁übersetz	-12004
▁beruhigen	-12005
▁dynamisch	-12006
▁einzelnes	-12007
▁identisch	-12008
▁lektionen	-12009
▁reduktion	-12010
▁schnellen	-12011
▁tendieren	-12012
▁unvermeid	-12013
▁versionen	-12014
gehörigkeit	-12015
nachrichten	-12016
▁anderthalb	-12017
▁anpassungs	-12018
▁aufklärung	-12019
▁auszusehen	-12020
▁bearbeiten	-12021
▁demokraten	-12022
▁engagieren	-12023
▁erschienen	-12024
▁komponente	-12025
▁millimeter	-12026
▁praktische	-12027
▁simulieren	-12028
▁skulpturen	-12029
▁vergleicht	-12030
▁versteckte	-12031
▁verstärken	-12032
▁verwendete	-12033
▁zeitgenöss	-12034
katastrophen	-12035
unterschiede	-12036
▁behandlungs	-12037
▁bürgerkrieg	-12038
▁erscheinung	-12039
▁fledermäuse	-12040
▁gleichungen	-12041
▁japanischen	-12042
▁klassischen	-12043
▁kühlschrank	-12044
▁langfristig	-12045
▁verarbeitet	-12046
▁ökonomische	-12047
▁mobiltelefon	-12048
▁verständlich	-12049
▁verteidigung	-12050
▁beobachtungen	-12051
▁einstellungen	-12052
▁fluoreszieren	-12053
▁physikalische	-12054
▁zusammenbruch	-12055
▁folgendermaßen	-12056
▁krankenhäusern	-12057
▁zivilisationen	-12058
▁geschäftsführer	-12059
▁intellektuellen	-12060
ly	-12061
vö	-12062
bra	-12063
bum	-12064
pop	-12065
syl	-12066
wis	-12067
▁1⁄	-12068
▁3,	-12069
▁31	-12070
bast	-12071
brun	-12072
kope	-12073
lenn	-12074
rand	-12075
shir	-12076
sign	-12077
trau	-12078
tung	-12079
umin	-12080
verw	-12081
wirt	-12082
▁1,2	-12083
▁bol	-12084
▁hmm	-12085
▁inj	-12086
▁moz	-12087
▁oma	-12088
▁one	-12089
▁pas	-12090
▁pip	-12091
▁pix	-12092
eiler	-12093
geräu	-12094
ihnen	-12095
klass	-12096
loses	-12097
länge	-12098
ocken	-12099
orten	-12100
ottet	-12101
packt	-12102
verne	-12103
waren	-12104
▁1900	-12105
▁2030	-12106
▁3000	-12107
▁asia	-12108
▁back	-12109
▁barm	-12110
▁doug	-12111
▁foot	-12112
▁fung	-12113
▁gekl	-12114
▁mand	-12115
▁modi	-12116
▁moun	-12117
▁path	-12118
▁rose	-12119
▁time	-12120
▁tony	-12121
▁ware	-12122
▁yeah	-12123
blasen	-12124
ebenso	-12125
erfolg	-12126
gelenk	-12127
gingen	-12128
häuser	-12129
invest	-12130
triebs	-12131
vertre	-12132
zettel	-12133
▁anzug	-12134
▁billi	-12135
▁braun	-12136
▁busch	-12137
▁ethan	-12138
▁grupp	-12139
▁herrn	-12140
▁hütte	-12141
▁imper	-12142
▁kamel	-12143
▁linse	-12144
▁lunge	-12145
▁membr	-12146
▁mutig	-12147
▁rasse	-12148
▁rover	-12149
▁schuf	-12150
▁starr	-12151
▁suppe	-12152
▁verär	-12153
▁wilde	-12154
▁wortw	-12155
glicher	-12156
mäßigen	-12157
planung	-12158
profess	-12159
reicher	-12160
spitzen	-12161
stecken	-12162
verbrau	-12163
▁40.000	-12164
▁becher	-12165
▁belohn	-12166
▁endete	-12167
▁exempl	-12168
▁farmer	-12169
▁flucht	-12170
▁genehm	-12171
▁greift	-12172
▁kriter	-12173
▁kämpfe	-12174
▁mumbai	-12175
▁reflex	-12176
▁steven	-12177
▁säulen	-12178
▁taucht	-12179
▁waisen	-12180
▁wonach	-12181
▁woraus	-12182
▁zwecke	-12183
gerissen	-12184
temberau	-12185
▁anlagen	-12186
▁delfine	-12187
▁dienste	-12188
▁dollars	-12189
▁dunkler	-12190
▁fördert	-12191
▁gründer	-12192
▁hiermit	-12193
▁integra	-12194
▁jüngste	-12195
▁koralle	-12196
▁kreatur	-12197
▁müttern	-12198
▁pflegen	-12199
▁schickt	-12200
▁schlage	-12201
▁service	-12202
▁starkes	-12203
▁steckte	-12204
▁unrecht	-12205
▁übungen	-12206
absichtig	-12207
kilometer	-12208
▁american	-12209
▁biomasse	-12210
▁cartoons	-12211
▁genossen	-12212
▁hühnchen	-12213
▁referenz	-12214
▁reformen	-12215
▁schöpfer	-12216
▁singapur	-12217
▁tansania	-12218
▁tägliche	-12219
▁weiterzu	-12220
▁überlegt	-12221
▁angeblich	-12222
▁arabische	-12223
▁atemberau	-12224
▁aussuchen	-12225
▁bekannter	-12226
▁demselben	-12227
▁einnahmen	-12228
▁entlassen	-12229
▁fußgänger	-12230
▁glamourös	-12231
▁klatschen	-12232
▁kunstwerk	-12233
▁parasiten	-12234
▁recycling	-12235
▁schmelzen	-12236
▁schwachen	-12237
▁tatsachen	-12238
▁universen	-12239
▁verstärkt	-12240
perspektive	-12241
▁angebracht	-12242
▁angewiesen	-12243
▁beinhalten	-12244
▁beliebigen	-12245
▁elternteil	-12246
▁herzlichen	-12247
▁konflikten	-12248
▁mitgefühls	-12249
▁unendliche	-12250
▁veranschau	-12251
▁verletzung	-12252
▁wahnsinnig	-12253
▁zigaretten	-12254
▁angiogenese	-12255
▁austauschen	-12256
▁beigetragen	-12257
▁brennstoffe	-12258
▁dankbarkeit	-12259
▁gesichtsaus	-12260
▁mittelalter	-12261
▁natürliches	-12262
▁philanthrop	-12263
▁richtlinien	-12264
▁solarzellen	-12265
▁übertragung	-12266
▁alltäglichen	-12267
▁bestandteile	-12268
▁französische	-12269
▁reflektieren	-12270
▁vergleichbar	-12271
▁ökonomischen	-12272
▁angeschlossen	-12273
▁anstrengungen	-12274
▁argumentieren	-12275
▁ausgesprochen	-12276
▁chemotherapie	-12277
▁französischen	-12278
▁jahrhunderten	-12279
▁verteidigungs	-12280
sorganisationen	-12281
▁amerikanischer	-12282
▁vorgehensweise	-12283
▁weltwirtschaft	-12284
▁halluzinationen	-12285
▁voraussetzungen	-12286
.-	-12287
47	-12288
dp	-12289
▁=	-12290
198	-12291
cla	-12292
kom	-12293
kör	-12294
lem	-12295
äub	-12296
▁38	-12297
cola	-12298
effe	-12299
eier	-12300
frar	-12301
frem	-12302
funk	-12303
goog	-12304
penh	-12305
rück	-12306
samt	-12307
sens	-12308
sius	-12309
teln	-12310
unts	-12311
▁130	-12312
▁apr	-12313
▁cal	-12314
▁dvd	-12315
▁eti	-12316
▁exo	-12317
▁gir	-12318
▁han	-12319
▁häu	-12320
▁hür	-12321
▁lot	-12322
andet	-12323
anern	-12324
bombe	-12325
freie	-12326
neben	-12327
olera	-12328
opard	-12329
räder	-12330
samer	-12331
ssinn	-12332
tests	-12333
▁1998	-12334
▁café	-12335
▁chor	-12336
▁galt	-12337
▁gebr	-12338
▁jagd	-12339
▁kram	-12340
▁legi	-12341
▁mari	-12342
▁mult	-12343
▁pack	-12344
▁palm	-12345
▁pant	-12346
▁seni	-12347
▁sieg	-12348
▁taxi	-12349
▁zorn	-12350
▁zwie	-12351
bahnen	-12352
beding	-12353
lebens	-12354
spielt	-12355
zusätz	-12356
ässern	-12357
ührten	-12358
▁agrar	-12359
▁aufsp	-12360
▁comic	-12361
▁gewün	-12362
▁hohem	-12363
▁indus	-12364
▁kathe	-12365
▁orden	-12366
▁somal	-12367
▁sorte	-12368
▁subje	-12369
▁söhne	-12370
▁union	-12371
▁verzö	-12372
▁veter	-12373
▁wegzu	-12374
▁worin	-12375
▁zerti	-12376
artiges	-12377
brecher	-12378
flossen	-12379
modelle	-12380
sequenz	-12381
verlust	-12382
▁anonym	-12383
▁aufgef	-12384
▁campus	-12385
▁derart	-12386
▁flüsse	-12387
▁gewehr	-12388
▁ideale	-12389
▁killer	-12390
▁stigma	-12391
▁syrien	-12392
▁tinten	-12393
▁trauer	-12394
▁ungehe	-12395
▁verwei	-12396
▁vögeln	-12397
abilität	-12398
beziehen	-12399
biologie	-12400
dasselbe	-12401
handlung	-12402
mechanik	-12403
penhagen	-12404
regionen	-12405
schätzen	-12406
spolitik	-12407
sproblem	-12408
▁aktuell	-12409
▁applaus	-12410
▁ausgeht	-12411
▁ausüben	-12412
▁belohnt	-12413
▁bürgern	-12414
▁celsius	-12415
▁dilemma	-12416
▁erholen	-12417
▁erkläre	-12418
▁geräten	-12419
▁kauften	-12420
▁koennen	-12421
▁pinguin	-12422
▁project	-12423
▁schwein	-12424
▁sichere	-12425
▁truppen	-12426
▁verwund	-12427
▁übrigen	-12428
strahlung	-12429
▁befolgen	-12430
▁bereiten	-12431
▁extremen	-12432
▁fließend	-12433
▁gefühlen	-12434
▁geradezu	-12435
▁gewissem	-12436
▁kontrast	-12437
▁kristall	-12438
▁leonardo	-12439
▁rückkehr	-12440
▁schwelle	-12441
▁tastatur	-12442
▁zustande	-12443
▁argumente	-12444
▁drastisch	-12445
▁errichtet	-12446
▁geleistet	-12447
▁geschenkt	-12448
▁gründeten	-12449
▁interface	-12450
▁kurzfrist	-12451
▁mobilität	-12452
▁schöpfung	-12453
▁teilnahme	-12454
▁wertvolle	-12455
dimensionen	-12456
▁aufwachsen	-12457
▁aufzugeben	-12458
▁baumkronen	-12459
▁bemühungen	-12460
▁dummydummy	-12461
▁frustriert	-12462
▁gebrauchen	-12463
▁geschossen	-12464
▁hoffnungen	-12465
▁konsequenz	-12466
▁nachkommen	-12467
▁transplant	-12468
▁ultimative	-12469
▁verbleiben	-12470
▁verkauften	-12471
▁verringert	-12472
▁versichern	-12473
▁verwaltung	-12474
▁wochenende	-12475
verbindungen	-12476
▁angestellte	-12477
▁erklärungen	-12478
▁erweiterung	-12479
▁produktions	-12480
▁präsentiert	-12481
▁vernachläss	-12482
▁behandlungen	-12483
▁betrachteten	-12484
▁elektromagne	-12485
▁hinterfragen	-12486
▁konkurrieren	-12487
▁respektieren	-12488
▁verarbeitung	-12489
▁überwältigen	-12490
▁eingeschränkt	-12491
▁veranstaltung	-12492
▁elektronischen	-12493
▁zusammenkommen	-12494
▁angelegenheiten	-12495
▁zusammengefasst	-12496
hä	-12497
ua	-12498
ect	-12499
iva	-12500
ktu	-12501
ois	-12502
rey	-12503
via	-12504
ädt	-12505
▁43	-12506
▁46	-12507
▁av	-12508
▁ek	-12509
ades	-12510
besp	-12511
chip	-12512
iser	-12513
korn	-12514
uckt	-12515
ädag	-12516
ärer	-12517
▁190	-12518
▁abw	-12519
▁act	-12520
▁amt	-12521
▁are	-12522
▁cat	-12523
▁dod	-12524
▁ero	-12525
▁fär	-12526
▁jet	-12527
▁nam	-12528
▁sun	-12529
▁tyr	-12530
china	-12531
davon	-12532
dring	-12533
elekt	-12534
euten	-12535
gerte	-12536
ieber	-12537
kugel	-12538
lanta	-12539
lickt	-12540
liger	-12541
milzt	-12542
misch	-12543
mungs	-12544
ordan	-12545
sburg	-12546
stufe	-12547
wirft	-12548
▁aßen	-12549
▁bosn	-12550
▁diff	-12551
▁grab	-12552
▁graf	-12553
▁grob	-12554
▁gäng	-12555
▁hans	-12556
▁lege	-12557
▁mall	-12558
▁mike	-12559
▁ofen	-12560
▁pitt	-12561
▁proj	-12562
▁spag	-12563
▁supr	-12564
allein	-12565
besten	-12566
burger	-12567
daraus	-12568
listen	-12569
macher	-12570
marsch	-12571
medien	-12572
stchen	-12573
tasche	-12574
thesen	-12575
usalem	-12576
videos	-12577
▁apart	-12578
▁april	-12579
▁audio	-12580
▁besaß	-12581
▁dicke	-12582
▁dumme	-12583
▁feder	-12584
▁holte	-12585
▁spinn	-12586
▁spitz	-12587
▁strei	-12588
▁symph	-12589
▁unzäh	-12590
▁wolle	-12591
gesetze	-12592
ikopter	-12593
smuster	-12594
▁aktien	-12595
▁beacht	-12596
▁bombar	-12597
▁bühnen	-12598
▁deines	-12599
▁delfin	-12600
▁essenz	-12601
▁folien	-12602
▁freier	-12603
▁geduld	-12604
▁gefiel	-12605
▁grösse	-12606
▁implan	-12607
▁kathol	-12608
▁keller	-12609
▁kontak	-12610
▁lippen	-12611
▁marath	-12612
▁montag	-12613
▁nigeri	-12614
▁pumpen	-12615
▁riefen	-12616
▁runden	-12617
▁strich	-12618
▁zusamm	-12619
▁ähneln	-12620
bedenken	-12621
flaschen	-12622
intervie	-12623
istenten	-12624
jähriges	-12625
stafrika	-12626
▁atlanta	-12627
▁clinton	-12628
▁everest	-12629
▁fesseln	-12630
▁idealen	-12631
▁kondome	-12632
▁krieger	-12633
▁kämpfer	-12634
▁melodie	-12635
▁monster	-12636
▁scheiße	-12637
▁spazier	-12638
▁springt	-12639
▁starker	-12640
▁steinen	-12641
▁strasse	-12642
▁visuell	-12643
arbeitern	-12644
fizierung	-12645
gebrochen	-12646
stellungs	-12647
strategie	-12648
▁anzeigen	-12649
▁deutsche	-12650
▁einkaufs	-12651
▁freundes	-12652
▁gelandet	-12653
▁geringen	-12654
▁gespannt	-12655
▁relation	-12656
▁rückgang	-12657
▁schlicht	-12658
▁signifik	-12659
▁tiefgrün	-12660
▁trennung	-12661
▁vollzeit	-12662
▁ästhetik	-12663
diejenigen	-12664
zusätzlich	-12665
▁abschnitt	-12666
▁annähernd	-12667
▁antreiben	-12668
▁aufregung	-12669
▁batterien	-12670
▁bemerkten	-12671
▁durchfall	-12672
▁erheblich	-12673
▁rohstoffe	-12674
▁schönsten	-12675
▁supernova	-12676
▁therapien	-12677
▁umbringen	-12678
▁umsetzung	-12679
▁unbewusst	-12680
▁verbrauch	-12681
▁verwunder	-12682
▁womöglich	-12683
▁anzupassen	-12684
▁bevorzugen	-12685
▁effiziente	-12686
▁enttäuscht	-12687
▁informiert	-12688
▁kopenhagen	-12689
▁künstlerin	-12690
▁meerwasser	-12691
▁ordentlich	-12692
▁platzieren	-12693
▁verhandeln	-12694
▁videospiel	-12695
▁weitgehend	-12696
gleichzeitig	-12697
▁befriedigen	-12698
▁betrachtung	-12699
▁erneuerbare	-12700
▁genauigkeit	-12701
▁meeresboden	-12702
▁prozentsatz	-12703
▁realisieren	-12704
▁relativität	-12705
▁schnellsten	-12706
▁sehvermögen	-12707
▁versteckten	-12708
▁gefährlichen	-12709
▁kindergarten	-12710
▁temperaturen	-12711
▁unterbrochen	-12712
▁urheberrecht	-12713
▁zusätzlichen	-12714
▁ökologischen	-12715
▁herausfordern	-12716
▁intelligenter	-12717
▁mobiltelefone	-12718
▁organisierten	-12719
▁weitergegeben	-12720
▁zeitschriften	-12721
▁üblicherweise	-12722
▁entscheidenden	-12723
99	-12724
av	-12725
cs	-12726
lg	-12727
äk	-12728
bal	-12729
bik	-12730
dur	-12731
job	-12732
not	-12733
oto	-12734
ves	-12735
▁34	-12736
▁oe	-12737
▁rü	-12738
beam	-12739
cent	-12740
chem	-12741
enix	-12742
etro	-12743
ffel	-12744
höhe	-12745
infe	-12746
iver	-12747
kins	-12748
lief	-12749
ppel	-12750
öpft	-12751
▁12.	-12752
▁1⁄2	-12753
▁ara	-12754
▁bag	-12755
▁gor	-12756
▁len	-12757
▁pie	-12758
▁pik	-12759
▁seg	-12760
▁sug	-12761
▁tok	-12762
apfen	-12763
arren	-12764
bären	-12765
bäume	-12766
ckern	-12767
eiert	-12768
filme	-12769
geist	-12770
idmet	-12771
insel	-12772
journ	-12773
pläne	-12774
still	-12775
suche	-12776
vögel	-12777
▁5000	-12778
▁afro	-12779
▁asth	-12780
▁beer	-12781
▁blue	-12782
▁clip	-12783
▁diam	-12784
▁enge	-12785
▁ertr	-12786
▁foie	-12787
▁holl	-12788
▁häus	-12789
▁reiz	-12790
▁ruin	-12791
▁sant	-12792
▁sexy	-12793
▁züge	-12794
▁übel	-12795
banken	-12796
bertät	-12797
finanz	-12798
größte	-12799
inchen	-12800
ittern	-12801
kommst	-12802
kriege	-12803
liefer	-12804
packen	-12805
prozen	-12806
regend	-12807
sident	-12808
sprung	-12809
spuren	-12810
stream	-12811
önland	-12812
▁4.000	-12813
▁anbau	-12814
▁ausro	-12815
▁blüte	-12816
▁damal	-12817
▁erder	-12818
▁faust	-12819
▁hasse	-12820
▁himal	-12821
▁hülle	-12822
▁kluge	-12823
▁maler	-12824
▁minim	-12825
▁mount	-12826
▁nackt	-12827
▁netze	-12828
▁route	-12829
▁sagst	-12830
▁sauer	-12831
▁schuh	-12832
▁stört	-12833
▁tatto	-12834
▁trenn	-12835
▁tunes	-12836
altungs	-12837
brieren	-12838
dienste	-12839
orgungs	-12840
osition	-12841
rauchen	-12842
steuern	-12843
streben	-12844
trische	-12845
verletz	-12846
wandeln	-12847
zurufen	-12848
▁allmäh	-12849
▁anrufe	-12850
▁besorg	-12851
▁briten	-12852
▁brutto	-12853
▁bäcker	-12854
▁drohne	-12855
▁gramma	-12856
▁infrar	-12857
▁irland	-12858
▁klappt	-12859
▁klassi	-12860
▁krisen	-12861
▁lagern	-12862
▁mosche	-12863
▁mozart	-12864
▁paaren	-12865
▁passiv	-12866
▁psycho	-12867
▁raster	-12868
▁saison	-12869
▁soldat	-12870
▁südpol	-12871
▁urteil	-12872
▁wachte	-12873
algorith	-12874
altungen	-12875
formance	-12876
ssysteme	-12877
stattung	-12878
tauschen	-12879
▁abgeben	-12880
▁abraham	-12881
▁beraten	-12882
▁berkele	-12883
▁bestech	-12884
▁elefant	-12885
▁folgten	-12886
▁gebilde	-12887
▁gefilmt	-12888
▁geister	-12889
▁geliebt	-12890
▁gemerkt	-12891
▁kartoff	-12892
▁kopiert	-12893
▁libanon	-12894
▁maschin	-12895
▁merkmal	-12896
▁museums	-12897
▁nachher	-12898
▁ozeanen	-12899
▁pflicht	-12900
▁phoenix	-12901
▁seattle	-12902
▁stimmte	-12903
▁südlich	-12904
▁wählten	-12905
tausenden	-12906
▁abhängen	-12907
▁angenehm	-12908
▁arabisch	-12909
▁berichte	-12910
▁besucher	-12911
▁eingriff	-12912
▁hässlich	-12913
▁pandemie	-12914
▁probiert	-12915
▁pubertät	-12916
▁rechnung	-12917
▁szenario	-12918
▁verklein	-12919
▁verknüpf	-12920
▁zeichnet	-12921
▁überholt	-12922
irgendwann	-12923
▁abspielen	-12924
▁aufgehört	-12925
▁bestanden	-12926
▁betrunken	-12927
▁dauerhaft	-12928
▁erwartete	-12929
▁haushalts	-12930
▁platziert	-12931
▁stattfand	-12932
▁verbergen	-12933
▁verpassen	-12934
▁vornehmen	-12935
▁übernimmt	-12936
interessant	-12937
▁aufgegeben	-12938
▁beunruhigt	-12939
▁erreichten	-12940
▁fotografen	-12941
▁ineinander	-12942
▁körperlich	-12943
▁schockiert	-12944
▁tageslicht	-12945
▁verfassung	-12946
▁aufgefallen	-12947
▁bundesstaat	-12948
▁filmemacher	-12949
▁grundschule	-12950
▁infektionen	-12951
▁informieren	-12952
▁ingenieuren	-12953
▁philosophen	-12954
▁studierende	-12955
▁unternommen	-12956
▁vorbereiten	-12957
▁weitergeben	-12958
▁angesprochen	-12959
▁geschlechter	-12960
▁griechenland	-12961
▁konversation	-12962
▁kriminalität	-12963
▁körperlichen	-12964
▁militärische	-12965
▁nachhaltigen	-12966
▁teilzunehmen	-12967
▁unterdrücken	-12968
▁wiederaufbau	-12969
▁behinderungen	-12970
▁existierenden	-12971
▁partnerschaft	-12972
▁schwierigsten	-12973
▁stattgefunden	-12974
▁verhandlungen	-12975
▁vorgeschlagen	-12976
▁funktionsweise	-12977
▁nebenwirkungen	-12978
▁psychologische	-12979
▁visualisierung	-12980
▁zusammensetzen	-12981
-2	-12982
aya	-12983
emp	-12984
esa	-12985
ico	-12986
ios	-12987
vom	-12988
▁aß	-12989
▁jh	-12990
▁ni	-12991
▁oz	-12992
▁uh	-12993
bart	-12994
blau	-12995
ckta	-12996
dian	-12997
dite	-12998
freu	-12999
hang	-13000
igan	-13001
lere	-13002
mess	-13003
ters	-13004
uver	-13005
wale	-13006
▁höf	-13007
▁koh	-13008
▁lex	-13009
▁psy	-13010
▁tha	-13011
▁wag	-13012
▁zet	-13013
aring	-13014
arium	-13015
bühne	-13016
diges	-13017
hetti	-13018
okoll	-13019
quote	-13020
schön	-13021
▁1984	-13022
▁bade	-13023
▁cham	-13024
▁koso	-13025
▁logo	-13026
▁mitt	-13027
▁sieb	-13028
▁sier	-13029
▁sour	-13030
emonie	-13031
gesagt	-13032
gründe	-13033
gängig	-13034
helfen	-13035
igsten	-13036
jahren	-13037
massen	-13038
museum	-13039
mütter	-13040
trägen	-13041
zessen	-13042
üllten	-13043
▁abkür	-13044
▁anfor	-13045
▁anony	-13046
▁apoll	-13047
▁brett	-13048
▁bälle	-13049
▁erläu	-13050
▁frakt	-13051
▁hebel	-13052
▁inten	-13053
▁louis	-13054
▁patri	-13055
▁regal	-13056
▁stren	-13057
▁these	-13058
▁trock	-13059
▁vorbe	-13060
▁öster	-13061
komplex	-13062
ohnheit	-13063
straßen	-13064
studium	-13065
stätten	-13066
uminium	-13067
utation	-13068
▁abholz	-13069
▁gesten	-13070
▁joseph	-13071
▁kasten	-13072
▁kommst	-13073
▁künste	-13074
▁massiv	-13075
▁misser	-13076
▁mäusen	-13077
▁normen	-13078
▁panzer	-13079
▁schatz	-13080
▁stören	-13081
▁unterm	-13082
▁unvoll	-13083
▁wahres	-13084
▁wunden	-13085
▁ängste	-13086
mitglied	-13087
ordneten	-13088
sprojekt	-13089
▁anbauen	-13090
▁anlegen	-13091
▁aufhört	-13092
▁aufwand	-13093
▁befreit	-13094
▁cholera	-13095
▁dschung	-13096
▁filtern	-13097
▁füttern	-13098
▁neigung	-13099
▁prüfung	-13100
▁richtet	-13101
▁schlamm	-13102
▁schwimm	-13103
▁stützen	-13104
▁talente	-13105
▁tödlich	-13106
▁verdamm	-13107
▁vereinf	-13108
stationen	-13109
ähnlichen	-13110
▁anfällig	-13111
▁angriffe	-13112
▁aussicht	-13113
▁bedecken	-13114
▁berkeley	-13115
▁besiegen	-13116
▁einbauen	-13117
▁einsicht	-13118
▁eintritt	-13119
▁jedesmal	-13120
▁kreation	-13121
▁magazine	-13122
▁nachvoll	-13123
▁partikel	-13124
▁religiös	-13125
▁reporter	-13126
▁schleimp	-13127
▁schlimme	-13128
▁schrittw	-13129
▁schwimmt	-13130
▁sprecher	-13131
▁ökonomie	-13132
▁üblichen	-13133
haftigkeit	-13134
strukturen	-13135
▁absoluten	-13136
▁bedingung	-13137
▁behauptet	-13138
▁bewundern	-13139
▁dokumente	-13140
▁gesteuert	-13141
▁herkommen	-13142
▁hindernis	-13143
▁loswerden	-13144
▁messungen	-13145
▁paradigma	-13146
▁parkplatz	-13147
▁spaghetti	-13148
▁südlichen	-13149
▁thunfisch	-13150
▁unbegrenz	-13151
▁varianten	-13152
▁verlaufen	-13153
▁verließen	-13154
sgeschichte	-13155
▁beschädigt	-13156
▁entschloss	-13157
▁gefangenen	-13158
▁hauptstadt	-13159
▁herausfand	-13160
▁politikern	-13161
▁proportion	-13162
▁staatliche	-13163
▁subvention	-13164
▁verknüpfen	-13165
▁verrichten	-13166
▁vorherigen	-13167
▁anschließen	-13168
▁bahnbrechen	-13169
▁bedrohungen	-13170
▁dreieinhalb	-13171
▁einbeziehen	-13172
▁geschwister	-13173
▁hervorrufen	-13174
▁herzinfarkt	-13175
▁hinzugefügt	-13176
▁psychischen	-13177
▁stundenlang	-13178
▁theoretisch	-13179
▁untersuchte	-13180
▁verteidigen	-13181
▁anschließend	-13182
▁erderwärmung	-13183
▁gewohnheiten	-13184
▁gleichberech	-13185
▁herauskommen	-13186
▁installation	-13187
▁lautsprecher	-13188
▁verschwanden	-13189
▁korallenriffe	-13190
▁ungewöhnliche	-13191
▁zurückzukehren	-13192
▁bewerkstelligen	-13193
▁quantenmechanik	-13194
ng	-13195
esh	-13196
hyd	-13197
lar	-13198
nik	-13199
rim	-13200
rip	-13201
tas	-13202
▁4.	-13203
▁nr	-13204
eife	-13205
eiht	-13206
elig	-13207
ikon	-13208
mach	-13209
ocht	-13210
opol	-13211
orig	-13212
prei	-13213
reut	-13214
wahl	-13215
ädie	-13216
ölfe	-13217
▁10.	-13218
▁140	-13219
▁193	-13220
▁bee	-13221
▁fan	-13222
▁gur	-13223
▁hot	-13224
▁inf	-13225
▁jup	-13226
▁küh	-13227
▁mrd	-13228
▁müh	-13229
▁stö	-13230
▁vok	-13231
▁wuß	-13232
agern	-13233
atmen	-13234
augen	-13235
bungs	-13236
furch	-13237
ittes	-13238
neter	-13239
qaida	-13240
rimin	-13241
schle	-13242
vatar	-13243
viren	-13244
▁alas	-13245
▁baue	-13246
▁boom	-13247
▁brad	-13248
▁coll	-13249
▁erbl	-13250
▁haft	-13251
▁hefe	-13252
▁kran	-13253
▁kump	-13254
▁lade	-13255
▁laun	-13256
▁obst	-13257
▁puzz	-13258
▁rout	-13259
▁shir	-13260
▁zero	-13261
amente	-13262
bedarf	-13263
bliche	-13264
epidem	-13265
hieren	-13266
ildete	-13267
kleine	-13268
kuchen	-13269
laster	-13270
legten	-13271
lingen	-13272
locken	-13273
ochten	-13274
omaten	-13275
risiko	-13276
schwar	-13277
setzte	-13278
splant	-13279
sslich	-13280
ummeln	-13281
umpfen	-13282
▁ahnen	-13283
▁anbie	-13284
▁feier	-13285
▁fäden	-13286
▁führe	-13287
▁ginge	-13288
▁knall	-13289
▁paare	-13290
▁pille	-13291
▁ruder	-13292
▁spass	-13293
▁weist	-13294
▁white	-13295
bericht	-13296
bildern	-13297
familie	-13298
partner	-13299
positiv	-13300
rechnen	-13301
steiger	-13302
stücken	-13303
waschen	-13304
ündeten	-13305
▁ablauf	-13306
▁altmod	-13307
▁arthur	-13308
▁asthma	-13309
▁bezirk	-13310
▁daniel	-13311
▁donner	-13312
▁ganzer	-13313
▁hacken	-13314
▁kehrte	-13315
▁ladung	-13316
▁lampen	-13317
▁luther	-13318
▁maßstä	-13319
▁mücken	-13320
▁netten	-13321
▁nötige	-13322
▁perman	-13323
▁platte	-13324
▁rebell	-13325
▁schale	-13326
▁server	-13327
▁stoffe	-13328
▁tippen	-13329
▁wright	-13330
▁zeugen	-13331
▁üblich	-13332
gerungen	-13333
ineering	-13334
meistens	-13335
schieben	-13336
soldaten	-13337
spartner	-13338
▁abfolge	-13339
▁abläuft	-13340
▁bedient	-13341
▁berater	-13342
▁charlie	-13343
▁dauernd	-13344
▁eingebe	-13345
▁inhalts	-13346
▁jupiter	-13347
▁klische	-13348
▁liebten	-13349
▁redeten	-13350
▁schützt	-13351
▁stachel	-13352
▁verfügt	-13353
▁verscha	-13354
▁vorüber	-13355
▁älteste	-13356
▁äußeren	-13357
betrieben	-13358
istischer	-13359
reibungen	-13360
schichten	-13361
▁aufnimmt	-13362
▁beiseite	-13363
▁benennen	-13364
▁bewertet	-13365
▁designen	-13366
▁flexibel	-13367
▁gedauert	-13368
▁gewidmet	-13369
▁grönland	-13370
▁gänzlich	-13371
▁kritisch	-13372
▁momenten	-13373
▁optionen	-13374
▁superhel	-13375
▁telefone	-13376
▁traurige	-13377
▁verluste	-13378
▁verpasst	-13379
▁wirkungs	-13380
▁zustände	-13381
▁zutrifft	-13382
ausbildung	-13383
dankeschön	-13384
sicherlich	-13385
zusprechen	-13386
▁angreifen	-13387
▁ansteigen	-13388
▁attraktiv	-13389
▁ausbilden	-13390
▁außenwelt	-13391
▁endeffekt	-13392
▁entnehmen	-13393
▁förderung	-13394
▁generiert	-13395
▁glühbirne	-13396
▁jerusalem	-13397
▁nachahmen	-13398
▁nordkorea	-13399
▁phänomene	-13400
▁schultern	-13401
▁skeptisch	-13402
▁zuständig	-13403
materialien	-13404
▁allmählich	-13405
▁antikörper	-13406
▁anzubieten	-13407
▁benötigten	-13408
▁connectome	-13409
▁fortpflanz	-13410
▁freundlich	-13411
▁glühbirnen	-13412
▁helikopter	-13413
▁herzschlag	-13414
▁häufigsten	-13415
▁innovative	-13416
▁positionen	-13417
▁programmen	-13418
▁zahlreiche	-13419
▁österreich	-13420
▁aristoteles	-13421
▁flüchtlings	-13422
▁korrigieren	-13423
▁krebszellen	-13424
▁nervenzelle	-13425
▁reflektiert	-13426
▁unerwartete	-13427
▁weihnachten	-13428
▁zeitschrift	-13429
▁installieren	-13430
▁interessiere	-13431
▁musikalische	-13432
▁perspektiven	-13433
▁rechenschaft	-13434
▁schaltkreise	-13435
▁vollständige	-13436
▁entschuldigen	-13437
▁erdoberfläche	-13438
▁erfolgreichen	-13439
▁fantastisches	-13440
▁komplizierten	-13441
▁verschwendung	-13442
▁vertrauenswür	-13443
▁überschreiten	-13444
▁vielversprechen	-13445
▁zusammenbringen	-13446
cd	-13447
ls	-13448
▁́	-13449
arg	-13450
bro	-13451
hua	-13452
lor	-13453
üre	-13454
▁98	-13455
▁bm	-13456
▁ze	-13457
▁äh	-13458
agon	-13459
arin	-13460
arre	-13461
droh	-13462
fred	-13463
glas	-13464
ical	-13465
illt	-13466
irur	-13467
kund	-13468
muck	-13469
näck	-13470
phia	-13471
ärkt	-13472
▁450	-13473
▁900	-13474
▁bam	-13475
▁bre	-13476
▁cli	-13477
▁eim	-13478
▁kug	-13479
▁lak	-13480
▁mrt	-13481
▁nom	-13482
▁nsa	-13483
▁sad	-13484
▁vib	-13485
▁wit	-13486
▁zoo	-13487
angst	-13488
boote	-13489
eitig	-13490
ierst	-13491
igmen	-13492
kläss	-13493
level	-13494
maler	-13495
vogel	-13496
zepte	-13497
ziele	-13498
änner	-13499
▁bach	-13500
▁budd	-13501
▁dood	-13502
▁food	-13503
▁ikon	-13504
▁kürz	-13505
▁liby	-13506
▁mech	-13507
▁myst	-13508
▁nair	-13509
▁naiv	-13510
▁quar	-13511
▁rese	-13512
▁sied	-13513
▁turm	-13514
▁wuer	-13515
▁zone	-13516
chtert	-13517
deutet	-13518
furcht	-13519
langen	-13520
lenden	-13521
morgen	-13522
ologin	-13523
ressen	-13524
suchen	-13525
träger	-13526
ynamik	-13527
zählen	-13528
ängern	-13529
▁alber	-13530
▁alice	-13531
▁ausbe	-13532
▁befäh	-13533
▁elend	-13534
▁fahre	-13535
▁geste	-13536
▁haken	-13537
▁hüfte	-13538
▁impul	-13539
▁input	-13540
▁juwel	-13541
▁kling	-13542
▁kunde	-13543
▁kyros	-13544
▁lobby	-13545
▁myzel	-13546
▁namib	-13547
▁publi	-13548
▁quell	-13549
▁scher	-13550
▁scott	-13551
▁spart	-13552
▁stunt	-13553
▁ungem	-13554
▁verhe	-13555
▁witze	-13556
▁zahlt	-13557
▁ziehe	-13558
▁zweig	-13559
ameisen	-13560
findung	-13561
fähigen	-13562
ivalent	-13563
släufig	-13564
ächtigt	-13565
▁absatz	-13566
▁akteur	-13567
▁andrew	-13568
▁aufgew	-13569
▁banker	-13570
▁bemüht	-13571
▁diktat	-13572
▁disney	-13573
▁dünger	-13574
▁einzur	-13575
▁ernste	-13576
▁essent	-13577
▁fehlte	-13578
▁gemalt	-13579
▁hierzu	-13580
▁kleben	-13581
▁kollab	-13582
▁kriegt	-13583
▁macher	-13584
▁mikrob	-13585
▁nachth	-13586
▁netter	-13587
▁scharf	-13588
▁schwul	-13589
▁sierra	-13590
▁social	-13591
▁source	-13592
▁spinne	-13593
▁tyrann	-13594
▁tötete	-13595
▁umgibt	-13596
▁zeilen	-13597
abhängig	-13598
anischer	-13599
rechnung	-13600
▁akteure	-13601
▁alltags	-13602
▁anblick	-13603
▁anfühlt	-13604
▁belegen	-13605
▁besaßen	-13606
▁central	-13607
▁delphin	-13608
▁eigener	-13609
▁erreich	-13610
▁gehörte	-13611
▁hochwer	-13612
▁leichen	-13613
▁längere	-13614
▁nummern	-13615
▁patente	-13616
▁schiffe	-13617
▁schlich	-13618
▁sichern	-13619
▁sterber	-13620
▁zehntel	-13621
gerechnet	-13622
zeitalter	-13623
▁ablaufen	-13624
▁barmherz	-13625
▁begangen	-13626
▁begegnet	-13627
▁chemiker	-13628
▁detektor	-13629
▁dienstag	-13630
▁doppelte	-13631
▁gesetzes	-13632
▁goldenen	-13633
▁gouverne	-13634
▁harmonie	-13635
▁illegale	-13636
▁infrarot	-13637
▁jüngsten	-13638
▁moderner	-13639
▁monterey	-13640
▁resonanz	-13641
▁schlauer	-13642
▁schmeckt	-13643
▁umdrehen	-13644
▁variante	-13645
▁versuchs	-13646
▁visionen	-13647
▁vorhaben	-13648
▁zylinder	-13649
experiment	-13650
verhältnis	-13651
verteilung	-13652
▁aluminium	-13653
▁angerufen	-13654
▁ausdrucks	-13655
▁einkaufen	-13656
▁kriterien	-13657
▁landkarte	-13658
▁positives	-13659
▁projektes	-13660
▁raumfahrt	-13661
▁sammelten	-13662
▁schaffung	-13663
▁schwächen	-13664
▁spazieren	-13665
▁teilhaben	-13666
▁vertreter	-13667
▁verwalten	-13668
▁webseiten	-13669
fähigkeiten	-13670
mechanismus	-13671
▁akademiker	-13672
▁aneinander	-13673
▁angehalten	-13674
▁ansammlung	-13675
▁bedeutungs	-13676
▁beobachter	-13677
▁geringsten	-13678
▁hinterkopf	-13679
▁nördlichen	-13680
▁optimieren	-13681
▁organische	-13682
▁skelettmus	-13683
▁städtische	-13684
▁südamerika	-13685
▁bangladesch	-13686
▁behinderung	-13687
▁bergsteiger	-13688
▁betrachtete	-13689
▁empfindlich	-13690
▁erschrecken	-13691
▁frustration	-13692
▁hochgeladen	-13693
▁mechanismen	-13694
▁regulierung	-13695
▁shakespeare	-13696
▁tätigkeiten	-13697
▁verfügbaren	-13698
▁verursachte	-13699
▁ausgerichtet	-13700
▁beängstigend	-13701
▁hervorragend	-13702
▁organisierte	-13703
▁umweltfreund	-13704
▁zwangsläufig	-13705
▁zwischenzeit	-13706
▁entscheidungs	-13707
▁lateinamerika	-13708
▁schreckliches	-13709
▁unterschieden	-13710
▁vorzubereiten	-13711
▁zusammenspiel	-13712
▁beeindruckende	-13713
▁professionelle	-13714
kk	-13715
ky	-13716
tö	-13717
ata	-13718
bod	-13719
bos	-13720
hah	-13721
idi	-13722
kod	-13723
ols	-13724
osh	-13725
tor	-13726
tur	-13727
twe	-13728
ötz	-13729
▁5.	-13730
▁8.	-13731
▁mt	-13732
▁uv	-13733
▁zö	-13734
aiss	-13735
alth	-13736
auff	-13737
belt	-13738
elos	-13739
hall	-13740
klop	-13741
mpfe	-13742
pert	-13743
rein	-13744
time	-13745
▁1,3	-13746
▁15-	-13747
▁15.	-13748
▁16.	-13749
▁160	-13750
▁bor	-13751
▁geo	-13752
▁mes	-13753
▁sha	-13754
ckend	-13755
dsten	-13756
ideen	-13757
lange	-13758
otter	-13759
ronen	-13760
symme	-13761
szeit	-13762
teren	-13763
uhren	-13764
utung	-13765
äuren	-13766
▁aktu	-13767
▁aust	-13768
▁dias	-13769
▁künf	-13770
▁leug	-13771
▁pier	-13772
▁ruck	-13773
▁saat	-13774
▁unfa	-13775
andelt	-13776
anisch	-13777
ansion	-13778
gewalt	-13779
ichere	-13780
ienten	-13781
pagnen	-13782
sebene	-13783
skrank	-13784
steuer	-13785
ströme	-13786
stufen	-13787
teilte	-13788
zoomen	-13789
ützten	-13790
▁ankün	-13791
▁beher	-13792
▁betra	-13793
▁delhi	-13794
▁empor	-13795
▁fülle	-13796
▁herde	-13797
▁invas	-13798
▁plötz	-13799
▁remix	-13800
▁sarah	-13801
▁schir	-13802
▁simul	-13803
▁sound	-13804
▁sumpf	-13805
▁trost	-13806
▁wille	-13807
▁zeile	-13808
▁zweif	-13809
▁ängst	-13810
etschen	-13811
fferson	-13812
fähiger	-13813
gestern	-13814
knochen	-13815
konflik	-13816
liessen	-13817
paganda	-13818
richard	-13819
seitdem	-13820
sendung	-13821
tzeitig	-13822
welches	-13823
zulegen	-13824
züglich	-13825
▁aufruf	-13826
▁barbar	-13827
▁erober	-13828
▁erspar	-13829
▁fakult	-13830
▁festen	-13831
▁feuern	-13832
▁fluktu	-13833
▁gelder	-13834
▁globus	-13835
▁hammer	-13836
▁heranz	-13837
▁horror	-13838
▁hübsch	-13839
▁kambod	-13840
▁kansas	-13841
▁koffer	-13842
▁kurven	-13843
▁kürzer	-13844
▁lecker	-13845
▁leihen	-13846
▁linear	-13847
▁listen	-13848
▁mauern	-13849
▁nadeln	-13850
▁passag	-13851
▁psyche	-13852
▁puppen	-13853
▁quanti	-13854
▁rannte	-13855
▁regnet	-13856
▁scherz	-13857
▁tumore	-13858
▁umsatz	-13859
▁unwohl	-13860
▁verspr	-13861
▁volkes	-13862
▁wilder	-13863
▁zeitra	-13864
▁ziegen	-13865
▁äußere	-13866
aissance	-13867
bereiche	-13868
gespielt	-13869
lösungen	-13870
moleküle	-13871
sekunden	-13872
tatsache	-13873
werkzeug	-13874
▁bezogen	-13875
▁dichten	-13876
▁dirigen	-13877
▁dreieck	-13878
▁drängen	-13879
▁einzelt	-13880
▁fehlern	-13881
▁interag	-13882
▁kennedy	-13883
▁kommand	-13884
▁kostete	-13885
▁lautete	-13886
▁leitete	-13887
▁lernens	-13888
▁mancher	-13889
▁mochten	-13890
▁pfeifen	-13891
▁piloten	-13892
▁samstag	-13893
▁schätzt	-13894
▁sexuell	-13895
▁skizzen	-13896
▁süchtig	-13897
▁wandeln	-13898
▁wundern	-13899
▁wäldern	-13900
▁überaus	-13901
▁übliche	-13902
schrauber	-13903
schrecken	-13904
schritten	-13905
situation	-13906
störungen	-13907
sätzliche	-13908
vergessen	-13909
wettbewer	-13910
▁begriffe	-13911
▁bildeten	-13912
▁erachten	-13913
▁erwecken	-13914
▁football	-13915
▁ganzheit	-13916
▁geistige	-13917
▁geschick	-13918
▁hartnäck	-13919
▁klarheit	-13920
▁lehrplan	-13921
▁mikrofon	-13922
▁motorrad	-13923
▁research	-13924
▁sammelte	-13925
▁schildkr	-13926
▁schwache	-13927
▁unvorher	-13928
▁warteten	-13929
▁übertrag	-13930
generation	-13931
▁beliebige	-13932
▁besuchten	-13933
▁bruchteil	-13934
▁depressiv	-13935
▁derjenige	-13936
▁designern	-13937
▁dominiert	-13938
▁eigentums	-13939
▁erschreck	-13940
▁fehlenden	-13941
▁geistigen	-13942
▁geldgeber	-13943
▁ideologie	-13944
▁imitieren	-13945
▁luftfahrt	-13946
▁metaphern	-13947
▁oberfläch	-13948
▁positiver	-13949
▁riskieren	-13950
▁verbrannt	-13951
▁verbringe	-13952
▁werkstatt	-13953
möglichkeit	-13954
scheidungen	-13955
universität	-13956
▁anerkennen	-13957
▁begeistern	-13958
▁einerseits	-13959
▁fokussiert	-13960
▁highschool	-13961
▁impfstoffe	-13962
▁ingenieurs	-13963
▁intensität	-13964
▁mahlzeiten	-13965
▁mutationen	-13966
▁steigerung	-13967
▁umgebracht	-13968
▁umstritten	-13969
▁untergrund	-13970
▁vernünftig	-13971
▁vertrieben	-13972
▁vorurteile	-13973
▁zufälligen	-13974
versicherung	-13975
▁abschneiden	-13976
▁ausgelöscht	-13977
▁ausschalten	-13978
▁cyberkrimin	-13979
▁eingesperrt	-13980
▁geschnitten	-13981
▁herauskommt	-13982
▁molekularen	-13983
▁notaufnahme	-13984
▁notwendigen	-13985
▁performance	-13986
▁rechtzeitig	-13987
▁renaissance	-13988
▁romantische	-13989
▁schleimpilz	-13990
▁schätzungen	-13991
▁verletzlich	-13992
▁weitergehen	-13993
▁widerstehen	-13994
▁älterwerden	-13995
▁ökologische	-13996
▁übermitteln	-13997
▁inspirierend	-13998
▁mammographie	-13999
▁schulbildung	-14000
▁wahrzunehmen	-14001
▁wortwörtlich	-14002
▁abgeschnitten	-14003
▁einschränkung	-14004
▁einverstanden	-14005
▁gemeinnützige	-14006
▁geschäftswelt	-14007
▁herausstellte	-14008
▁herunterladen	-14009
▁schnittstelle	-14010
▁verpflichtung	-14011
▁allgegenwärtig	-14012
▁transformieren	-14013
▁herzkrankheiten	-14014
▁schwangerschaft	-14015
▁selbstvertrauen	-14016
▁technologischen	-14017
11	-14018
90	-14019
äs	-14020
▁+	-14021
bun	-14022
dor	-14023
gst	-14024
hum	-14025
ily	-14026
ugh	-14027
ußt	-14028
▁52	-14029
▁6.	-14030
▁86	-14031
echt	-14032
eide	-14033
entz	-14034
etze	-14035
fuhr	-14036
gant	-14037
iegt	-14038
ites	-14039
jung	-14040
kart	-14041
kose	-14042
mass	-14043
mien	-14044
miss	-14045
neue	-14046
osse	-14047
poli	-14048
rain	-14049
rott	-14050
umer	-14051
vent	-14052
äufe	-14053
▁180	-14054
▁aha	-14055
▁bad	-14056
▁cur	-14057
▁int	-14058
▁lhc	-14059
▁mix	-14060
▁tai	-14061
▁tit	-14062
▁öko	-14063
alore	-14064
anzug	-14065
atrie	-14066
autor	-14067
babwe	-14068
cover	-14069
dinge	-14070
flüge	-14071
liegt	-14072
point	-14073
siver	-14074
spekt	-14075
trägt	-14076
▁1995	-14077
▁able	-14078
▁anek	-14079
▁arte	-14080
▁bart	-14081
▁camp	-14082
▁coch	-14083
▁emer	-14084
▁finn	-14085
▁happ	-14086
▁hosp	-14087
▁jane	-14088
▁moma	-14089
▁nenn	-14090
▁nike	-14091
▁rufe	-14092
▁ruhm	-14093
▁slum	-14094
▁stoß	-14095
▁teig	-14096
▁terr	-14097
▁tust	-14098
▁unnö	-14099
▁utop	-14100
bedien	-14101
ington	-14102
kehrte	-14103
künfte	-14104
legung	-14105
minist	-14106
restau	-14107
schern	-14108
sollte	-14109
stunde	-14110
warten	-14111
westen	-14112
wunsch	-14113
▁6.000	-14114
▁album	-14115
▁archä	-14116
▁bauer	-14117
▁beach	-14118
▁biene	-14119
▁chips	-14120
▁craig	-14121
▁entmu	-14122
▁ermor	-14123
▁faden	-14124
▁flüch	-14125
▁gebir	-14126
▁gewer	-14127
▁graff	-14128
▁image	-14129
▁impor	-14130
▁kevin	-14131
▁lasen	-14132
▁polen	-14133
▁reist	-14134
▁setze	-14135
▁space	-14136
▁steck	-14137
▁venus	-14138
▁wählt	-14139
depress	-14140
händler	-14141
kameras	-14142
kindern	-14143
sammeln	-14144
schüler	-14145
veranst	-14146
▁60.000	-14147
▁alaska	-14148
▁arrang	-14149
▁belegt	-14150
▁beläst	-14151
▁betrag	-14152
▁brille	-14153
▁buddha	-14154
▁comedy	-14155
▁deuten	-14156
▁entwür	-14157
▁erkenn	-14158
▁feucht	-14159
▁fünfte	-14160
▁gelehr	-14161
▁geschm	-14162
▁kosmos	-14163
▁lauten	-14164
▁lehrte	-14165
▁letzen	-14166
▁museen	-14167
▁mörder	-14168
▁philip	-14169
▁quadra	-14170
▁röhren	-14171
▁schoss	-14172
▁sexual	-14173
▁sprang	-14174
▁träger	-14175
▁tugend	-14176
▁vorant	-14177
▁wilden	-14178
allappen	-14179
digungen	-14180
stellige	-14181
verstand	-14182
▁ausführ	-14183
▁billige	-14184
▁billion	-14185
▁flecken	-14186
▁fordert	-14187
▁fünftel	-14188
▁galerie	-14189
▁gattung	-14190
▁gemisch	-14191
▁genauen	-14192
▁hormone	-14193
▁händler	-14194
▁indigen	-14195
▁journal	-14196
▁kräften	-14197
▁landwir	-14198
▁mentale	-14199
▁nötigen	-14200
▁reaktor	-14201
▁schläft	-14202
▁stephen	-14203
▁trommel	-14204
▁töteten	-14205
▁vitamin	-14206
▁vorange	-14207
▁wassers	-14208
▁älterer	-14209
restauran	-14210
sprobleme	-14211
▁abschied	-14212
▁auslöser	-14213
▁betrügen	-14214
▁betrüger	-14215
▁derselbe	-14216
▁fehlende	-14217
▁geheimen	-14218
▁gerissen	-14219
▁gesamtes	-14220
▁grafiken	-14221
▁handvoll	-14222
▁mahlzeit	-14223
▁massiven	-14224
▁mädchens	-14225
▁plankton	-14226
▁polizist	-14227
▁rohstoff	-14228
▁schließe	-14229
▁senioren	-14230
▁wiederzu	-14231
▁zulassen	-14232
▁örtliche	-14233
▁überschw	-14234
▁überwach	-14235
ungsmittel	-14236
▁abholzung	-14237
▁bangalore	-14238
▁brillante	-14239
▁bräuchten	-14240
▁dschungel	-14241
▁entwarfen	-14242
▁haushalte	-14243
▁migration	-14244
▁molekülen	-14245
▁schmetter	-14246
▁steuerung	-14247
▁unbekannt	-14248
▁universal	-14249
▁vermehren	-14250
▁vermischt	-14251
▁veteranen	-14252
▁visueller	-14253
▁zufällige	-14254
▁überblick	-14255
▁überflüss	-14256
übertragung	-14257
▁assoziiert	-14258
▁aufsteigen	-14259
▁ausgedacht	-14260
▁ausrichten	-14261
▁diplomatie	-14262
▁einzugehen	-14263
▁flugzeugen	-14264
▁herrschaft	-14265
▁historisch	-14266
▁kollektive	-14267
▁lebenszeit	-14268
▁mitbringen	-14269
▁musikstück	-14270
▁nachdachte	-14271
▁operations	-14272
▁psychiater	-14273
▁sichtbaren	-14274
▁spielzeuge	-14275
▁symmetrien	-14276
▁todesfälle	-14277
▁verabschie	-14278
▁vernetzung	-14279
▁versammeln	-14280
▁verspreche	-14281
▁wendepunkt	-14282
▁abgelegenen	-14283
▁ausgestellt	-14284
▁dergleichen	-14285
▁eingebettet	-14286
▁explodieren	-14287
▁hinausgehen	-14288
▁kontinenten	-14289
▁multination	-14290
▁nachthimmel	-14291
▁praktischen	-14292
▁universelle	-14293
▁verlangsamt	-14294
▁vordergrund	-14295
einrichtungen	-14296
▁akademischen	-14297
▁aussergewöhn	-14298
▁bereitschaft	-14299
▁verlangsamen	-14300
▁verschlüssel	-14301
▁vorbereitung	-14302
▁erfolgreicher	-14303
▁fundamentalen	-14304
▁psychologischen	-14305
jc	-14306
aby	-14307
por	-14308
ule	-14309
▁47	-14310
▁53	-14311
▁96	-14312
▁bü	-14313
▁dy	-14314
▁sn	-14315
▁wu	-14316
alai	-14317
amer	-14318
arme	-14319
gige	-14320
inas	-14321
itis	-14322
läuf	-14323
mitt	-14324
oden	-14325
okon	-14326
oton	-14327
quis	-14328
ript	-14329
[...]
